<pad>	0
<unk>	0
<s>	0
</s>	0
▁t	-0
he	-1
▁a	-2
in	-3
ou	-4
re	-5
▁w	-6
▁s	-7
on	-8
▁the	-9
ha	-10
▁I	-11
▁m	-12
er	-13
▁y	-14
▁b	-15
is	-16
▁c	-17
▁you	-18
it	-19
ing	-20
▁d	-21
ll	-22
or	-23
▁f	-24
▁to	-25
an	-26
en	-27
▁o	-28
▁p	-29
ed	-30
▁g	-31
es	-32
nd	-33
hat	-34
▁l	-35
at	-36
▁n	-37
om	-38
ar	-39
▁of	-40
▁in	-41
ve	-42
▁T	-43
ow	-44
ot	-45
et	-46
as	-47
..	-48
us	-49
▁th	-50
▁W	-51
▁he	-52
▁be	-53
▁and	-54
ic	-55
▁h	-56
▁ha	-57
le	-58
ay	-59
al	-60
▁A	-61
ion	-62
▁it	-63
id	-64
▁S	-65
▁that	-66
▁Y	-67
▁is	-68
▁on	-69
▁e	-70
▁me	-71
▁re	-72
ld	-73
ut	-74
gh	-75
im	-76
▁k	-77
▁we	-78
▁for	-79
ac	-80
ent	-81
▁H	-82
ver	-83
▁You	-84
ro	-85
ke	-86
▁M	-87
out	-88
▁The	-89
ri	-90
ght	-91
▁C	-92
se	-93
▁do	-94
...	-95
oo	-96
▁st	-97
ith	-98
ad	-99
▁B	-100
ec	-101
ly	-102
▁was	-103
▁this	-104
▁not	-105
▁an	-106
st	-107
am	-108
▁with	-109
▁D	-110
▁your	-111
ust	-112
▁u	-113
ir	-114
▁li	-115
ill	-116
▁have	-117
▁N	-118
▁kn	-119
ould	-120
▁my	-121
ome	-122
ant	-123
all	-124
▁We	-125
▁know	-126
▁O	-127
her	-128
▁are	-129
▁j	-130
ur	-131
if	-132
▁can	-133
ation	-134
ee	-135
▁ne	-136
ce	-137
▁L	-138
▁It	-139
ter	-140
▁don	-141
ho	-142
▁as	-143
uc	-144
pp	-145
▁go	-146
▁P	-147
hing	-148
▁what	-149
▁ab	-150
▁G	-151
▁He	-152
il	-153
▁at	-154
▁all	-155
ul	-156
ra	-157
▁E	-158
our	-159
▁just	-160
▁And	-161
ore	-162
▁like	-163
op	-164
un	-165
▁R	-166
▁get	-167
▁out	-168
▁sh	-169
one	-170
▁about	-171
▁so	-172
ake	-173
▁con	-174
ess	-175
ea	-176
ink	-177
▁F	-178
rom	-179
ure	-180
ge	-181
ate	-182
▁What	-183
est	-184
▁us	-185
▁pro	-186
▁here	-187
▁want	-188
art	-189
▁him	-190
ry	-191
end	-192
▁or	-193
▁J	-194
▁there	-195
ack	-196
▁up	-197
ain	-198
ie	-199
▁wor	-200
ive	-201
ight	-202
and	-203
▁de	-204
um	-205
han	-206
ab	-207
king	-208
▁her	-209
very	-210
▁did	-211
ell	-212
ood	-213
ist	-214
▁r	-215
▁any	-216
ally	-217
▁al	-218
▁but	-219
od	-220
ig	-221
ect	-222
ol	-223
ers	-224
▁ex	-225
▁ri	-226
▁com	-227
▁whe	-228
▁think	-229
▁got	-230
▁from	-231
em	-232
os	-233
▁one	-234
ind	-235
▁they	-236
ct	-237
▁no	-238
qu	-239
▁No	-240
▁right	-241
na	-242
ch	-243
ort	-244
ook	-245
▁if	-246
▁will	-247
▁1	-248
nt	-249
▁That	-250
ime	-251
▁Th	-252
▁sa	-253
ast	-254
ment	-255
▁she	-256
hy	-257
▁But	-258
▁pl	-259
▁see	-260
▁some	-261
▁"	-262
▁his	-263
▁who	-264
ity	-265
▁v	-266
ame	-267
red	-268
rou	-269
ven	-270
ard	-271
ong	-272
res	-273
ear	-274
▁by	-275
▁lo	-276
▁would	-277
▁sp	-278
▁2	-279
ine	-280
▁man	-281
ies	-282
ice	-283
00	-284
▁were	-285
▁Well	-286
▁time	-287
▁been	-288
▁now	-289
use	-290
▁ag	-291
▁This	-292
▁need	-293
▁So	-294
▁say	-295
fe	-296
▁su	-297
▁them	-298
el	-299
▁int	-300
onna	-301
▁gu	-302
ber	-303
▁back	-304
▁gonna	-305
▁(	-306
▁could	-307
▁our	-308
way	-309
▁has	-310
ide	-311
ff	-312
omet	-313
▁tr	-314
ause	-315
iss	-316
▁had	-317
itt	-318
ud	-319
ag	-320
ther	-321
▁should	-322
pt	-323
▁-	-324
own	-325
ase	-326
▁when	-327
act	-328
▁K	-329
ace	-330
▁thing	-331
▁le	-332
▁off	-333
▁She	-334
▁going	-335
▁good	-336
are	-337
▁too	-338
thing	-339
ble	-340
▁St	-341
▁tell	-342
ous	-343
ak	-344
other	-345
▁U	-346
eah	-347
hi	-348
▁They	-349
ick	-350
pl	-351
▁every	-352
▁somet	-353
per	-354
▁how	-355
▁If	-356
reat	-357
▁am	-358
▁sha	-359
th	-360
▁Oh	-361
▁cl	-362
▁mean	-363
▁didn	-364
▁more	-365
▁How	-366
uch	-367
lf	-368
ck	-369
iv	-370
▁en	-371
▁take	-372
eop	-373
▁im	-374
ose	-375
eople	-376
▁tal	-377
▁something	-378
▁co	-379
▁se	-380
▁than	-381
▁There	-382
▁way	-383
▁happ	-384
ire	-385
▁Yeah	-386
▁over	-387
kay	-388
▁qu	-389
ions	-390
▁come	-391
▁never	-392
▁call	-393
▁In	-394
▁other	-395
▁make	-396
▁ad	-397
▁Whe	-398
ial	-399
▁mo	-400
▁ac	-401
age	-402
▁look	-403
ody	-404
▁work	-405
hic	-406
▁only	-407
▁does	-408
▁pr	-409
▁day	-410
omm	-411
▁really	-412
▁bl	-413
ound	-414
▁people	-415
▁down	-416
▁app	-417
▁bet	-418
▁said	-419
be	-420
ord	-421
ue	-422
uck	-423
wo	-424
ree	-425
port	-426
▁guy	-427
ass	-428
▁year	-429
nder	-430
▁let	-431
ond	-432
▁ro	-433
▁bec	-434
▁part	-435
▁Do	-436
ance	-437
ne	-438
pe	-439
▁may	-440
▁into	-441
▁cont	-442
ving	-443
fore	-444
▁sc	-445
lp	-446
▁then	-447
oy	-448
▁their	-449
▁un	-450
▁pre	-451
ittle	-452
ew	-453
irst	-454
ary	-455
▁shall	-456
▁Mr	-457
▁kill	-458
▁again	-459
ite	-460
▁Re	-461
▁thou	-462
able	-463
orm	-464
▁af	-465
ting	-466
▁under	-467
▁little	-468
▁help	-469
ated	-470
ans	-471
ia	-472
▁Why	-473
▁res	-474
▁where	-475
hich	-476
self	-477
▁An	-478
▁br	-479
▁V	-480
ach	-481
▁two	-482
ning	-483
▁very	-484
ap	-485
ount	-486
riend	-487
▁dis	-488
ade	-489
▁happen	-490
▁Don	-491
eel	-492
wn	-493
▁find	-494
▁even	-495
▁My	-496
iz	-497
ady	-498
ress	-499
ved	-500
▁act	-501
▁ar	-502
▁bel	-503
▁comp	-504
▁Comm	-505
▁po	-506
▁Is	-507
ember	-508
og	-509
▁All	-510
▁first	-511
uct	-512
▁these	-513
ish	-514
body	-515
▁why	-516
get	-517
▁'	-518
▁much	-519
▁life	-520
▁must	-521
eep	-522
▁love	-523
ather	-524
ks	-525
▁new	-526
▁feel	-527
ren	-528
we	-529
▁still	-530
ence	-531
▁per	-532
ip	-533
int	-534
▁fo	-535
ob	-536
▁acc	-537
▁car	-538
ations	-539
▁which	-540
ull	-541
round	-542
▁before	-543
ign	-544
▁Now	-545
lease	-546
ult	-547
▁mar	-548
▁thought	-549
▁talk	-550
▁because	-551
▁anything	-552
ub	-553
▁long	-554
▁after	-555
▁wr	-556
urn	-557
▁3	-558
▁doing	-559
ty	-560
ory	-561
ise	-562
▁ass	-563
▁home	-564
▁last	-565
ves	-566
har	-567
▁chan	-568
▁rem	-569
ail	-570
▁rec	-571
▁those	-572
▁sure	-573
ft	-574
▁friend	-575
ater	-576
▁Look	-577
hed	-578
ons	-579
▁sec	-580
▁years	-581
▁Just	-582
ep	-583
▁Not	-584
ool	-585
oney	-586
▁give	-587
row	-588
ents	-589
day	-590
▁night	-591
ever	-592
▁lea	-593
."	-594
ait	-595
anc	-596
▁Ar	-597
▁gir	-598
▁try	-599
▁Hey	-600
▁Let	-601
▁hand	-602
▁put	-603
au	-604
ough	-605
▁well	-606
▁fl	-607
ways	-608
ical	-609
▁belie	-610
ouse	-611
ission	-612
so	-613
ied	-614
▁told	-615
▁made	-616
ict	-617
pect	-618
▁May	-619
ious	-620
ates	-621
form	-622
ave	-623
ily	-624
oss	-625
aking	-626
orry	-627
▁inc	-628
▁ask	-629
▁start	-630
▁place	-631
▁ser	-632
av	-633
▁che	-634
gul	-635
▁won	-636
▁better	-637
▁always	-638
vel	-639
▁Okay	-640
xt	-641
▁ever	-642
▁things	-643
tic	-644
▁keep	-645
ang	-646
uro	-647
▁te	-648
▁kid	-649
▁Who	-650
ens	-651
▁inv	-652
▁doesn	-653
▁real	-654
▁Where	-655
▁girl	-656
▁own	-657
▁Yes	-658
ition	-659
▁200	-660
▁min	-661
▁Your	-662
▁supp	-663
AR	-664
▁dr	-665
▁dec	-666
--	-667
▁name	-668
ating	-669
▁comm	-670
▁away	-671
rough	-672
▁sm	-673
llow	-674
▁bu	-675
ually	-676
▁okay	-677
▁around	-678
▁mon	-679
ried	-680
▁great	-681
rap	-682
lic	-683
▁cr	-684
ors	-685
▁show	-686
ert	-687
▁When	-688
▁God	-689
▁through	-690
▁nothing	-691
ple	-692
▁care	-693
▁fin	-694
duct	-695
▁el	-696
ath	-697
▁believe	-698
les	-699
▁gr	-700
ible	-701
ian	-702
▁old	-703
uth	-704
▁being	-705
▁play	-706
▁pers	-707
ng	-708
ms	-709
▁id	-710
▁use	-711
▁wom	-712
▁Ch	-713
▁Can	-714
side	-715
oc	-716
▁des	-717
ix	-718
▁har	-719
▁follow	-720
▁For	-721
▁money	-722
▁wanted	-723
▁big	-724
▁Euro	-725
up	-726
old	-727
▁also	-728
▁everything	-729
▁kind	-730
li	-731
▁might	-732
▁found	-733
▁lot	-734
▁As	-735
ince	-736
igh	-737
ful	-738
aw	-739
▁fam	-740
▁4	-741
▁dif	-742
EC	-743
▁sub	-744
▁head	-745
▁Are	-746
ject	-747
man	-748
ific	-749
▁world	-750
gulation	-751
der	-752
▁Un	-753
▁end	-754
▁Then	-755
▁meet	-756
▁5	-757
▁ent	-758
▁done	-759
▁same	-760
▁boy	-761
▁str	-762
▁Europe	-763
▁sy	-764
▁house	-765
▁att	-766
▁bad	-767
▁Did	-768
atch	-769
▁used	-770
▁em	-771
▁sur	-772
ug	-773
ark	-774
▁wait	-775
▁op	-776
▁Maybe	-777
▁sorry	-778
akes	-779
rest	-780
▁stay	-781
ps	-782
▁bus	-783
▁Regulation	-784
ost	-785
▁Come	-786
▁its	-787
▁cle	-788
▁someone	-789
rain	-790
▁person	-791
▁run	-792
▁father	-793
ticle	-794
▁guys	-795
▁bot	-796
▁dead	-797
▁leave	-798
ife	-799
▁ev	-800
enc	-801
▁three	-802
ner	-803
▁Bec	-804
rent	-805
▁left	-806
imes	-807
▁ind	-808
▁chi	-809
▁came	-810
ooking	-811
▁another	-812
▁pol	-813
▁else	-814
▁count	-815
▁wee	-816
▁happened	-817
ures	-818
▁hear	-819
▁plan	-820
▁Commission	-821
▁isn	-822
ments	-823
ib	-824
▁cons	-825
ny	-826
▁spec	-827
▁cour	-828
▁ob	-829
▁inter	-830
ities	-831
▁list	-832
▁met	-833
▁stop	-834
atter	-835
ual	-836
▁On	-837
air	-838
▁conc	-839
▁hell	-840
▁wrong	-841
ings	-842
hes	-843
ute	-844
stand	-845
▁sho	-846
▁set	-847
▁please	-848
▁Article	-849
▁prov	-850
ope	-851
ision	-852
aught	-853
▁Because	-854
ock	-855
hn	-856
▁wasn	-857
ready	-858
ret	-859
▁rel	-860
▁best	-861
ank	-862
▁most	-863
▁mother	-864
ta	-865
▁Am	-866
▁fun	-867
▁♪	-868
▁20	-869
ident	-870
▁getting	-871
ont	-872
▁proble	-873
▁ph	-874
▁enough	-875
▁job	-876
▁mom	-877
▁such	-878
▁import	-879
irect	-880
▁already	-881
▁child	-882
▁family	-883
▁coming	-884
▁reg	-885
oun	-886
▁talking	-887
▁To	-888
▁went	-889
▁bo	-890
▁trans	-891
▁point	-892
▁product	-893
▁Jo	-894
▁hour	-895
▁without	-896
▁Al	-897
▁ch	-898
▁diffe	-899
▁quest	-900
ike	-901
ile	-902
rop	-903
ient	-904
als	-905
▁today	-906
anna	-907
▁saw	-908
▁understand	-909
chool	-910
gether	-911
▁trying	-912
▁together	-913
▁_	-914
here	-915
ower	-916
▁turn	-917
BAR	-918
iness	-919
▁war	-920
▁inform	-921
▁num	-922
▁i	-923
▁gl	-924
cept	-925
▁room	-926
uff	-927
▁fr	-928
▁case	-929
ax	-930
osed	-931
▁miss	-932
▁bit	-933
▁Every	-934
▁looking	-935
▁imp	-936
▁pret	-937
▁European	-938
lud	-939
▁many	-940
▁sign	-941
▁Mar	-942
▁bre	-943
▁add	-944
▁hard	-945
gr	-946
▁Get	-947
ucking	-948
▁month	-949
▁next	-950
▁Than	-951
▁bab	-952
med	-953
ween	-954
▁wouldn	-955
▁seen	-956
▁pres	-957
▁whole	-958
▁yourself	-959
▁stand	-960
vers	-961
▁son	-962
▁days	-963
ness	-964
ntil	-965
▁ref	-966
▁ago	-967
▁school	-968
ger	-969
▁6	-970
its	-971
▁19	-972
▁sl	-973
stem	-974
▁uh	-975
hile	-976
less	-977
▁ter	-978
▁mor	-979
▁took	-980
▁Some	-981
▁maybe	-982
▁pay	-983
ward	-984
ey	-985
pped	-986
▁det	-987
▁means	-988
▁pat	-989
▁mind	-990
▁called	-991
▁sw	-992
▁killed	-993
▁Or	-994
▁open	-995
▁compl	-996
▁between	-997
▁remember	-998
▁second	-999
ream	-1000
▁prot	-1001
ection	-1002
ric	-1003
▁requ	-1004
▁word	-1005
▁def	-1006
ason	-1007
▁poss	-1008
▁Br	-1009
ister	-1010
ention	-1011
▁woman	-1012
200	-1013
ird	-1014
▁ra	-1015
ned	-1016
und	-1017
▁each	-1018
▁live	-1019
ild	-1020
ener	-1021
▁hur	-1022
ered	-1023
▁Go	-1024
▁TH	-1025
ER	-1026
▁few	-1027
▁hum	-1028
▁wanna	-1029
ets	-1030
▁rest	-1031
▁char	-1032
▁inst	-1033
ged	-1034
▁knew	-1035
▁par	-1036
▁report	-1037
▁matter	-1038
▁...	-1039
▁since	-1040
▁both	-1041
▁disc	-1042
ines	-1043
▁ey	-1044
▁idea	-1045
▁fucking	-1046
▁Sp	-1047
ss	-1048
ility	-1049
▁blood	-1050
ired	-1051
ited	-1052
sel	-1053
▁inte	-1054
ced	-1055
ably	-1056
▁One	-1057
unity	-1058
▁fuck	-1059
▁men	-1060
▁cha	-1061
▁friends	-1062
cess	-1063
ised	-1064
▁Any	-1065
▁business	-1066
▁med	-1067
ational	-1068
IN	-1069
▁wife	-1070
ffect	-1071
▁heard	-1072
▁sle	-1073
me	-1074
▁brother	-1075
ove	-1076
▁conf	-1077
▁Sh	-1078
▁sir	-1079
▁far	-1080
alk	-1081
az	-1082
▁system	-1083
ins	-1084
▁dri	-1085
ize	-1086
ither	-1087
▁problem	-1088
ling	-1089
▁Fr	-1090
▁ret	-1091
▁fight	-1092
▁until	-1093
▁wants	-1094
▁ins	-1095
▁ton	-1096
uring	-1097
▁heart	-1098
▁Member	-1099
uthor	-1100
▁following	-1101
ork	-1102
▁information	-1103
▁baby	-1104
▁course	-1105
▁sk	-1106
▁bring	-1107
▁bas	-1108
min	-1109
▁pretty	-1110
by	-1111
▁deal	-1112
▁guess	-1113
▁At	-1114
lect	-1115
led	-1116
▁Dr	-1117
ution	-1118
orn	-1119
▁9	-1120
▁myself	-1121
▁number	-1122
▁having	-1123
▁mark	-1124
▁ca	-1125
land	-1126
ON	-1127
▁high	-1128
▁Please	-1129
▁anyone	-1130
ene	-1131
▁dad	-1132
▁week	-1133
▁gotta	-1134
▁yet	-1135
▁nice	-1136
▁different	-1137
utes	-1138
▁haven	-1139
orrow	-1140
ative	-1141
▁fact	-1142
ying	-1143
▁ext	-1144
ah	-1145
▁Uh	-1146
▁cert	-1147
▁De	-1148
▁hope	-1149
▁actually	-1150
▁saying	-1151
▁says	-1152
▁working	-1153
ci	-1154
▁Be	-1155
rew	-1156
arly	-1157
▁pass	-1158
▁leg	-1159
▁morning	-1160
rol	-1161
▁sit	-1162
▁fine	-1163
▁alone	-1164
▁check	-1165
ash	-1166
▁tri	-1167
gan	-1168
▁hat	-1169
uh	-1170
▁10	-1171
▁hold	-1172
▁important	-1173
▁once	-1174
).	-1175
▁move	-1176
▁exp	-1177
▁8	-1178
hip	-1179
ices	-1180
ately	-1181
▁couldn	-1182
olog	-1183
▁while	-1184
▁States	-1185
▁interest	-1186
ars	-1187
▁law	-1188
▁pub	-1189
▁test	-1190
att	-1191
ison	-1192
▁least	-1193
bably	-1194
gg	-1195
▁die	-1196
arent	-1197
▁death	-1198
▁7	-1199
ided	-1200
▁With	-1201
▁shit	-1202
▁against	-1203
▁cho	-1204
▁tra	-1205
AT	-1206
▁drink	-1207
▁tonight	-1208
zy	-1209
▁exc	-1210
▁face	-1211
▁water	-1212
▁bro	-1213
ives	-1214
▁expl	-1215
▁happy	-1216
▁prom	-1217
▁Good	-1218
▁eas	-1219
▁cor	-1220
ense	-1221
▁taking	-1222
▁[	-1223
ital	-1224
uss	-1225
io	-1226
any	-1227
ared	-1228
▁mur	-1229
where	-1230
ract	-1231
▁author	-1232
▁Cl	-1233
▁tom	-1234
▁body	-1235
▁makes	-1236
dd	-1237
ier	-1238
ross	-1239
▁gave	-1240
▁sleep	-1241
▁treat	-1242
ale	-1243
▁serv	-1244
▁knows	-1245
te	-1246
ts	-1247
▁stud	-1248
▁rep	-1249
▁resp	-1250
▁stuff	-1251
ished	-1252
ump	-1253
▁side	-1254
▁Tell	-1255
ended	-1256
▁read	-1257
not	-1258
▁Ex	-1259
▁See	-1260
▁minutes	-1261
▁cou	-1262
▁coll	-1263
▁thinking	-1264
rist	-1265
ctor	-1266
▁soon	-1267
▁change	-1268
▁nec	-1269
dy	-1270
OU	-1271
▁wond	-1272
▁ready	-1273
▁exact	-1274
▁pri	-1275
▁lost	-1276
pr	-1277
eak	-1278
aken	-1279
▁meas	-1280
aut	-1281
▁Dec	-1282
▁question	-1283
sw	-1284
aid	-1285
▁cra	-1286
▁gone	-1287
▁hours	-1288
▁partic	-1289
▁oper	-1290
▁mess	-1291
▁power	-1292
my	-1293
ries	-1294
▁full	-1295
amp	-1296
▁free	-1297
ane	-1298
▁concer	-1299
▁wh	-1300
▁Here	-1301
▁Z	-1302
▁jo	-1303
eed	-1304
nex	-1305
▁Pro	-1306
▁break	-1307
▁#	-1308
▁gun	-1309
▁EU	-1310
▁kids	-1311
ete	-1312
ounc	-1313
▁reason	-1314
rence	-1315
▁Like	-1316
aughter	-1317
more	-1318
ients	-1319
▁includ	-1320
▁four	-1321
velop	-1322
▁pain	-1323
▁sound	-1324
▁pur	-1325
of	-1326
▁less	-1327
erg	-1328
▁Me	-1329
▁inf	-1330
▁accord	-1331
ering	-1332
▁mem	-1333
atc	-1334
▁yes	-1335
▁months	-1336
ues	-1337
▁young	-1338
▁probably	-1339
vie	-1340
▁Af	-1341
▁val	-1342
amn	-1343
ency	-1344
eric	-1345
▁Have	-1346
▁sim	-1347
▁These	-1348
▁invest	-1349
ular	-1350
app	-1351
ield	-1352
▁light	-1353
▁needs	-1354
▁dep	-1355
ung	-1356
cc	-1357
br	-1358
▁trust	-1359
▁ap	-1360
/200	-1361
ffic	-1362
▁air	-1363
▁phone	-1364
band	-1365
▁hurt	-1366
▁lead	-1367
ics	-1368
ten	-1369
▁human	-1370
rib	-1371
▁Ag	-1372
son	-1373
▁shot	-1374
▁listen	-1375
▁adv	-1376
▁sent	-1377
ouncil	-1378
▁His	-1379
ants	-1380
▁door	-1381
▁hands	-1382
▁hot	-1383
▁true	-1384
▁est	-1385
▁tomorrow	-1386
▁Dad	-1387
aster	-1388
ange	-1389
raph	-1390
▁asked	-1391
▁ain	-1392
▁hit	-1393
▁cond	-1394
▁fore	-1395
abl	-1396
▁beaut	-1397
iven	-1398
▁book	-1399
▁form	-1400
▁walk	-1401
▁effect	-1402
▁control	-1403
▁worry	-1404
usband	-1405
▁dream	-1406
▁chance	-1407
▁Will	-1408
▁certain	-1409
▁everyone	-1410
▁answ	-1411
▁av	-1412
▁Q	-1413
aj	-1414
▁times	-1415
▁supposed	-1416
▁five	-1417
▁late	-1418
▁pick	-1419
▁eat	-1420
▁fig	-1421
▁fire	-1422
▁cut	-1423
▁dist	-1424
▁order	-1425
▁exactly	-1426
▁mil	-1427
ified	-1428
▁inside	-1429
▁sing	-1430
▁Annex	-1431
▁expect	-1432
▁Of	-1433
▁taken	-1434
▁New	-1435
▁cop	-1436
▁game	-1437
idence	-1438
▁close	-1439
▁ty	-1440
raid	-1441
gin	-1442
▁swe	-1443
▁THE	-1444
▁exper	-1445
▁bed	-1446
co	-1447
duc	-1448
▁able	-1449
▁develop	-1450
lo	-1451
▁food	-1452
▁Thank	-1453
▁husband	-1454
▁build	-1455
ames	-1456
▁party	-1457
the	-1458
ium	-1459
ards	-1460
ery	-1461
inc	-1462
▁Se	-1463
▁Car	-1464
▁truth	-1465
▁possible	-1466
▁sex	-1467
▁gets	-1468
▁country	-1469
ude	-1470
ator	-1471
illion	-1472
▁looks	-1473
▁making	-1474
▁children	-1475
mm	-1476
▁15	-1477
gram	-1478
iful	-1479
▁fav	-1480
▁safe	-1481
▁town	-1482
▁clear	-1483
AN	-1484
ys	-1485
ote	-1486
▁Direct	-1487
▁12	-1488
▁Christ	-1489
▁afraid	-1490
ruct	-1491
▁bar	-1492
▁police	-1493
000	-1494
▁story	-1495
▁cannot	-1496
▁daughter	-1497
▁Community	-1498
▁Le	-1499
▁aw	-1500
▁appro	-1501
▁Sc	-1502
▁John	-1503
ased	-1504
▁ris	-1505
▁later	-1506
▁?	-1507
ges	-1508
ole	-1509
most	-1510
▁Par	-1511
▁public	-1512
▁died	-1513
ured	-1514
▁lear	-1515
▁anymore	-1516
ules	-1517
▁Americ	-1518
▁women	-1519
ety	-1520
unch	-1521
iting	-1522
▁eyes	-1523
▁market	-1524
con	-1525
▁fall	-1526
ton	-1527
▁gener	-1528
ined	-1529
▁Take	-1530
▁Council	-1531
to	-1532
ces	-1533
▁fil	-1534
▁Gr	-1535
▁fa	-1536
▁ve	-1537
▁class	-1538
osp	-1539
▁cap	-1540
▁loc	-1541
rought	-1542
ides	-1543
ural	-1544
ement	-1545
▁Somet	-1546
nal	-1547
▁half	-1548
▁protect	-1549
outh	-1550
▁dest	-1551
EN	-1552
▁Man	-1553
▁Mrs	-1554
▁fre	-1555
▁either	-1556
▁line	-1557
inal	-1558
▁Our	-1559
▁sol	-1560
ional	-1561
▁dra	-1562
▁started	-1563
urity	-1564
hind	-1565
▁cur	-1566
▁iss	-1567
▁yeah	-1568
▁%	-1569
),	-1570
▁Tr	-1571
▁Right	-1572
▁Gu	-1573
iving	-1574
▁mine	-1575
▁OK	-1576
▁hon	-1577
▁vis	-1578
▁Give	-1579
cle	-1580
par	-1581
▁equ	-1582
▁within	-1583
▁es	-1584
ata	-1585
▁di	-1586
ought	-1587
▁prop	-1588
echn	-1589
ending	-1590
▁trou	-1591
ically	-1592
ters	-1593
▁team	-1594
ted	-1595
▁office	-1596
▁Pr	-1597
▁huh	-1598
▁direct	-1599
vern	-1600
▁dem	-1601
head	-1602
▁mod	-1603
▁luck	-1604
ES	-1605
apt	-1606
▁aren	-1607
▁dog	-1608
▁crazy	-1609
▁behind	-1610
▁sister	-1611
ially	-1612
iously	-1613
▁doctor	-1614
▁parent	-1615
▁brought	-1616
▁state	-1617
▁during	-1618
▁necess	-1619
▁beautiful	-1620
fect	-1621
▁tou	-1622
▁date	-1623
▁allow	-1624
▁record	-1625
fer	-1626
OR	-1627
▁Act	-1628
anger	-1629
unk	-1630
▁offic	-1631
▁telling	-1632
cum	-1633
agraph	-1634
▁speak	-1635
▁watch	-1636
▁.	-1637
▁pos	-1638
hen	-1639
ience	-1640
▁Char	-1641
▁train	-1642
▁whatever	-1643
▁cent	-1644
▁applic	-1645
come	-1646
▁201	-1647
eal	-1648
ages	-1649
▁land	-1650
▁though	-1651
IS	-1652
▁couple	-1653
ok	-1654
ina	-1655
▁Con	-1656
▁level	-1657
▁become	-1658
▁outside	-1659
▁somebody	-1660
▁news	-1661
▁shoot	-1662
▁small	-1663
▁support	-1664
no	-1665
men	-1666
▁comes	-1667
ury	-1668
▁ship	-1669
▁wish	-1670
▁account	-1671
▁special	-1672
bers	-1673
▁List	-1674
ING	-1675
▁goes	-1676
▁Union	-1677
▁Bl	-1678
▁prof	-1679
uation	-1680
▁moment	-1681
▁tot	-1682
▁win	-1683
ature	-1684
▁forget	-1685
▁contain	-1686
▁respect	-1687
iod	-1688
▁Miss	-1689
erv	-1690
▁Does	-1691
▁six	-1692
ption	-1693
ony	-1694
roup	-1695
▁cost	-1696
ding	-1697
▁Har	-1698
▁alive	-1699
▁thank	-1700
▁Jack	-1701
▁Pres	-1702
ats	-1703
▁State	-1704
▁products	-1705
▁return	-1706
▁easy	-1707
upid	-1708
right	-1709
▁wonder	-1710
▁Dan	-1711
▁fix	-1712
▁company	-1713
▁past	-1714
▁Ab	-1715
▁front	-1716
▁married	-1717
▁forg	-1718
▁necessary	-1719
▁Her	-1720
▁wind	-1721
▁lives	-1722
▁secret	-1723
ush	-1724
ination	-1725
sy	-1726
oll	-1727
ases	-1728
▁almost	-1729
▁financ	-1730
▁din	-1731
▁Listen	-1732
▁sn	-1733
▁dou	-1734
▁30	-1735
▁sus	-1736
▁wear	-1737
itions	-1738
selves	-1739
▁tried	-1740
cause	-1741
▁mist	-1742
▁million	-1743
▁program	-1744
▁complete	-1745
▁patients	-1746
▁sal	-1747
▁sweet	-1748
▁present	-1749
▁$	-1750
▁Ad	-1751
ament	-1752
▁0	-1753
▁tw	-1754
arth	-1755
▁city	-1756
▁hate	-1757
▁mag	-1758
▁main	-1759
▁respons	-1760
▁waiting	-1761
pping	-1762
▁measures	-1763
▁buy	-1764
▁stupid	-1765
ley	-1766
▁grand	-1767
▁yours	-1768
▁answer	-1769
ider	-1770
▁repl	-1771
▁parents	-1772
ney	-1773
▁invol	-1774
▁perfect	-1775
▁After	-1776
▁force	-1777
▁quite	-1778
used	-1779
ma	-1780
▁‘	-1781
oke	-1782
▁Pl	-1783
aced	-1784
ster	-1785
idd	-1786
▁pull	-1787
▁given	-1788
▁period	-1789
ists	-1790
▁pict	-1791
ich	-1792
ized	-1793
▁Sorry	-1794
omp	-1795
fort	-1796
▁key	-1797
▁Wait	-1798
▁trouble	-1799
▁Was	-1800
▁heal	-1801
▁Mom	-1802
II	-1803
▁attack	-1804
▁establ	-1805
▁!	-1806
▁ball	-1807
▁vict	-1808
▁known	-1809
mp	-1810
▁fe	-1811
▁hy	-1812
▁everybody	-1813
cial	-1814
irth	-1815
work	-1816
▁save	-1817
iec	-1818
▁lim	-1819
isions	-1820
▁explain	-1821
▁z	-1822
lev	-1823
▁press	-1824
▁techn	-1825
▁longer	-1826
▁Ha	-1827
▁exam	-1828
▁refer	-1829
▁contin	-1830
▁murder	-1831
eg	-1832
▁along	-1833
bo	-1834
kes	-1835
▁living	-1836
▁Directive	-1837
AL	-1838
bs	-1839
ler	-1840
▁YOU	-1841
lcome	-1842
▁clean	-1843
▁girls	-1844
▁Would	-1845
▁elect	-1846
ospital	-1847
▁Thanks	-1848
fic	-1849
reet	-1850
▁cir	-1851
▁anim	-1852
▁creat	-1853
▁seems	-1854
▁proced	-1855
▁minute	-1856
iet	-1857
▁weeks	-1858
ED	-1859
lex	-1860
▁AN	-1861
▁Per	-1862
▁incre	-1863
mer	-1864
ode	-1865
▁send	-1866
itting	-1867
ration	-1868
▁organ	-1869
▁cal	-1870
▁cell	-1871
▁ce	-1872
itted	-1873
▁pack	-1874
▁cover	-1875
oul	-1876
▁col	-1877
▁black	-1878
▁result	-1879
ION	-1880
ality	-1881
uture	-1882
▁Even	-1883
▁asking	-1884
ru	-1885
tern	-1886
▁regard	-1887
▁mus	-1888
▁pot	-1889
▁area	-1890
▁security	-1891
,000	-1892
▁Ger	-1893
▁risk	-1894
ishing	-1895
▁Could	-1896
▁anyway	-1897
val	-1898
eter	-1899
itor	-1900
ropri	-1901
ism	-1902
itc	-1903
▁bud	-1904
entle	-1905
▁President	-1906
▁accordance	-1907
▁ed	-1908
▁shouldn	-1909
▁rece	-1910
▁anybody	-1911
ones	-1912
▁hor	-1913
▁lose	-1914
urther	-1915
.1	-1916
tle	-1917
reen	-1918
▁occ	-1919
▁running	-1920
▁step	-1921
▁strong	-1922
ior	-1923
oint	-1924
▁del	-1925
▁gra	-1926
ring	-1927
▁Only	-1928
▁bull	-1929
▁birth	-1930
artment	-1931
▁future	-1932
▁hospital	-1933
▁Cha	-1934
▁cool	-1935
▁meeting	-1936
uce	-1937
atic	-1938
▁dev	-1939
▁fast	-1940
▁fell	-1941
▁apply	-1942
▁entire	-1943
▁himself	-1944
sh	-1945
unt	-1946
▁favor	-1947
airs	-1948
conom	-1949
iding	-1950
▁hang	-1951
▁sick	-1952
▁sort	-1953
IT	-1954
mit	-1955
▁Ne	-1956
room	-1957
ances	-1958
▁data	-1959
▁Which	-1960
▁using	-1961
▁By	-1962
▁ear	-1963
ooper	-1964
ference	-1965
▁questions	-1966
▁pe	-1967
aper	-1968
ging	-1969
▁Bar	-1970
▁watc	-1971
ik	-1972
ule	-1973
▁Che	-1974
▁ten	-1975
▁super	-1976
▁compet	-1977
▁feeling	-1978
▁happens	-1979
ify	-1980
▁red	-1981
▁drug	-1982
▁hair	-1983
ressed	-1984
▁activ	-1985
▁short	-1986
▁lab	-1987
▁agre	-1988
▁drive	-1989
▁rules	-1990
▁process	-1991
▁hist	-1992
▁govern	-1993
▁Two	-1994
▁grow	-1995
▁white	-1996
aces	-1997
▁Lord	-1998
▁danger	-1999
▁evidence	-2000
▁paragraph	-2001
oor	-2002
▁Mic	-2003
▁aid	-2004
▁conv	-2005
▁dinner	-2006
ph	-2007
ron	-2008
▁11	-2009
▁eng	-2010
▁Decision	-2011
lor	-2012
▁Sha	-2013
▁opp	-2014
▁norm	-2015
▁priv	-2016
ief	-2017
haps	-2018
▁foot	-2019
▁medic	-2020
▁Nothing	-2021
▁serious	-2022
une	-2023
iter	-2024
20	-2025
IC	-2026
▁seem	-2027
▁group	-2028
▁mention	-2029
▁investig	-2030
joy	-2031
you	-2032
itch	-2033
ploy	-2034
▁mach	-2035
▁victim	-2036
▁ke	-2037
▁Bet	-2038
▁art	-2039
▁top	-2040
▁glad	-2041
▁Qu	-2042
▁Capt	-2043
▁works	-2044
▁provided	-2045
▁accept	-2046
▁design	-2047
▁tem	-2048
▁stra	-2049
ume	-2050
▁sell	-2051
▁shut	-2052
▁type	-2053
minist	-2054
▁needed	-2055
▁particular	-2056
els	-2057
▁abs	-2058
▁surpr	-2059
▁People	-2060
▁playing	-2061
ification	-2062
▁ord	-2063
▁quick	-2064
line	-2065
▁lie	-2066
▁boys	-2067
ibility	-2068
▁prison	-2069
▁14	-2070
▁imag	-2071
▁const	-2072
▁weren	-2073
▁fel	-2074
▁ple	-2075
▁sense	-2076
▁box	-2077
▁begin	-2078
▁polic	-2079
▁common	-2080
▁remain	-2081
roy	-2082
▁Sam	-2083
ories	-2084
▁access	-2085
yl	-2086
▁--	-2087
hose	-2088
▁fly	-2089
ently	-2090
▁brain	-2091
▁meant	-2092
▁financial	-2093
▁relations	-2094
ots	-2095
▁OF	-2096
over	-2097
▁Eng	-2098
▁Sir	-2099
itive	-2100
▁road	-2101
▁18	-2102
rect	-2103
▁suc	-2104
▁damn	-2105
▁third	-2106
▁Captain	-2107
ror	-2108
▁..	-2109
▁er	-2110
▁piec	-2111
▁figure	-2112
▁However	-2113
▁leaving	-2114
▁project	-2115
ateg	-2116
uary	-2117
▁star	-2118
▁Actually	-2119
▁fail	-2120
▁contact	-2121
▁appropri	-2122
oth	-2123
OM	-2124
▁pop	-2125
▁rad	-2126
▁proper	-2127
▁therefore	-2128
iron	-2129
ittee	-2130
▁throw	-2131
▁worth	-2132
▁require	-2133
▁avail	-2134
▁referred	-2135
The	-2136
elf	-2137
view	-2138
▁service	-2139
AS	-2140
▁um	-2141
▁Pol	-2142
▁mad	-2143
▁Those	-2144
▁single	-2145
ajor	-2146
ceed	-2147
▁bag	-2148
▁low	-2149
▁sold	-2150
▁pract	-2151
isation	-2152
▁gentle	-2153
▁missing	-2154
▁specific	-2155
▁Something	-2156
omb	-2157
▁13	-2158
▁conn	-2159
▁First	-2160
▁disapp	-2161
▁Ah	-2162
▁En	-2163
▁cust	-2164
▁lock	-2165
▁touch	-2166
plement	-2167
▁others	-2168
acy	-2169
ming	-2170
▁kiss	-2171
▁field	-2172
▁ident	-2173
▁except	-2174
▁worked	-2175
▁decision	-2176
,"	-2177
▁*	-2178
ows	-2179
▁Tom	-2180
▁till	-2181
▁indic	-2182
▁words	-2183
ca	-2184
▁Um	-2185
▁ann	-2186
▁Hell	-2187
▁cross	-2188
▁lady	-2189
▁personal	-2190
gn	-2191
ball	-2192
ully	-2193
▁wall	-2194
▁Someone	-2195
▁calling	-2196
▁request	-2197
go	-2198
▁mot	-2199
▁building	-2200
▁TO	-2201
ergy	-2202
ived	-2203
▁funny	-2204
▁amount	-2205
".	-2206
rie	-2207
medi	-2208
▁treatment	-2209
tain	-2210
▁Ind	-2211
▁Rem	-2212
▁phot	-2213
▁carry	-2214
▁further	-2215
▁50	-2216
▁near	-2217
▁Frank	-2218
EL	-2219
iol	-2220
▁wed	-2221
▁defin	-2222
▁worse	-2223
▁16	-2224
unic	-2225
▁aff	-2226
▁loved	-2227
▁national	-2228
▁including	-2229
ai	-2230
sp	-2231
▁econom	-2232
▁giving	-2233
▁nobody	-2234
▁rather	-2235
▁Ro	-2236
▁age	-2237
▁tar	-2238
▁prev	-2239
▁catch	-2240
▁enjoy	-2241
▁ground	-2242
▁available	-2243
ex	-2244
ama	-2245
ead	-2246
▁Got	-2247
▁kept	-2248
▁deter	-2249
▁X	-2250
por	-2251
▁Hi	-2252
erve	-2253
imum	-2254
▁eye	-2255
▁mis	-2256
adies	-2257
▁From	-2258
▁changed	-2259
ET	-2260
▁Col	-2261
▁ill	-2262
▁adop	-2263
▁dark	-2264
▁history	-2265
▁concerned	-2266
irt	-2267
idge	-2268
oose	-2269
hol	-2270
oid	-2271
▁24	-2272
▁Ge	-2273
▁fair	-2274
▁fault	-2275
▁whether	-2276
▁clos	-2277
▁felt	-2278
▁scared	-2279
▁straight	-2280
aim	-2281
ral	-2282
▁199	-2283
▁obs	-2284
▁orig	-2285
▁takes	-2286
oms	-2287
▁El	-2288
ored	-2289
▁ant	-2290
▁enter	-2291
▁produc	-2292
bt	-2293
gel	-2294
ills	-2295
▁Fin	-2296
▁Sec	-2297
▁jud	-2298
▁Part	-2299
▁bene	-2300
▁situation	-2301
?"	-2302
ov	-2303
▁17	-2304
▁Ben	-2305
▁dro	-2306
ggest	-2307
▁turned	-2308
▁promise	-2309
▁suggest	-2310
▁King	-2311
▁beat	-2312
▁learn	-2313
▁subst	-2314
▁perform	-2315
▁administ	-2316
aul	-2317
bit	-2318
▁AND	-2319
▁App	-2320
▁dam	-2321
▁ens	-2322
▁lau	-2323
Cause	-2324
ology	-2325
rible	-2326
▁cold	-2327
▁post	-2328
▁purp	-2329
▁song	-2330
▁choice	-2331
ara	-2332
▁non	-2333
ective	-2334
▁court	-2335
▁energy	-2336
▁involved	-2337
▁services	-2338
▁sometimes	-2339
cy	-2340
uly	-2341
▁weap	-2342
▁bitch	-2343
▁thinks	-2344
ift	-2345
▁dut	-2346
▁pen	-2347
▁countries	-2348
gar	-2349
▁25	-2350
orge	-2351
▁murd	-2352
▁early	-2353
aterial	-2354
let	-2355
ounds	-2356
▁exist	-2357
▁repres	-2358
▁div	-2359
▁tre	-2360
▁desc	-2361
▁ones	-2362
▁offer	-2363
liament	-2364
▁discuss	-2365
▁finally	-2366
2.	-2367
fety	-2368
▁Ste	-2369
▁hop	-2370
wards	-2371
▁track	-2372
▁German	-2373
▁normal	-2374
▁seeing	-2375
ogn	-2376
▁card	-2377
▁fing	-2378
▁Charl	-2379
▁object	-2380
▁Everything	-2381
hod	-2382
ray	-2383
amer	-2384
▁cause	-2385
▁assist	-2386
mb	-2387
:00	-2388
eth	-2389
iot	-2390
key	-2391
amed	-2392
▁ran	-2393
▁above	-2394
▁share	-2395
▁somewhere	-2396
cus	-2397
que	-2398
▁Mc	-2399
▁100	-2400
set	-2401
▁position	-2402
ued	-2403
ction	-2404
▁fund	-2405
▁rock	-2406
▁docum	-2407
agement	-2408
▁destroy	-2409
ze	-2410
ilt	-2411
ken	-2412
▁ang	-2413
▁bur	-2414
▁sum	-2415
▁belong	-2416
▁problems	-2417
▁Jes	-2418
▁cry	-2419
▁sto	-2420
▁surv	-2421
▁music	-2422
▁Nobody	-2423
▁immedi	-2424
aff	-2425
▁Su	-2426
▁Put	-2427
▁arri	-2428
▁clot	-2429
▁mistake	-2430
▁worried	-2431
▁government	-2432
▁Jan	-2433
▁price	-2434
▁weird	-2435
▁arrest	-2436
▁interested	-2437
urs	-2438
▁Mad	-2439
▁lar	-2440
▁comb	-2441
▁self	-2442
▁honey	-2443
▁detail	-2444
▁picture	-2445
for	-2446
▁Co	-2447
▁IN	-2448
illy	-2449
▁regul	-2450
▁implement	-2451
▁Je	-2452
just	-2453
▁appre	-2454
▁lucky	-2455
▁moving	-2456
▁contract	-2457
▁Parliament	-2458
aly	-2459
▁Min	-2460
ential	-2461
▁smell	-2462
▁accident	-2463
▁development	-2464
▁squ	-2465
verse	-2466
▁born	-2467
ability	-2468
▁recogn	-2469
▁conditions	-2470
iew	-2471
irm	-2472
ris	-2473
umb	-2474
pper	-2475
▁caught	-2476
▁address	-2477
ighb	-2478
ires	-2479
itness	-2480
▁Other	-2481
▁cooper	-2482
▁handle	-2483
▁happening	-2484
"?	-2485
ari	-2486
ked	-2487
fully	-2488
▁camp	-2489
▁cred	-2490
▁opin	-2491
▁Never	-2492
▁cases	-2493
▁wedding	-2494
▁American	-2495
▁material	-2496
cl	-2497
ns	-2498
sels	-2499
▁lay	-2500
▁sam	-2501
▁More	-2502
▁indust	-2503
▁killer	-2504
ox	-2505
ched	-2506
▁Sure	-2507
ficult	-2508
▁mouth	-2509
▁table	-2510
lfriend	-2511
▁current	-2512
▁appropriate	-2513
hael	-2514
▁god	-2515
▁broke	-2516
▁watching	-2517
nie	-2518
▁Ed	-2519
▁Wh	-2520
▁hasn	-2521
▁provisions	-2522
RO	-2523
▁2005	-2524
▁breat	-2525
▁react	-2526
▁spend	-2527
▁subject	-2528
ands	-2529
▁aut	-2530
▁sun	-2531
▁teac	-2532
▁ahead	-2533
ecially	-2534
▁recomm	-2535
▁Everyone	-2536
friend	-2537
▁floor	-2538
▁decided	-2539
▁totally	-2540
▁difficult	-2541
aur	-2542
hys	-2543
ners	-2544
▁boss	-2545
▁text	-2546
▁intro	-2547
▁piece	-2548
▁value	-2549
▁looked	-2550
▁social	-2551
▁message	-2552
now	-2553
uel	-2554
aged	-2555
ancy	-2556
lish	-2557
orth	-2558
acter	-2559
iddle	-2560
▁Keep	-2561
▁capt	-2562
▁coff	-2563
▁marry	-2564
▁movie	-2565
▁across	-2566
▁consider	-2567
▁completely	-2568
bed	-2569
▁vo	-2570
▁paper	-2571
chan	-2572
▁rob	-2573
▁drop	-2574
▁feet	-2575
▁Looks	-2576
▁amended	-2577
▁patient	-2578
▁Sw	-2579
roud	-2580
▁Ser	-2581
▁neg	-2582
▁York	-2583
▁talked	-2584
▁target	-2585
▁appreci	-2586
▁addition	-2587
▁procedure	-2588
RE	-2589
ech	-2590
▁Ph	-2591
▁bank	-2592
▁deep	-2593
▁employ	-2594
▁safety	-2595
▁threat	-2596
ians	-2597
▁psy	-2598
owers	-2599
▁agree	-2600
ese	-2601
ples	-2602
▁dose	-2603
▁fear	-2604
▁paid	-2605
ension	-2606
▁inject	-2607
▁neighb	-2608
▁forward	-2609
▁authorities	-2610
▁ver	-2611
eneral	-2612
▁board	-2613
▁claim	-2614
▁station	-2615
▁Ap	-2616
▁fac	-2617
▁uni	-2618
▁stri	-2619
▁eight	-2620
▁appear	-2621
▁intern	-2622
▁replaced	-2623
aven	-2624
ises	-2625
▁rid	-2626
▁vol	-2627
▁kick	-2628
▁prep	-2629
▁peace	-2630
viously	-2631
▁represent	-2632
1.	-2633
che	-2634
▁Isn	-2635
▁nat	-2636
▁final	-2637
▁according	-2638
▁girlfriend	-2639
ald	-2640
angu	-2641
▁gas	-2642
▁gen	-2643
▁sad	-2644
ected	-2645
▁view	-2646
▁viol	-2647
▁crime	-2648
uter	-2649
▁Treat	-2650
▁realize	-2651
▁success	-2652
▁responsible	-2653
10	-2654
iam	-2655
▁Em	-2656
▁Mon	-2657
▁pun	-2658
ising	-2659
▁pregn	-2660
fact	-2661
▁vac	-2662
ector	-2663
gress	-2664
▁spir	-2665
▁stat	-2666
terday	-2667
▁local	-2668
▁proud	-2669
▁store	-2670
▁sounds	-2671
▁general	-2672
▁mg	-2673
▁Dav	-2674
atory	-2675
viron	-2676
▁beha	-2677
▁deli	-2678
ession	-2679
▁calls	-2680
▁imagine	-2681
▁production	-2682
ommy	-2683
▁net	-2684
attle	-2685
▁soul	-2686
utions	-2687
▁dress	-2688
▁grant	-2689
▁legal	-2690
▁thanks	-2691
▁experience	-2692
arch	-2693
▁Jim	-2694
▁Pre	-2695
▁Think	-2696
▁forgot	-2697
mas	-2698
uts	-2699
▁Fl	-2700
asure	-2701
▁blow	-2702
▁fool	-2703
▁partner	-2704
▁Committee	-2705
read	-2706
urch	-2707
▁dear	-2708
▁extra	-2709
▁vehic	-2710
▁quality	-2711
▁gentlemen	-2712
▁health	-2713
▁street	-2714
▁clothes	-2715
vironment	-2716
▁signific	-2717
yle	-2718
▁tax	-2719
▁init	-2720
▁ring	-2721
▁polit	-2722
ulation	-2723
▁United	-2724
▁weight	-2725
▁private	-2726
▁welcome	-2727
▁Say	-2728
▁los	-2729
▁impro	-2730
▁charge	-2731
▁ensure	-2732
▁propos	-2733
▁Michael	-2734
▁opinion	-2735
uit	-2736
ences	-2737
▁lawy	-2738
▁event	-2739
▁space	-2740
▁write	-2741
▁dangerous	-2742
EEC	-2743
cha	-2744
cent	-2745
▁sat	-2746
▁Call	-2747
▁club	-2748
▁enem	-2749
▁feels	-2750
ivid	-2751
▁join	-2752
▁skin	-2753
mission	-2754
▁killing	-2755
▁suspect	-2756
▁Bo	-2757
▁Sim	-2758
inary	-2759
▁code	-2760
▁America	-2761
▁communic	-2762
ky	-2763
wise	-2764
▁Pat	-2765
▁aud	-2766
▁cat	-2767
▁ste	-2768
olute	-2769
▁Once	-2770
▁Russ	-2771
▁Stop	-2772
▁rights	-2773
▁transport	-2774
AC	-2775
▁Lea	-2776
▁imm	-2777
▁tur	-2778
▁busy	-2779
▁roll	-2780
▁method	-2781
▁relationship	-2782
llen	-2783
itely	-2784
▁rese	-2785
▁tick	-2786
mitted	-2787
▁Since	-2788
▁policy	-2789
.'	-2790
0.	-2791
1)	-2792
▁Ma	-2793
▁Bel	-2794
▁Bob	-2795
▁sil	-2796
ander	-2797
rench	-2798
▁doll	-2799
▁feed	-2800
▁poor	-2801
stairs	-2802
▁spent	-2803
sidered	-2804
▁honest	-2805
▁boyfriend	-2806
▁considered	-2807
mon	-2808
nes	-2809
▁II	-2810
▁ru	-2811
▁bra	-2812
▁fat	-2813
arant	-2814
illed	-2815
▁Paul	-2816
▁burn	-2817
▁hero	-2818
▁based	-2819
▁dance	-2820
▁forever	-2821
▁dig	-2822
▁due	-2823
ached	-2824
imate	-2825
▁phys	-2826
▁pray	-2827
▁langu	-2828
▁separ	-2829
▁visit	-2830
▁unless	-2831
▁section	-2832
oh	-2833
ili	-2834
enty	-2835
hood	-2836
▁lic	-2837
usion	-2838
▁upon	-2839
▁coffee	-2840
▁Charlie	-2841
▁machine	-2842
▁stopped	-2843
▁Whatever	-2844
▁birthday	-2845
dom	-2846
rel	-2847
resh	-2848
▁hey	-2849
▁Mart	-2850
▁issue	-2851
▁prove	-2852
▁scene	-2853
▁tired	-2854
▁export	-2855
▁animals	-2856
▁writing	-2857
▁requirements	-2858
▁la	-2859
erry	-2860
▁stick	-2861
arr	-2862
▁Cal	-2863
ender	-2864
▁jump	-2865
ka	-2866
▁dise	-2867
▁Earth	-2868
▁saved	-2869
▁Father	-2870
▁window	-2871
▁correct	-2872
▁provide	-2873
▁immediately	-2874
▁et	-2875
riage	-2876
▁Alex	-2877
▁sour	-2878
▁often	-2879
▁Remember	-2880
ev	-2881
ana	-2882
iff	-2883
xic	-2884
ache	-2885
ager	-2886
▁Didn	-2887
▁lunch	-2888
▁major	-2889
▁screw	-2890
▁themselves	-2891
▁,	-2892
ucks	-2893
▁draw	-2894
▁glass	-2895
▁steal	-2896
▁swear	-2897
▁action	-2898
▁holding	-2899
IL	-2900
chie	-2901
rill	-2902
roll	-2903
ators	-2904
▁blue	-2905
▁none	-2906
▁Jesus	-2907
▁camer	-2908
▁sever	-2909
▁affect	-2910
▁planet	-2911
sc	-2912
▁Det	-2913
▁ble	-2914
▁emb	-2915
▁inn	-2916
itary	-2917
alking	-2918
▁Hello	-2919
▁Offic	-2920
▁basis	-2921
▁moved	-2922
▁opport	-2923
▁remind	-2924
▁attention	-2925
▁condition	-2926
▁difference	-2927
zz	-2928
uge	-2929
▁Make	-2930
▁appl	-2931
▁bath	-2932
▁laugh	-2933
▁miles	-2934
▁General	-2935
▁Perhaps	-2936
▁effects	-2937
▁anywhere	-2938
nel	-2939
▁Gl	-2940
hold	-2941
reng	-2942
sequ	-2943
vered	-2944
▁Cent	-2945
▁fish	-2946
▁sear	-2947
▁drunk	-2948
▁lying	-2949
▁George	-2950
▁instead	-2951
▁wearing	-2952
▁starting	-2953
2)	-2954
cer	-2955
▁ur	-2956
▁Gre	-2957
odies	-2958
▁amaz	-2959
▁ride	-2960
ilities	-2961
▁ladies	-2962
▁middle	-2963
▁missed	-2964
▁significant	-2965
gue	-2966
time	-2967
▁und	-2968
▁cook	-2969
▁laid	-2970
eaking	-2971
▁seven	-2972
▁total	-2973
▁therap	-2974
▁witness	-2975
▁December	-2976
▁yesterday	-2977
UT	-2978
iny	-2979
▁4.	-2980
▁Lu	-2981
▁Ms	-2982
▁Sm	-2983
▁Hen	-2984
▁prec	-2985
▁sens	-2986
▁among	-2987
▁relev	-2988
▁Should	-2989
▁required	-2990
7.	-2991
==	-2992
ern	-2993
oon	-2994
▁IT	-2995
cell	-2996
year	-2997
▁cre	-2998
▁cops	-2999
▁king	-3000
▁smart	-3001
▁thous	-3002
▁English	-3003
▁seconds	-3004
3.	-3005
ID	-3006
OT	-3007
com	-3008
ivil	-3009
▁Mor	-3010
▁Nice	-3011
▁medical	-3012
ica	-3013
ids	-3014
▁Exc	-3015
▁2006	-3016
▁mass	-3017
▁Great	-3018
▁earth	-3019
▁broken	-3020
▁credit	-3021
▁travel	-3022
▁Christmas	-3023
▁environment	-3024
VE	-3025
ege	-3026
▁Mm	-3027
▁assess	-3028
▁finish	-3029
ott	-3030
ends	-3031
ival	-3032
▁arr	-3033
▁hig	-3034
▁2004	-3035
▁cele	-3036
▁jail	-3037
▁voice	-3038
▁waste	-3039
enn	-3040
uri	-3041
ilar	-3042
house	-3043
▁suit	-3044
▁trip	-3045
▁hotel	-3046
▁lived	-3047
▁plane	-3048
▁Anyway	-3049
▁beginning	-3050
▁protection	-3051
la	-3052
ino	-3053
▁40	-3054
▁US	-3055
rict	-3056
▁beg	-3057
▁ele	-3058
▁oil	-3059
▁file	-3060
▁helping	-3061
▁mission	-3062
▁usually	-3063
een	-3064
ham	-3065
mes	-3066
vis	-3067
iday	-3068
▁Wor	-3069
▁arm	-3070
▁evil	-3071
▁consum	-3072
▁natural	-3073
▁fighting	-3074
▁appreciate	-3075
rit	-3076
see	-3077
thy	-3078
▁Mike	-3079
▁bott	-3080
▁achie	-3081
▁benef	-3082
▁reach	-3083
▁French	-3084
▁celebr	-3085
▁covered	-3086
50	-3087
▁WH	-3088
ened	-3089
▁Jul	-3090
asons	-3091
iment	-3092
▁suff	-3093
▁ways	-3094
▁itself	-3095
▁Sometimes	-3096
eral	-3097
gest	-3098
vere	-3099
▁mer	-3100
erved	-3101
▁base	-3102
▁cash	-3103
▁disp	-3104
▁susp	-3105
luding	-3106
▁character	-3107
▁investigation	-3108
▁TV	-3109
▁ma	-3110
aked	-3111
etic	-3112
erson	-3113
itten	-3114
ividual	-3115
▁bother	-3116
▁streng	-3117
▁convers	-3118
▁economic	-3119
dro	-3120
▁Sar	-3121
esides	-3122
▁faith	-3123
▁Having	-3124
▁became	-3125
▁letter	-3126
▁spirit	-3127
▁contrib	-3128
▁several	-3129
▁suppose	-3130
▁continue	-3131
▁terrible	-3132
19	-3133
LE	-3134
icking	-3135
▁bought	-3136
▁budget	-3137
▁simple	-3138
▁systems	-3139
▁absolute	-3140
▁training	-3141
.,	-3142
but	-3143
oci	-3144
oly	-3145
itiz	-3146
▁EUR	-3147
▁bear	-3148
▁host	-3149
ipment	-3150
undred	-3151
▁James	-3152
▁upset	-3153
▁Before	-3154
▁Intern	-3155
▁finished	-3156
You	-3157
how	-3158
lin	-3159
▁Bro	-3160
▁Cor	-3161
astic	-3162
▁Last	-3163
▁wood	-3164
duction	-3165
▁Excuse	-3166
▁flight	-3167
▁instit	-3168
▁January	-3169
▁industry	-3170
▁reference	-3171
▁wonderful	-3172
EA	-3173
gu	-3174
ls	-3175
amb	-3176
ask	-3177
▁Try	-3178
ledge	-3179
ufact	-3180
▁duty	-3181
▁gift	-3182
▁godd	-3183
▁repe	-3184
▁spot	-3185
▁tast	-3186
▁chick	-3187
▁plans	-3188
▁Treaty	-3189
▁compan	-3190
▁comfort	-3191
▁authority	-3192
▁definitely	-3193
▁Im	-3194
bert	-3195
▁Rom	-3196
▁max	-3197
▁dump	-3198
▁wake	-3199
▁David	-3200
▁costs	-3201
▁study	-3202
▁truck	-3203
▁evening	-3204
▁putting	-3205
▁pressure	-3206
▁relevant	-3207
▁Sy	-3208
oses	-3209
rupt	-3210
uten	-3211
▁ban	-3212
▁vir	-3213
light	-3214
▁Mary	-3215
ournal	-3216
▁Agent	-3217
▁loves	-3218
ruction	-3219
▁example	-3220
▁determin	-3221
▁standing	-3222
1,	-3223
ST	-3224
rum	-3225
hard	-3226
ibly	-3227
▁Joe	-3228
ublic	-3229
▁film	-3230
▁rate	-3231
▁sake	-3232
▁slow	-3233
▁client	-3234
▁purpose	-3235
▁results	-3236
▁sitting	-3237
▁thereof	-3238
▁official	-3239
ENT	-3240
ena	-3241
isc	-3242
▁2.	-3243
mber	-3244
▁Rep	-3245
▁enc	-3246
▁Cont	-3247
▁fresh	-3248
▁plant	-3249
▁prior	-3250
▁notice	-3251
▁favorite	-3252
▁application	-3253
▁interesting	-3254
oud	-3255
dden	-3256
rate	-3257
▁Ric	-3258
▁mir	-3259
ATION	-3260
fered	-3261
iling	-3262
order	-3263
icated	-3264
▁associ	-3265
▁members	-3266
▁equipment	-3267
riff	-3268
▁Tod	-3269
▁inj	-3270
▁sea	-3271
ching	-3272
▁bird	-3273
▁doubt	-3274
▁tough	-3275
▁sudden	-3276
▁mentioned	-3277
de	-3278
ees	-3279
ius	-3280
face	-3281
▁Big	-3282
▁anal	-3283
▁hall	-3284
▁hung	-3285
▁mult	-3286
▁trad	-3287
verage	-3288
▁angry	-3289
▁named	-3290
ression	-3291
▁bodies	-3292
▁decide	-3293
▁herself	-3294
▁Somebody	-3295
▁computer	-3296
▁research	-3297
▁transfer	-3298
▁Mal	-3299
icide	-3300
▁Brus	-3301
▁rich	-3302
▁soci	-3303
▁vide	-3304
▁About	-3305
▁Still	-3306
▁likes	-3307
▁lawyer	-3308
▁allowed	-3309
▁changes	-3310
▁deserve	-3311
▁strange	-3312
off	-3313
ril	-3314
▁Mag	-3315
▁Res	-3316
▁der	-3317
▁esp	-3318
▁gar	-3319
▁mic	-3320
ucker	-3321
▁cast	-3322
▁hide	-3323
▁gives	-3324
▁stuck	-3325
▁sugar	-3326
▁trade	-3327
▁wrote	-3328
▁points	-3329
▁Welcome	-3330
▁guarant	-3331
▁hundred	-3332
▁measure	-3333
▁feelings	-3334
▁Everybody	-3335
▁dar	-3336
▁Three	-3337
▁civil	-3338
▁honor	-3339
▁innoc	-3340
▁heaven	-3341
▁reasons	-3342
▁apartment	-3343
▁programme	-3344
▁activities	-3345
",	-3346
yn	-3347
ulf	-3348
hole	-3349
reme	-3350
▁Acc	-3351
▁Comp	-3352
▁prin	-3353
▁yell	-3354
fortun	-3355
▁block	-3356
▁liked	-3357
▁quant	-3358
▁shows	-3359
▁circum	-3360
▁Brussels	-3361
▁certainly	-3362
NA	-3363
af	-3364
rer	-3365
iant	-3366
lier	-3367
onst	-3368
▁Wow	-3369
▁Park	-3370
▁chem	-3371
▁held	-3372
▁wine	-3373
▁round	-3374
▁custom	-3375
▁amazing	-3376
▁carried	-3377
▁disease	-3378
▁solution	-3379
▁operation	-3380
▁individual	-3381
za	-3382
gen	-3383
ses	-3384
▁Te	-3385
▁Max	-3386
▁Ray	-3387
▁ice	-3388
▁Mark	-3389
▁added	-3390
▁apart	-3391
▁magic	-3392
▁teach	-3393
arently	-3394
▁animal	-3395
▁profess	-3396
▁president	-3397
/9	-3398
EU	-3399
OL	-3400
sec	-3401
▁Day	-3402
▁owe	-3403
hange	-3404
▁crim	-3405
▁piss	-3406
▁horse	-3407
olution	-3408
reement	-3409
ultural	-3410
▁finger	-3411
▁parties	-3412
▁pregnant	-3413
▁cooperation	-3414
8.	-3415
▁ya	-3416
duce	-3417
▁Ant	-3418
▁Hon	-3419
▁Luc	-3420
▁den	-3421
night	-3422
▁Done	-3423
▁loss	-3424
▁drugs	-3425
▁names	-3426
▁keeping	-3427
▁concerning	-3428
ugg	-3429
▁21	-3430
irty	-3431
▁egg	-3432
▁hun	-3433
▁vot	-3434
eared	-3435
ondon	-3436
▁Stay	-3437
▁Very	-3438
▁boat	-3439
▁educ	-3440
▁port	-3441
▁vill	-3442
▁Henry	-3443
▁blame	-3444
▁quiet	-3445
utenant	-3446
▁monitor	-3447
▁therapy	-3448
▁weekend	-3449
avy	-3450
rif	-3451
▁31	-3452
empt	-3453
like	-3454
▁Mil	-3455
ables	-3456
▁crew	-3457
▁infl	-3458
▁neck	-3459
▁tour	-3460
▁Peter	-3461
▁large	-3462
▁nature	-3463
fficient	-3464
▁language	-3465
▁practice	-3466
bon	-3467
lig	-3468
ches	-3469
▁bey	-3470
▁log	-3471
▁coun	-3472
▁decl	-3473
▁park	-3474
▁quar	-3475
atives	-3476
▁citiz	-3477
▁figured	-3478
▁follows	-3479
▁strateg	-3480
▁received	-3481
▁established	-3482
lt	-3483
enny	-3484
iple	-3485
duced	-3486
▁Time	-3487
▁gold	-3488
▁rain	-3489
ensive	-3490
▁beyond	-3491
▁command	-3492
▁international	-3493
ki	-3494
▁da	-3495
aint	-3496
ault	-3497
▁Rob	-3498
▁crap	-3499
▁House	-3500
▁church	-3501
▁teacher	-3502
▁marriage	-3503
▁ourselves	-3504
▁Fe	-3505
▁oh	-3506
host	-3507
rian	-3508
▁FOR	-3509
▁amb	-3510
▁cow	-3511
▁deb	-3512
▁rat	-3513
▁typ	-3514
▁weak	-3515
overed	-3516
▁knock	-3517
▁parts	-3518
▁trick	-3519
▁apolog	-3520
▁resour	-3521
▁created	-3522
▁similar	-3523
▁document	-3524
bye	-3525
ien	-3526
▁War	-3527
▁bal	-3528
▁bomb	-3529
▁dude	-3530
▁grad	-3531
▁vote	-3532
ervous	-3533
▁idiot	-3534
▁terms	-3535
▁Really	-3536
▁double	-3537
▁dreams	-3538
▁showed	-3539
▁weapon	-3540
▁careful	-3541
▁college	-3542
▁driving	-3543
▁particip	-3544
▁management	-3545
'.	-3546
OW	-3547
oop	-3548
noon	-3549
▁bast	-3550
▁grab	-3551
▁milk	-3552
▁sche	-3553
▁fired	-3554
▁fixed	-3555
▁focus	-3556
▁Doctor	-3557
▁active	-3558
▁numbers	-3559
▁officer	-3560
▁especially	-3561
ply	-3562
zen	-3563
iers	-3564
▁Most	-3565
▁link	-3566
▁rout	-3567
▁agent	-3568
▁speed	-3569
ization	-3570
ountain	-3571
▁London	-3572
▁issues	-3573
▁reported	-3574
2,	-3575
5.	-3576
9.	-3577
BI	-3578
col	-3579
▁scr	-3580
▁army	-3581
ground	-3582
▁stole	-3583
▁eating	-3584
▁include	-3585
▁Agreement	-3586
cul	-3587
▁Ir	-3588
▁cy	-3589
▁ir	-3590
well	-3591
▁Dar	-3592
▁fit	-3593
▁June	-3594
▁Nick	-3595
▁Spec	-3596
though	-3597
▁areas	-3598
▁guard	-3599
▁occur	-3600
▁helped	-3601
▁select	-3602
▁however	-3603
▁surprise	-3604
▁EC	-3605
bing	-3606
onel	-3607
▁Boy	-3608
▁Oct	-3609
▁pal	-3610
ograp	-3611
▁Want	-3612
▁beer	-3613
▁clin	-3614
▁danc	-3615
▁built	-3616
▁passed	-3617
▁learned	-3618
▁sleeping	-3619
30	-3620
rey	-3621
▁Nor	-3622
▁esc	-3623
oming	-3624
▁huge	-3625
▁quit	-3626
▁Daddy	-3627
▁below	-3628
▁radio	-3629
▁hoping	-3630
▁manufact	-3631
▁afternoon	-3632
harm	-3633
▁Lie	-3634
▁opt	-3635
▁dying	-3636
▁acting	-3637
▁agreement	-3638
▁applicable	-3639
gy	-3640
▁/	-3641
▁La	-3642
▁Ry	-3643
aled	-3644
gery	-3645
rant	-3646
sing	-3647
wood	-3648
▁Red	-3649
▁fem	-3650
▁Back	-3651
▁soft	-3652
▁guest	-3653
▁commit	-3654
▁levels	-3655
▁member	-3656
▁clearly	-3657
▁willing	-3658
▁circumst	-3659
▁effective	-3660
ada	-3661
pty	-3662
▁Ev	-3663
ites	-3664
▁sac	-3665
▁High	-3666
▁Shut	-3667
▁band	-3668
▁aware	-3669
▁crack	-3670
▁Mother	-3671
▁advice	-3672
▁choose	-3673
▁memory	-3674
▁quickly	-3675
▁progress	-3676
▁opportunity	-3677
3,	-3678
su	-3679
▁:	-3680
(1)	-3681
▁RE	-3682
▁Bab	-3683
▁Cle	-3684
▁rev	-3685
▁unc	-3686
▁van	-3687
ivers	-3688
▁emerg	-3689
▁career	-3690
▁locked	-3691
▁origin	-3692
▁related	-3693
▁reports	-3694
▁towards	-3695
▁expected	-3696
▁increased	-3697
tt	-3698
ker	-3699
▁27	-3700
▁Cr	-3701
▁ME	-3702
uses	-3703
▁Sat	-3704
heart	-3705
▁Hold	-3706
▁emot	-3707
▁load	-3708
iation	-3709
▁Danny	-3710
▁chair	-3711
▁closed	-3712
▁engine	-3713
▁master	-3714
▁sector	-3715
▁adopted	-3716
▁checked	-3717
▁hearing	-3718
▁injection	-3719
IR	-3720
eng	-3721
▁1.	-3722
edom	-3723
ober	-3724
▁Dep	-3725
▁Has	-3726
▁dom	-3727
▁July	-3728
▁anti	-3729
▁seat	-3730
istics	-3731
ulture	-3732
▁Check	-3733
▁staff	-3734
▁hiding	-3735
▁higher	-3736
▁forgive	-3737
▁goddamn	-3738
▁nervous	-3739
▁vehicle	-3740
▁Anything	-3741
▁potential	-3742
▁wondering	-3743
pro	-3744
▁ta	-3745
lder	-3746
▁cab	-3747
▁Sept	-3748
▁Such	-3749
▁site	-3750
▁enemy	-3751
▁video	-3752
▁worst	-3753
▁picked	-3754
▁granted	-3755
▁percent	-3756
▁written	-3757
ato	-3758
iel	-3759
pir	-3760
ppy	-3761
▁IS	-3762
▁ST	-3763
cape	-3764
omes	-3765
ysis	-3766
▁Jud	-3767
▁pap	-3768
▁pet	-3769
▁April	-3770
▁uncle	-3771
▁whose	-3772
▁opened	-3773
▁orders	-3774
▁review	-3775
▁October	-3776
▁appoint	-3777
▁attract	-3778
▁challen	-3779
▁treated	-3780
▁increase	-3781
4.	-3782
isl	-3783
sha	-3784
ints	-3785
olly	-3786
rage	-3787
rief	-3788
▁Jap	-3789
▁size	-3790
▁tear	-3791
▁admit	-3792
▁limit	-3793
▁impact	-3794
▁lovely	-3795
▁maximum	-3796
▁meaning	-3797
▁perhaps	-3798
▁species	-3799
▁innocent	-3800
▁standard	-3801
▁absolutely	-3802
▁procedures	-3803
AP	-3804
xy	-3805
▁60	-3806
▁Op	-3807
▁Int	-3808
▁Lou	-3809
▁mid	-3810
▁spl	-3811
▁thr	-3812
▁Over	-3813
▁hadn	-3814
▁page	-3815
▁goods	-3816
▁lower	-3817
▁trial	-3818
▁France	-3819
▁matters	-3820
▁records	-3821
▁military	-3822
▁September	-3823
itz	-3824
▁26	-3825
what	-3826
▁FBI	-3827
antic	-3828
▁City	-3829
▁item	-3830
urance	-3831
▁green	-3832
▁gotten	-3833
▁companies	-3834
▁Ty	-3835
▁ep	-3836
▁Del	-3837
▁Son	-3838
▁Ver	-3839
▁mix	-3840
istic	-3841
ulous	-3842
▁Star	-3843
▁arms	-3844
▁cars	-3845
▁harm	-3846
▁Grand	-3847
▁avoid	-3848
▁adjust	-3849
▁favour	-3850
▁played	-3851
▁staying	-3852
▁pleasure	-3853
▁surprised	-3854
fortunately	-3855
▁responsibility	-3856
3)	-3857
8/	-3858
▁Out	-3859
▁Reg	-3860
iance	-3861
▁Inst	-3862
▁eval	-3863
▁meat	-3864
▁Leave	-3865
▁range	-3866
▁twice	-3867
▁fuckin	-3868
▁places	-3869
▁simply	-3870
ological	-3871
▁release	-3872
▁walking	-3873
▁drinking	-3874
▁intended	-3875
▁promised	-3876
cho	-3877
sed	-3878
▁Ob	-3879
▁Med	-3880
▁ign	-3881
inese	-3882
iture	-3883
▁hole	-3884
▁publ	-3885
ording	-3886
ticles	-3887
▁match	-3888
▁princ	-3889
▁sight	-3890
▁tells	-3891
▁wound	-3892
▁Unless	-3893
▁pulled	-3894
▁Richard	-3895
▁concent	-3896
▁improve	-3897
▁studies	-3898
▁greatest	-3899
▁murdered	-3900
▁pictures	-3901
▁prepared	-3902
▁ON	-3903
▁Hmm	-3904
▁Turn	-3905
▁vers	-3906
▁Paris	-3907
▁adopt	-3908
▁blind	-3909
▁ghost	-3910
▁bottom	-3911
▁terror	-3912
▁Germany	-3913
▁captain	-3914
▁neither	-3915
▁certific	-3916
▁upstairs	-3917
▁bi	-3918
iced	-3919
vent	-3920
▁gay	-3921
▁Fuck	-3922
▁exec	-3923
▁farm	-3924
▁rule	-3925
▁books	-3926
▁stock	-3927
▁surve	-3928
itation	-3929
▁search	-3930
▁arrange	-3931
▁earlier	-3932
▁surgery	-3933
ux	-3934
ocr	-3935
rag	-3936
▁Pe	-3937
ille	-3938
ilty	-3939
itle	-3940
▁COM	-3941
▁deg	-3942
▁mut	-3943
acity	-3944
board	-3945
eding	-3946
ushed	-3947
▁dick	-3948
▁dogs	-3949
▁Today	-3950
▁older	-3951
▁raise	-3952
ossible	-3953
▁battle	-3954
▁saving	-3955
▁Besides	-3956
▁applied	-3957
▁finding	-3958
▁reading	-3959
▁neighbor	-3960
▁strength	-3961
▁connection	-3962
IA	-3963
It	-3964
hin	-3965
▁Nat	-3966
▁San	-3967
▁hol	-3968
▁Carl	-3969
▁Fine	-3970
▁pred	-3971
▁Harry	-3972
▁Watch	-3973
▁sales	-3974
▁stage	-3975
▁turns	-3976
▁prices	-3977
▁scient	-3978
▁struct	-3979
▁extreme	-3980
▁fishing	-3981
▁restaur	-3982
▁followed	-3983
▁original	-3984
▁knowledge	-3985
▁obviously	-3986
▁conversation	-3987
!"	-3988
hib	-3989
oph	-3990
▁23	-3991
olen	-3992
▁Bill	-3993
▁Eric	-3994
▁guns	-3995
▁note	-3996
▁Honey	-3997
▁amend	-3998
▁bunch	-3999
▁judge	-4000
▁sched	-4001
▁agreed	-4002
▁bigger	-4003
▁likely	-4004
▁exchange	-4005
▁education	-4006
▁seriously	-4007
▁containing	-4008
▁circumstances	-4009
-1	-4010
TER	-4011
ero	-4012
sen	-4013
▁Da	-4014
▁hi	-4015
oved	-4016
uted	-4017
▁ess	-4018
▁hyp	-4019
▁mob	-4020
field	-4021
itude	-4022
▁Each	-4023
▁Must	-4024
▁Show	-4025
▁drag	-4026
▁role	-4027
▁keeps	-4028
▁oblig	-4029
▁damage	-4030
▁Chinese	-4031
▁contains	-4032
▁property	-4033
▁Detective	-4034
wor	-4035
▁Er	-4036
▁eff	-4037
oring	-4038
▁Cour	-4039
▁fort	-4040
▁sand	-4041
▁Afric	-4042
▁Until	-4043
vention	-4044
▁descri	-4045
▁charges	-4046
▁Therefore	-4047
▁resources	-4048
mpt	-4049
▁1,	-4050
andy	-4051
fess	-4052
onse	-4053
▁Rec	-4054
▁fol	-4055
▁ide	-4056
▁pig	-4057
ashed	-4058
ental	-4059
ribed	-4060
▁West	-4061
▁firm	-4062
▁path	-4063
▁prim	-4064
▁rent	-4065
▁shop	-4066
inated	-4067
▁Japan	-4068
▁Steve	-4069
▁buddy	-4070
▁empty	-4071
▁Master	-4072
▁obtain	-4073
▁capital	-4074
▁consult	-4075
▁activity	-4076
▁particul	-4077
▁planning	-4078
▁competent	-4079
▁establish	-4080
▁political	-4081
1/	-4082
IG	-4083
bl	-4084
arm	-4085
ett	-4086
ades	-4087
ulin	-4088
▁DNA	-4089
▁heat	-4090
▁warm	-4091
▁Black	-4092
▁Jimmy	-4093
▁White	-4094
▁taste	-4095
▁bottle	-4096
▁flying	-4097
▁island	-4098
▁source	-4099
▁darling	-4100
▁heading	-4101
▁According	-4102
▁statement	-4103
asc	-4104
dra	-4105
ram	-4106
▁Bur	-4107
▁Cla	-4108
▁Des	-4109
▁aim	-4110
▁odd	-4111
▁pan	-4112
essed	-4113
▁acid	-4114
▁cute	-4115
▁jack	-4116
▁Sarah	-4117
▁model	-4118
▁tight	-4119
▁bloody	-4120
▁camera	-4121
▁mechan	-4122
▁seemed	-4123
▁summer	-4124
▁prevent	-4125
▁weapons	-4126
▁believed	-4127
▁proposal	-4128
▁thousand	-4129
leep	-4130
ston	-4131
▁ves	-4132
cking	-4133
rated	-4134
▁nine	-4135
▁roof	-4136
▁tree	-4137
rences	-4138
vember	-4139
▁champ	-4140
▁divor	-4141
▁entry	-4142
▁frame	-4143
▁shoes	-4144
imately	-4145
osition	-4146
▁escape	-4147
▁guilty	-4148
▁leaves	-4149
▁legisl	-4150
▁temper	-4151
▁dollars	-4152
▁Republic	-4153
▁location	-4154
▁technical	-4155
▁additional	-4156
alt	-4157
bec	-4158
ste	-4159
▁22	-4160
anda	-4161
shit	-4162
▁Air	-4163
▁dry	-4164
▁unit	-4165
▁wild	-4166
itchen	-4167
▁Chief	-4168
▁Count	-4169
▁Doesn	-4170
▁Their	-4171
▁Thing	-4172
▁freak	-4173
▁cancer	-4174
▁caused	-4175
▁excuse	-4176
▁promot	-4177
▁walked	-4178
▁average	-4179
▁consist	-4180
▁freedom	-4181
▁November	-4182
▁bathroom	-4183
▁criminal	-4184
▁interview	-4185
▁recommended	-4186
▁implementation	-4187
can	-4188
ipe	-4189
▁Ac	-4190
aker	-4191
elly	-4192
mark	-4193
that	-4194
vert	-4195
▁Tra	-4196
ining	-4197
▁cand	-4198
▁rele	-4199
▁angel	-4200
▁color	-4201
▁Better	-4202
▁bullet	-4203
▁stories	-4204
▁approval	-4205
▁bringing	-4206
▁partners	-4207
▁shooting	-4208
▁emergency	-4209
▁assessment	-4210
▁investment	-4211
-2	-4212
OD	-4213
UC	-4214
UR	-4215
den	-4216
iles	-4217
load	-4218
orts	-4219
▁Cat	-4220
▁fro	-4221
▁rap	-4222
epend	-4223
▁Next	-4224
▁gang	-4225
▁nose	-4226
▁agric	-4227
▁ended	-4228
▁hurry	-4229
▁spoke	-4230
▁exceed	-4231
▁losing	-4232
▁settle	-4233
▁victims	-4234
▁designed	-4235
▁submitted	-4236
kn	-4237
oe	-4238
ann	-4239
ols	-4240
▁CH	-4241
▁ju	-4242
...?	-4243
aren	-4244
book	-4245
urse	-4246
▁Val	-4247
arden	-4248
▁legs	-4249
▁mate	-4250
▁race	-4251
▁tele	-4252
▁Allah	-4253
▁South	-4254
▁behav	-4255
▁frequ	-4256
▁initi	-4257
▁reven	-4258
▁tests	-4259
unities	-4260
▁assume	-4261
▁paying	-4262
▁Without	-4263
▁medicine	-4264
▁guarantee	-4265
▁Lieutenant	-4266
▁technology	-4267
IM	-4268
▁29	-4269
▁Sa	-4270
eted	-4271
obal	-4272
▁Bud	-4273
▁Lis	-4274
▁Str	-4275
▁fed	-4276
asing	-4277
asion	-4278
erves	-4279
▁Chan	-4280
▁Jeff	-4281
▁Prot	-4282
▁THAT	-4283
▁alco	-4284
▁fill	-4285
▁tabl	-4286
ertain	-4287
▁fully	-4288
▁hungry	-4289
▁poison	-4290
▁regist	-4291
▁stolen	-4292
▁content	-4293
▁letting	-4294
▁recently	-4295
5,	-4296
rim	-4297
▁3.	-4298
resp	-4299
▁198	-4300
▁III	-4301
▁tea	-4302
ilies	-4303
▁cart	-4304
▁push	-4305
▁prefer	-4306
▁spread	-4307
▁undert	-4308
▁instrum	-4309
▁package	-4310
▁surface	-4311
▁instruct	-4312
▁projects	-4313
▁separate	-4314
▁administration	-4315
AY	-4316
OS	-4317
UL	-4318
erc	-4319
igg	-4320
ils	-4321
ita	-4322
lus	-4323
oti	-4324
▁28	-4325
▁Lo	-4326
▁Sl	-4327
ette	-4328
fast	-4329
ompl	-4330
play	-4331
pter	-4332
▁Pal	-4333
andon	-4334
ctors	-4335
ipped	-4336
▁Jess	-4337
▁Sant	-4338
▁calm	-4339
▁resc	-4340
▁tend	-4341
arrass	-4342
iction	-4343
▁Guess	-4344
▁demand	-4345
▁details	-4346
▁traffic	-4347
▁families	-4348
▁speaking	-4349
▁disappear	-4350
▁everywhere	-4351
AM	-4352
va	-4353
mar	-4354
new	-4355
osh	-4356
▁ml	-4357
rial	-4358
▁Win	-4359
▁rub	-4360
ounce	-4361
▁Jake	-4362
▁Jane	-4363
▁None	-4364
▁lies	-4365
▁onto	-4366
▁chest	-4367
▁advant	-4368
▁online	-4369
▁Colonel	-4370
▁knowing	-4371
▁Internet	-4372
▁response	-4373
6.	-4374
(2)	-4375
olf	-4376
sey	-4377
ilot	-4378
▁rom	-4379
▁rot	-4380
▁sin	-4381
▁var	-4382
▁Port	-4383
▁cock	-4384
▁hook	-4385
▁Stand	-4386
▁Under	-4387
▁beach	-4388
▁pants	-4389
▁satis	-4390
▁bright	-4391
▁prepar	-4392
▁severe	-4393
▁taught	-4394
▁bastard	-4395
▁defined	-4396
▁society	-4397
▁maintain	-4398
▁realized	-4399
▁destroyed	-4400
7,	-4401
We	-4402
bel	-4403
hyl	-4404
inct	-4405
▁Mel	-4406
▁Que	-4407
arian	-4408
using	-4409
▁Adam	-4410
▁Five	-4411
▁circ	-4412
▁joke	-4413
▁suck	-4414
▁Uncle	-4415
▁assum	-4416
▁coord	-4417
▁daddy	-4418
▁kidna	-4419
▁driver	-4420
▁integr	-4421
▁values	-4422
▁justice	-4423
▁limited	-4424
▁setting	-4425
▁embarrass	-4426
▁provision	-4427
▁competition	-4428
ops	-4429
roat	-4430
▁cup	-4431
▁fle	-4432
▁mov	-4433
ronic	-4434
▁bare	-4435
▁ends	-4436
▁lack	-4437
▁shar	-4438
▁tort	-4439
▁China	-4440
▁broad	-4441
▁proof	-4442
▁relax	-4443
▁sympt	-4444
illance	-4445
▁Things	-4446
▁lately	-4447
▁listed	-4448
▁starts	-4449
▁actions	-4450
▁dropped	-4451
▁inspect	-4452
▁kitchen	-4453
▁survive	-4454
▁capacity	-4455
▁citizens	-4456
▁electric	-4457
▁included	-4458
▁substance	-4459
▁professional	-4460
4,	-4461
gie	-4462
ips	-4463
cher	-4464
idel	-4465
iver	-4466
mine	-4467
ware	-4468
▁Sub	-4469
iform	-4470
ollow	-4471
umber	-4472
▁Coll	-4473
▁Damn	-4474
▁East	-4475
▁Phil	-4476
▁Were	-4477
▁laws	-4478
▁Inter	-4479
▁World	-4480
▁files	-4481
▁illeg	-4482
▁pharm	-4483
▁river	-4484
▁create	-4485
▁kidding	-4486
▁returned	-4487
▁documents	-4488
▁recommend	-4489
hal	-4490
▁Hy	-4491
▁Ol	-4492
ford	-4493
hand	-4494
▁Ham	-4495
▁PRO	-4496
▁Pri	-4497
▁Sch	-4498
▁spe	-4499
▁Matt	-4500
▁cake	-4501
▁cree	-4502
▁ours	-4503
▁cards	-4504
▁psych	-4505
▁easier	-4506
▁scheme	-4507
▁signed	-4508
▁Another	-4509
▁invited	-4510
▁minimum	-4511
▁positive	-4512
▁otherwise	-4513
And	-4514
rab	-4515
yal	-4516
▁Ok	-4517
▁SH	-4518
▁UN	-4519
▁[1	-4520
What	-4521
back	-4522
osis	-4523
rick	-4524
ucle	-4525
▁Aug	-4526
ening	-4527
▁Thom	-4528
▁cous	-4529
▁flow	-4530
▁liqu	-4531
▁moon	-4532
▁Angel	-4533
▁Tommy	-4534
▁games	-4535
▁lines	-4536
▁ought	-4537
▁shown	-4538
▁Except	-4539
▁scream	-4540
▁attempt	-4541
▁deliver	-4542
▁selling	-4543
▁approach	-4544
▁function	-4545
▁materials	-4546
▁establishing	-4547
7/	-4548
cri	-4549
fin	-4550
urt	-4551
▁HA	-4552
▁HE	-4553
▁Ell	-4554
▁Kat	-4555
▁Mac	-4556
▁cas	-4557
▁nor	-4558
ained	-4559
iring	-4560
stood	-4561
▁Febr	-4562
▁Find	-4563
▁Hall	-4564
▁Rick	-4565
▁fant	-4566
▁rare	-4567
▁term	-4568
fessor	-4569
▁influ	-4570
▁knife	-4571
▁micro	-4572
▁slept	-4573
▁events	-4574
▁greater	-4575
▁hanging	-4576
▁payment	-4577
▁respond	-4578
▁science	-4579
▁village	-4580
▁February	-4581
▁Probably	-4582
leg	-4583
nov	-4584
▁80	-4585
▁90	-4586
▁Bu	-4587
▁fi	-4588
▁Lee	-4589
▁Way	-4590
▁boo	-4591
▁tun	-4592
idden	-4593
istan	-4594
▁Ryan	-4595
▁bill	-4596
▁cris	-4597
▁dare	-4598
▁basic	-4599
▁naked	-4600
ections	-4601
▁brings	-4602
▁closer	-4603
▁easily	-4604
▁slight	-4605
▁biggest	-4606
▁capable	-4607
▁manager	-4608
▁proceed	-4609
▁possibly	-4610
▁powerful	-4611
▁suddenly	-4612
▁recognize	-4613
▁comfortable	-4614
9/	-4615
PP	-4616
].	-4617
gl	-4618
201	-4619
ago	-4620
vin	-4621
cked	-4622
▁Ass	-4623
▁Esp	-4624
▁Jew	-4625
▁Sal	-4626
▁Van	-4627
▁map	-4628
aging	-4629
ellig	-4630
▁Four	-4631
▁Fred	-4632
▁Head	-4633
▁lone	-4634
father	-4635
▁Franc	-4636
▁March	-4637
▁categ	-4638
▁heavy	-4639
▁spell	-4640
▁bridge	-4641
▁corner	-4642
▁defend	-4643
▁leader	-4644
▁powers	-4645
▁signal	-4646
▁arrived	-4647
▁consequ	-4648
▁failure	-4649
▁foreign	-4650
▁pretend	-4651
▁regular	-4652
▁mountain	-4653
▁purposes	-4654
▁expecting	-4655
▁listening	-4656
▁published	-4657
▁department	-4658
▁performance	-4659
do	-4660
rad	-4661
omen	-4662
▁Off	-4663
▁tor	-4664
acing	-4665
▁Brit	-4666
▁Help	-4667
▁qual	-4668
▁stre	-4669
▁smoke	-4670
itional	-4671
▁Street	-4672
▁fucked	-4673
▁incred	-4674
▁movies	-4675
▁answers	-4676
▁imports	-4677
paragraph	-4678
▁decisions	-4679
▁monitoring	-4680
6,	-4681
IV	-4682
ya	-4683
ida	-4684
▁Chi	-4685
▁Ooh	-4686
▁Too	-4687
▁Tur	-4688
▁bow	-4689
orter	-4690
▁Love	-4691
▁Vict	-4692
▁copy	-4693
▁crow	-4694
▁lots	-4695
▁pool	-4696
▁pure	-4697
▁rise	-4698
▁Court	-4699
▁North	-4700
▁adult	-4701
▁chief	-4702
▁hydro	-4703
▁afford	-4704
▁agents	-4705
▁humans	-4706
▁talent	-4707
▁impossible	-4708
pa	-4709
ERE	-4710
▁lt	-4711
ails	-4712
esty	-4713
ieve	-4714
▁Ins	-4715
▁Met	-4716
▁Wil	-4717
▁hom	-4718
▁lat	-4719
▁led	-4720
aches	-4721
geant	-4722
place	-4723
vious	-4724
▁Step	-4725
▁Tony	-4726
▁bust	-4727
▁crit	-4728
▁whom	-4729
▁wide	-4730
▁Mexic	-4731
▁delay	-4732
▁folks	-4733
▁criter	-4734
▁sample	-4735
▁Director	-4736
▁directly	-4737
▁painting	-4738
▁physical	-4739
▁Professor	-4740
▁community	-4741
▁standards	-4742
▁institutions	-4743
▁BE	-4744
▁Tw	-4745
vest	-4746
▁Hum	-4747
▁Kev	-4748
▁arg	-4749
▁sen	-4750
▁smo	-4751
under	-4752
▁Lady	-4753
▁Mill	-4754
▁desk	-4755
▁keys	-4756
▁mill	-4757
rative	-4758
▁dirty	-4759
▁finds	-4760
▁mirac	-4761
▁truly	-4762
iveness	-4763
▁Johnny	-4764
▁former	-4765
▁patter	-4766
▁shower	-4767
▁William	-4768
▁benefit	-4769
▁flowers	-4770
▁offered	-4771
▁ordered	-4772
▁sending	-4773
▁bullshit	-4774
▁internal	-4775
▁insurance	-4776
▁subparagraph	-4777
',	-4778
2/	-4779
AG	-4780
fl	-4781
hem	-4782
met	-4783
▁pu	-4784
aine	-4785
born	-4786
erer	-4787
weet	-4788
▁Huh	-4789
▁Pet	-4790
▁Sus	-4791
▁Ted	-4792
▁mat	-4793
▁sky	-4794
aries	-4795
arily	-4796
igned	-4797
overy	-4798
▁Whoa	-4799
▁bell	-4800
▁cere	-4801
▁fulf	-4802
▁stab	-4803
▁vacc	-4804
▁Italy	-4805
▁balls	-4806
▁exter	-4807
▁grown	-4808
▁incor	-4809
▁smile	-4810
▁negoti	-4811
▁Special	-4812
▁opening	-4813
▁somehow	-4814
▁turning	-4815
▁analysis	-4816
▁strategy	-4817
▁restaurant	-4818
▁sweetheart	-4819
▁manufacture	-4820
▁particularly	-4821
No	-4822
ART	-4823
asy	-4824
ban	-4825
kin	-4826
▁==	-4827
▁AS	-4828
hips	-4829
odes	-4830
▁unt	-4831
ively	-4832
▁Cons	-4833
▁Many	-4834
▁Sund	-4835
▁acqu	-4836
▁pock	-4837
▁reve	-4838
▁Scott	-4839
▁While	-4840
▁photo	-4841
▁valid	-4842
▁August	-4843
▁Little	-4844
▁Martin	-4845
▁confir	-4846
▁issued	-4847
▁Charles	-4848
▁Journal	-4849
▁ability	-4850
▁airport	-4851
▁concern	-4852
▁network	-4853
▁noticed	-4854
▁nowhere	-4855
▁reached	-4856
▁accounts	-4857
▁thoughts	-4858
▁determined	-4859
vo	-4860
eds	-4861
ira	-4862
org	-4863
ota	-4864
▁6.	-4865
▁AL	-4866
▁Cy	-4867
raft	-4868
▁Gab	-4869
▁Hal	-4870
▁Maj	-4871
▁Rog	-4872
▁flu	-4873
▁pow	-4874
▁sna	-4875
▁tow	-4876
hetic	-4877
roups	-4878
▁Aren	-4879
▁Bank	-4880
▁Ever	-4881
▁dies	-4882
▁jour	-4883
▁tape	-4884
aneous	-4885
encies	-4886
ulting	-4887
▁began	-4888
▁commer	-4889
▁duties	-4890
▁punish	-4891
▁sexual	-4892
▁supply	-4893
▁achieve	-4894
▁balance	-4895
▁dancing	-4896
▁doctors	-4897
▁suicide	-4898
▁Official	-4899
▁independ	-4900
▁released	-4901
▁advantage	-4902
▁assistance	-4903
▁operations	-4904
ko	-4905
bur	-4906
..."	-4907
alth	-4908
aves	-4909
▁Dou	-4910
ishes	-4911
▁Dude	-4912
▁Know	-4913
▁Lind	-4914
▁Oper	-4915
▁sees	-4916
▁Bring	-4917
▁Trans	-4918
▁awful	-4919
▁cells	-4920
▁suppl	-4921
▁usual	-4922
▁Friday	-4923
▁calcul	-4924
▁compon	-4925
▁female	-4926
▁nearly	-4927
▁regret	-4928
▁central	-4929
▁dealing	-4930
▁obvious	-4931
▁observed	-4932
▁symptoms	-4933
▁committed	-4934
▁producers	-4935
▁surveillance	-4936
6/	-4937
agn	-4938
bie	-4939
cut	-4940
▁AC	-4941
oken	-4942
▁Bra	-4943
▁Bre	-4944
▁anc	-4945
▁mum	-4946
ivity	-4947
orney	-4948
phone	-4949
urday	-4950
▁Guys	-4951
▁Stan	-4952
▁clim	-4953
▁debt	-4954
▁swim	-4955
▁Roman	-4956
▁joint	-4957
▁media	-4958
▁signs	-4959
ximately	-4960
▁century	-4961
▁demonst	-4962
▁fingers	-4963
▁motherf	-4964
▁persons	-4965
▁popular	-4966
▁receive	-4967
▁apologize	-4968
▁breakfast	-4969
▁confident	-4970
▁extremely	-4971
▁forgotten	-4972
▁)	-4973
erk	-4974
hew	-4975
hmm	-4976
▁Mo	-4977
down	-4978
hell	-4979
with	-4980
▁Wal	-4981
▁cro	-4982
▁sem	-4983
▁tie	-4984
alled	-4985
antly	-4986
estic	-4987
force	-4988
orage	-4989
▁Ital	-4990
▁bone	-4991
▁fake	-4992
▁mail	-4993
action	-4994
▁serve	-4995
▁split	-4996
▁Agency	-4997
▁breath	-4998
▁center	-4999
▁forest	-5000
▁hereby	-5001
▁player	-5002
▁plenty	-5003
▁purcha	-5004
▁alcohol	-5005
▁streets	-5006
▁approved	-5007
▁football	-5008
▁reaction	-5009
▁soldiers	-5010
▁students	-5011
▁introduce	-5012
▁disappoint	-5013
▁publication	-5014
9,	-5015
US	-5016
ww	-5017
ye	-5018
gly	-5019
law	-5020
lim	-5021
▁Wes	-5022
/2005	-5023
cious	-5024
known	-5025
luded	-5026
▁desp	-5027
▁mort	-5028
unction	-5029
▁Daniel	-5030
▁nation	-5031
▁papers	-5032
▁recent	-5033
▁refund	-5034
▁tempor	-5035
▁England	-5036
▁appears	-5037
▁conduct	-5038
▁illegal	-5039
▁arrested	-5040
▁attacked	-5041
▁proposed	-5042
▁specified	-5043
▁successful	-5044
4/	-5045
vey	-5046
▁Up	-5047
term	-5048
▁Gar	-5049
▁adm	-5050
▁uns	-5051
gment	-5052
▁Aust	-5053
▁Life	-5054
▁butt	-5055
▁dial	-5056
▁lied	-5057
▁Bobby	-5058
▁Haven	-5059
▁encou	-5060
▁remem	-5061
▁Govern	-5062
▁actual	-5063
▁dating	-5064
▁device	-5065
▁lonely	-5066
▁reject	-5067
▁resist	-5068
▁screen	-5069
▁Russian	-5070
▁whoever	-5071
▁complain	-5072
rig	-5073
▁Den	-5074
iency	-5075
izing	-5076
▁Rome	-5077
▁WHAT	-5078
▁nuts	-5079
▁runs	-5080
▁Billy	-5081
▁Super	-5082
▁heads	-5083
▁veget	-5084
▁distur	-5085
▁confirm	-5086
▁methods	-5087
▁reflect	-5088
▁uniform	-5089
▁chemical	-5090
▁machines	-5091
▁violence	-5092
4)	-5093
bre	-5094
icy	-5095
oot	-5096
reg	-5097
▁0,	-5098
▁Ca	-5099
mond	-5100
omin	-5101
▁Sen	-5102
▁Sil	-5103
▁mal	-5104
▁san	-5105
▁tap	-5106
eless	-5107
gging	-5108
isher	-5109
▁Kate	-5110
▁eggs	-5111
▁stom	-5112
▁symb	-5113
orders	-5114
urious	-5115
▁creep	-5116
▁queen	-5117
▁relig	-5118
▁south	-5119
▁teeth	-5120
▁virus	-5121
cluding	-5122
▁Ladies	-5123
▁Secret	-5124
▁Sounds	-5125
▁Sunday	-5126
▁crisis	-5127
▁experi	-5128
▁pissed	-5129
▁theory	-5130
▁ticket	-5131
▁Officer	-5132
▁abandon	-5133
▁constit	-5134
▁counter	-5135
▁reality	-5136
▁withdra	-5137
▁brothers	-5138
▁carrying	-5139
▁clinical	-5140
▁criteria	-5141
▁interrupt	-5142
▁Apparently	-5143
▁conference	-5144
▁discovered	-5145
▁agricultural	-5146
▁communication	-5147
3/	-5148
TS	-5149
▁5.	-5150
▁ok	-5151
▁Gir	-5152
▁Mer	-5153
▁Ron	-5154
▁ing	-5155
▁row	-5156
olved	-5157
osure	-5158
▁Also	-5159
▁Hope	-5160
▁Plus	-5161
▁chat	-5162
▁scar	-5163
▁vari	-5164
▁webs	-5165
ashion	-5166
▁Green	-5167
▁Trust	-5168
▁motor	-5169
▁nucle	-5170
▁pursu	-5171
▁walls	-5172
▁Carter	-5173
▁betray	-5174
▁border	-5175
▁groups	-5176
▁transl	-5177
▁asshole	-5178
▁belongs	-5179
▁monster	-5180
▁remains	-5181
▁showing	-5182
▁Articles	-5183
▁detective	-5184
OJ	-5185
ext	-5186
inn	-5187
▁IV	-5188
▁eh	-5189
▁Had	-5190
▁rum	-5191
▁Happ	-5192
▁Move	-5193
▁Talk	-5194
▁dumb	-5195
▁jobs	-5196
▁male	-5197
▁mood	-5198
▁tong	-5199
▁Major	-5200
▁exerc	-5201
▁silly	-5202
▁stars	-5203
▁annual	-5204
▁cousin	-5205
▁faster	-5206
▁growth	-5207
▁highly	-5208
▁speech	-5209
▁Finally	-5210
▁complex	-5211
▁falling	-5212
▁pharmac	-5213
▁watched	-5214
formation	-5215
▁Minister	-5216
▁Saturday	-5217
▁horrible	-5218
▁developed	-5219
▁combination	-5220
):	-5221
60	-5222
pat	-5223
MENT	-5224
ddie	-5225
rier	-5226
ship	-5227
▁Kim	-5228
▁cos	-5229
▁dim	-5230
▁fan	-5231
bered	-5232
enced	-5233
▁Chic	-5234
ealous	-5235
mother	-5236
▁Chris	-5237
▁Kevin	-5238
▁award	-5239
▁forms	-5240
▁magaz	-5241
▁owner	-5242
▁ridic	-5243
▁desper	-5244
▁expert	-5245
▁failed	-5246
▁filled	-5247
▁forced	-5248
▁photos	-5249
▁entered	-5250
▁healthy	-5251
▁insulin	-5252
▁planned	-5253
▁workers	-5254
▁National	-5255
▁sentence	-5256
▁universe	-5257
▁sufficient	-5258
RI	-5259
ij	-5260
mo	-5261
iat	-5262
lan	-5263
▁DO	-5264
▁Li	-5265
▁ow	-5266
atul	-5267
ocol	-5268
▁500	-5269
▁Far	-5270
▁fal	-5271
achel	-5272
enger	-5273
icted	-5274
pport	-5275
▁Cong	-5276
▁lift	-5277
idents	-5278
▁bless	-5279
▁brief	-5280
▁cheap	-5281
▁decre	-5282
▁kinda	-5283
▁shirt	-5284
cellent	-5285
▁Victor	-5286
▁breast	-5287
▁compar	-5288
▁global	-5289
▁season	-5290
▁termin	-5291
▁vision	-5292
▁parking	-5293
▁quarter	-5294
▁stomach	-5295
▁warning	-5296
▁Although	-5297
▁concerns	-5298
▁controll	-5299
▁presence	-5300
▁Commander	-5301
▁assistant	-5302
▁connected	-5303
▁principle	-5304
▁permission	-5305
▁programmes	-5306
▁possibility	-5307
▁neighborhood	-5308
40	-5309
99	-5310
He	-5311
arl	-5312
▁2,	-5313
▁CON	-5314
▁Dis	-5315
▁Him	-5316
▁Nic	-5317
▁Roy	-5318
▁Slo	-5319
▁Sur	-5320
▁joy	-5321
▁reb	-5322
▁Long	-5323
▁Same	-5324
▁sale	-5325
▁vamp	-5326
aching	-5327
ivered	-5328
▁Eddie	-5329
▁Group	-5330
▁Queen	-5331
▁alloc	-5332
▁cares	-5333
▁crowd	-5334
▁fruit	-5335
▁stood	-5336
▁Police	-5337
▁buying	-5338
▁expend	-5339
▁assault	-5340
▁billion	-5341
▁growing	-5342
▁recover	-5343
▁weather	-5344
▁Security	-5345
▁personally	-5346
▁certificate	-5347
▁complicated	-5348
80	-5349
IF	-5350
ano	-5351
boy	-5352
car	-5353
cel	-5354
ini	-5355
pha	-5356
rog	-5357
sid	-5358
uty	-5359
aret	-5360
mail	-5361
▁Liz	-5362
▁sod	-5363
▁Baby	-5364
▁Serv	-5365
▁fate	-5366
▁prem	-5367
▁seek	-5368
▁trap	-5369
▁liter	-5370
▁metal	-5371
uration	-5372
▁Second	-5373
▁accomp	-5374
▁consid	-5375
▁fixing	-5376
▁invent	-5377
▁profit	-5378
▁raised	-5379
▁distrib	-5380
▁excited	-5381
▁impress	-5382
▁storage	-5383
▁distance	-5384
▁existing	-5385
▁schedule	-5386
▁construction	-5387
KE	-5388
ads	-5389
hel	-5390
hop	-5391
ias	-5392
ula	-5393
▁gy	-5394
omed	-5395
▁300	-5396
▁bon	-5397
anced	-5398
ether	-5399
holog	-5400
inate	-5401
ument	-5402
▁Fort	-5403
▁Joey	-5404
▁gate	-5405
▁poly	-5406
▁shad	-5407
▁tiny	-5408
ograph	-5409
▁birds	-5410
▁brave	-5411
▁bucks	-5412
▁error	-5413
▁escap	-5414
▁liver	-5415
▁Africa	-5416
▁Cooper	-5417
▁altern	-5418
▁asleep	-5419
▁comply	-5420
▁strugg	-5421
▁suspic	-5422
▁collect	-5423
▁student	-5424
▁delivered	-5425
▁described	-5426
▁regarding	-5427
▁Especially	-5428
▁legislation	-5429
▁temperature	-5430
▁Unfortunately	-5431
Th	-5432
lyn	-5433
▁Ow	-5434
▁ge	-5435
▁mm	-5436
amps	-5437
atin	-5438
cast	-5439
▁Cra	-5440
erted	-5441
▁Mont	-5442
▁fuel	-5443
▁snow	-5444
ushing	-5445
▁Madam	-5446
▁loose	-5447
▁steps	-5448
▁storm	-5449
▁threw	-5450
atching	-5451
issions	-5452
respond	-5453
▁barely	-5454
▁beauty	-5455
▁cheese	-5456
▁crying	-5457
▁nights	-5458
▁skills	-5459
▁status	-5460
▁Section	-5461
▁managed	-5462
▁markets	-5463
▁warrant	-5464
▁elements	-5465
▁Christian	-5466
▁indicated	-5467
▁reporting	-5468
▁commercial	-5469
▁understood	-5470
▁undertaking	-5471
);	-5472
ELL	-5473
ube	-5474
▁Aw	-5475
▁Add	-5476
▁Jen	-5477
▁Law	-5478
▁Men	-5479
▁ast	-5480
▁lif	-5481
▁pul	-5482
▁sou	-5483
istry	-5484
ouses	-5485
▁Josh	-5486
▁Kill	-5487
▁Span	-5488
▁grew	-5489
▁jury	-5490
▁meal	-5491
▁rail	-5492
atches	-5493
ifying	-5494
▁false	-5495
▁shame	-5496
▁types	-5497
▁woods	-5498
ivalent	-5499
▁Always	-5500
▁Robert	-5501
▁fright	-5502
▁headed	-5503
▁lights	-5504
▁liquid	-5505
▁region	-5506
▁remove	-5507
▁stress	-5508
isations	-5509
▁Italian	-5510
▁secrets	-5511
▁univers	-5512
▁director	-5513
▁laughing	-5514
▁negative	-5515
▁obtained	-5516
▁relating	-5517
▁restrict	-5518
▁romantic	-5519
▁celebrate	-5520
▁currently	-5521
▁perfectly	-5522
▁collection	-5523
15	-5524
TH	-5525
ef	-5526
iac	-5527
▁CO	-5528
▁PR	-5529
agon	-5530
ours	-5531
rast	-5532
▁Leg	-5533
▁Mus	-5534
▁Run	-5535
▁Tim	-5536
▁alt	-5537
orses	-5538
ville	-5539
▁Home	-5540
▁Mean	-5541
▁cure	-5542
▁ruin	-5543
▁sust	-5544
▁task	-5545
▁wire	-5546
▁notes	-5547
▁rough	-5548
▁sword	-5549
▁Anyone	-5550
▁During	-5551
▁Thomas	-5552
▁buried	-5553
▁debate	-5554
▁hardly	-5555
▁indeed	-5556
▁injury	-5557
▁sacrif	-5558
▁states	-5559
▁stayed	-5560
ervation	-5561
▁divorce	-5562
▁extract	-5563
▁disaster	-5564
▁provides	-5565
▁vehicles	-5566
▁committee	-5567
▁direction	-5568
▁correspond	-5569
▁population	-5570
▁protecting	-5571
AB	-5572
AD	-5573
VER	-5574
ece	-5575
ped	-5576
▁GO	-5577
▁Us	-5578
▁ut	-5579
asty	-5580
itis	-5581
ucky	-5582
uing	-5583
▁Amy	-5584
▁Bea	-5585
▁Dam	-5586
▁Hot	-5587
▁Ram	-5588
▁Sun	-5589
atell	-5590
craft	-5591
ordan	-5592
▁Date	-5593
▁Dean	-5594
▁Leon	-5595
▁Open	-5596
▁Rock	-5597
▁Wood	-5598
▁zone	-5599
▁2005.	-5600
▁Louis	-5601
▁Spain	-5602
▁devil	-5603
▁funds	-5604
▁grave	-5605
▁hello	-5606
▁spare	-5607
eration	-5608
▁butter	-5609
▁latest	-5610
▁priest	-5611
▁satisf	-5612
▁Central	-5613
▁Chicago	-5614
▁advance	-5615
▁becomes	-5616
▁nuclear	-5617
▁reduced	-5618
▁younger	-5619
▁previous	-5620
▁vacation	-5621
▁challenge	-5622
▁interests	-5623
▁associated	-5624
▁ridiculous	-5625
'?	-5626
LY	-5627
St	-5628
ona	-5629
▁kg	-5630
ella	-5631
otic	-5632
rees	-5633
uled	-5634
▁Jon	-5635
▁Old	-5636
▁Rel	-5637
erest	-5638
hered	-5639
uries	-5640
▁2007	-5641
▁Fore	-5642
▁Luke	-5643
▁Rose	-5644
▁doub	-5645
▁flat	-5646
▁tiss	-5647
▁Grace	-5648
▁clock	-5649
▁liber	-5650
▁nurse	-5651
▁Author	-5652
▁Russia	-5653
▁burned	-5654
▁famous	-5655
▁option	-5656
▁robber	-5657
▁strike	-5658
▁useful	-5659
▁yellow	-5660
▁bedroom	-5661
▁chicken	-5662
▁jealous	-5663
▁journey	-5664
▁screwed	-5665
▁background	-5666
▁disappeared	-5667
▁expenditure	-5668
25	-5669
EE	-5670
ae	-5671
ays	-5672
ket	-5673
▁Av	-5674
▁SU	-5675
▁Art	-5676
▁Ask	-5677
▁Mur	-5678
▁ate	-5679
▁fif	-5680
▁rab	-5681
▁raw	-5682
hamed	-5683
lands	-5684
works	-5685
▁Pret	-5686
▁clar	-5687
▁goin	-5688
▁lord	-5689
▁toil	-5690
ateful	-5691
ements	-5692
ritory	-5693
▁doors	-5694
▁ideas	-5695
▁leads	-5696
▁ships	-5697
▁style	-5698
▁affair	-5699
▁garage	-5700
▁throat	-5701
▁clients	-5702
▁testing	-5703
▁tickets	-5704
▁touched	-5705
▁bleeding	-5706
▁entirely	-5707
▁priority	-5708
▁operating	-5709
▁applications	-5710
▁approximately	-5711
8,	-5712
PA	-5713
bor	-5714
ixt	-5715
mal	-5716
ran	-5717
▁AD	-5718
amin	-5719
emon	-5720
gent	-5721
icks	-5722
iest	-5723
uate	-5724
▁Emm	-5725
▁Fre	-5726
▁Hel	-5727
▁Hol	-5728
▁Ken	-5729
▁Mem	-5730
▁Sho	-5731
▁cig	-5732
▁dee	-5733
▁tim	-5734
aylor	-5735
itter	-5736
stein	-5737
uated	-5738
▁elev	-5739
▁elim	-5740
lement	-5741
▁Santa	-5742
▁Start	-5743
▁dozen	-5744
▁faces	-5745
▁grade	-5746
▁minor	-5747
▁north	-5748
▁scare	-5749
▁stone	-5750
▁Poland	-5751
▁manage	-5752
▁sooner	-5753
idelines	-5754
▁Washing	-5755
▁alright	-5756
▁comprom	-5757
▁dressed	-5758
▁revenge	-5759
▁website	-5760
excluding	-5761
▁breaking	-5762
▁intellig	-5763
▁murderer	-5764
▁produced	-5765
▁shopping	-5766
▁surround	-5767
▁customers	-5768
▁essential	-5769
▁medicinal	-5770
▁suffering	-5771
▁territory	-5772
FF	-5773
esh	-5774
net	-5775
ria	-5776
rid	-5777
she	-5778
▁AT	-5779
iled	-5780
iser	-5781
ogen	-5782
▁Ber	-5783
▁Dev	-5784
▁Lar	-5785
▁Mum	-5786
▁Ros	-5787
iliar	-5788
inced	-5789
▁Cast	-5790
▁wise	-5791
▁Alice	-5792
▁Chuck	-5793
▁Clark	-5794
▁Simon	-5795
▁bound	-5796
▁equal	-5797
▁paint	-5798
▁wheel	-5799
▁babies	-5800
▁detect	-5801
▁forces	-5802
▁insane	-5803
atherine	-5804
▁accompl	-5805
▁picking	-5806
▁Tomorrow	-5807
▁changing	-5808
▁comments	-5809
▁convince	-5810
▁convinced	-5811
▁reduction	-5812
▁downstairs	-5813
▁authorisation	-5814
CH	-5815
],	-5816
IGH	-5817
ola	-5818
win	-5819
▁45	-5820
▁na	-5821
eaks	-5822
elle	-5823
imal	-5824
izza	-5825
▁197	-5826
▁Haw	-5827
▁pha	-5828
anged	-5829
▁Ange	-5830
▁Card	-5831
▁Dave	-5832
▁dust	-5833
▁goal	-5834
▁pill	-5835
▁sett	-5836
▁tall	-5837
▁wash	-5838
inting	-5839
▁Jason	-5840
▁Sweet	-5841
▁coach	-5842
▁cream	-5843
▁daily	-5844
▁effic	-5845
▁estim	-5846
▁helps	-5847
▁loyal	-5848
▁marks	-5849
▁occup	-5850
▁trail	-5851
▁Number	-5852
▁behalf	-5853
▁democr	-5854
▁explan	-5855
▁fellow	-5856
▁fought	-5857
▁hidden	-5858
▁lesson	-5859
▁mental	-5860
▁pocket	-5861
▁reform	-5862
▁rescue	-5863
▁series	-5864
▁spoken	-5865
▁tongue	-5866
▁waited	-5867
▁enemies	-5868
▁funeral	-5869
▁initial	-5870
▁license	-5871
▁Sergeant	-5872
▁behavior	-5873
▁occasion	-5874
▁officers	-5875
▁stronger	-5876
▁medicines	-5877
▁objectives	-5878
▁appointment	-5879
▁instructions	-5880
90	-5881
het	-5882
put	-5883
uls	-5884
lock	-5885
uous	-5886
▁Att	-5887
▁Six	-5888
▁Sum	-5889
▁bug	-5890
▁Hard	-5891
▁Jose	-5892
▁bike	-5893
▁bond	-5894
▁entr	-5895
▁impl	-5896
▁iron	-5897
▁woke	-5898
colate	-5899
elling	-5900
lusion	-5901
▁autom	-5902
▁hurts	-5903
▁print	-5904
▁route	-5905
▁Rachel	-5906
▁kicked	-5907
▁tender	-5908
▁customs	-5909
▁express	-5910
▁holiday	-5911
▁letters	-5912
▁regards	-5913
▁removed	-5914
▁soldier	-5915
▁attorney	-5916
▁delivery	-5917
▁detailed	-5918
▁memories	-5919
▁structure	-5920
▁evaluation	-5921
▁invitation	-5922
CE	-5923
In	-5924
gt	-5925
uk	-5926
(3)	-5927
pet	-5928
pre	-5929
▁EN	-5930
▁MY	-5931
cean	-5932
etch	-5933
itty	-5934
otal	-5935
▁Sol	-5936
▁fab	-5937
/2006	-5938
ician	-5939
pects	-5940
▁2000	-5941
▁THIS	-5942
▁myst	-5943
▁ugly	-5944
ocking	-5945
▁Might	-5946
▁Shall	-5947
▁aside	-5948
▁campa	-5949
▁chose	-5950
▁drove	-5951
▁pilot	-5952
▁talks	-5953
▁agency	-5954
▁borrow	-5955
▁checks	-5956
▁horses	-5957
▁pieces	-5958
▁suffer	-5959
▁surely	-5960
▁switch	-5961
▁Believe	-5962
▁Kingdom	-5963
▁pleased	-5964
▁profile	-5965
▁singing	-5966
▁tablets	-5967
▁various	-5968
▁amending	-5969
▁exciting	-5970
▁policies	-5971
▁producer	-5972
▁pursuant	-5973
▁regional	-5974
▁framework	-5975
▁organisation	-5976
▁administrative	-5977
▁3,	-5978
▁48	-5979
avig	-5980
hest	-5981
phan	-5982
▁Bay	-5983
▁Bon	-5984
▁Cut	-5985
▁Jac	-5986
▁Tre	-5987
▁Veg	-5988
▁hel	-5989
▁nar	-5990
▁sli	-5991
attoo	-5992
holic	-5993
icked	-5994
▁Mond	-5995
▁diam	-5996
▁mere	-5997
angers	-5998
ciples	-5999
▁Carol	-6000
▁Child	-6001
▁chain	-6002
▁drown	-6003
▁fancy	-6004
▁outta	-6005
▁pills	-6006
▁steel	-6007
inating	-6008
uations	-6009
▁Common	-6010
▁Jordan	-6011
▁artist	-6012
▁assets	-6013
▁gather	-6014
▁harder	-6015
▁modern	-6016
▁Spanish	-6017
▁ashamed	-6018
▁plastic	-6019
▁unknown	-6020
▁darkness	-6021
▁external	-6022
▁movement	-6023
▁throwing	-6024
▁Otherwise	-6025
▁basically	-6026
▁confirmed	-6027
▁requested	-6028
▁apparently	-6029
▁employment	-6030
▁substances	-6031
▁accordingly	-6032
▁environmental	-6033
SA	-6034
vy	-6035
uma	-6036
▁35	-6037
▁Lt	-6038
▁WE	-6039
hens	-6040
than	-6041
▁Aid	-6042
▁Cap	-6043
▁Jer	-6044
▁Pay	-6045
▁Ren	-6046
▁Ter	-6047
▁Use	-6048
▁ded	-6049
▁etc	-6050
▁flo	-6051
▁tip	-6052
▁unf	-6053
hibit	-6054
unior	-6055
▁HAVE	-6056
▁Play	-6057
▁flag	-6058
▁gall	-6059
▁gear	-6060
▁scen	-6061
▁Brian	-6062
▁Holly	-6063
▁Jerry	-6064
▁Women	-6065
▁hired	-6066
▁labor	-6067
▁noise	-6068
▁rates	-6069
▁Either	-6070
▁Mexico	-6071
▁Portug	-6072
▁Report	-6073
▁castle	-6074
▁claims	-6075
▁fourth	-6076
▁plants	-6077
▁psycho	-6078
▁satell	-6079
▁secure	-6080
▁volume	-6081
▁Chapter	-6082
▁Thought	-6083
▁breathe	-6084
▁journal	-6085
▁overall	-6086
▁pattern	-6087
▁prepare	-6088
▁teaching	-6089
▁withdraw	-6090
▁determine	-6091
▁thousands	-6092
▁Washington	-6093
▁eventually	-6094
▁throughout	-6095
▁consumption	-6096
▁description	-6097
OP	-6098
IST	-6099
cks	-6100
uke	-6101
▁ID	-6102
▁Ke	-6103
▁SM	-6104
:00.	-6105
atab	-6106
bage	-6107
iley	-6108
illa	-6109
▁Gra	-6110
▁Ire	-6111
▁Set	-6112
▁kil	-6113
▁pin	-6114
▁upd	-6115
aming	-6116
andom	-6117
aters	-6118
▁Andy	-6119
▁Fire	-6120
▁Flor	-6121
▁Fund	-6122
▁Land	-6123
▁Pass	-6124
▁Pete	-6125
▁Sing	-6126
▁Swed	-6127
▁bind	-6128
▁edge	-6129
▁euro	-6130
▁gain	-6131
▁teen	-6132
▁Class	-6133
▁Happy	-6134
▁bones	-6135
▁demon	-6136
▁forth	-6137
▁renew	-6138
▁shots	-6139
▁solve	-6140
▁toxic	-6141
▁Enough	-6142
▁Forget	-6143
▁collea	-6144
▁drinks	-6145
▁intend	-6146
▁Francis	-6147
▁Majesty	-6148
▁Neither	-6149
▁economy	-6150
▁leading	-6151
▁options	-6152
▁passion	-6153
▁accompan	-6154
▁identify	-6155
▁learning	-6156
▁recovery	-6157
▁breathing	-6158
▁excellent	-6159
▁objective	-6160
▁reactions	-6161
▁principles	-6162
▁contribution	-6163
CB	-6164
ek	-6165
OUN	-6166
ros	-6167
umn	-6168
anny	-6169
asma	-6170
ifer	-6171
izes	-6172
▁Hit	-6173
▁Los	-6174
▁les	-6175
▁sed	-6176
▁ult	-6177
ading	-6178
▁Anna	-6179
▁Both	-6180
▁Dick	-6181
▁Gold	-6182
▁Shit	-6183
▁bite	-6184
▁caps	-6185
▁loan	-6186
▁tail	-6187
ounced	-6188
▁Roger	-6189
▁giant	-6190
▁image	-6191
▁mixed	-6192
▁plate	-6193
▁solid	-6194
▁telev	-6195
tenance	-6196
▁Follow	-6197
▁carbon	-6198
▁depend	-6199
▁genius	-6200
▁Further	-6201
▁Jackson	-6202
▁Sheriff	-6203
▁defense	-6204
▁involve	-6205
▁sheriff	-6206
▁benefits	-6207
▁campaign	-6208
▁includes	-6209
▁experiment	-6210
▁administered	-6211
▁motherfucker	-6212
(2	-6213
.’	-6214
22	-6215
5)	-6216
Ar	-6217
rs	-6218
add	-6219
aph	-6220
fle	-6221
jud	-6222
lly	-6223
tin	-6224
▁FR	-6225
abol	-6226
hern	-6227
life	-6228
mosp	-6229
omer	-6230
thur	-6231
ties	-6232
▁Gib	-6233
▁Mat	-6234
▁NOT	-6235
▁Tor	-6236
acher	-6237
estly	-6238
▁Data	-6239
▁Hill	-6240
▁Mama	-6241
▁YOUR	-6242
▁arch	-6243
▁dece	-6244
▁doin	-6245
▁exha	-6246
▁furn	-6247
▁thus	-6248
▁Honor	-6249
▁Mommy	-6250
▁cabin	-6251
▁depos	-6252
▁fever	-6253
▁innov	-6254
▁renal	-6255
▁risks	-6256
▁trees	-6257
▁veter	-6258
▁attend	-6259
▁chosen	-6260
▁placed	-6261
▁ruined	-6262
▁spring	-6263
▁subsid	-6264
ographic	-6265
standing	-6266
▁Whoever	-6267
▁cameras	-6268
▁chances	-6269
▁factory	-6270
▁funding	-6271
▁believes	-6272
▁grateful	-6273
▁incident	-6274
▁indicate	-6275
▁infection	-6276
▁sacrifice	-6277
▁electronic	-6278
▁equivalent	-6279
▁processing	-6280
▁consequences	-6281
//	-6282
IB	-6283
ja	-6284
ITH	-6285
▁$1	-6286
ales	-6287
geon	-6288
mans	-6289
oman	-6290
outs	-6291
zing	-6292
▁Ann	-6293
▁CIA	-6294
▁McC	-6295
▁Nik	-6296
▁Vir	-6297
▁gym	-6298
▁suf	-6299
▁tum	-6300
itors	-6301
ppers	-6302
▁2003	-6303
▁Bart	-6304
▁Emma	-6305
▁bags	-6306
▁east	-6307
▁gods	-6308
▁pair	-6309
▁uses	-6310
▁zero	-6311
erable	-6312
▁2006.	-6313
▁Smith	-6314
▁Techn	-6315
▁alien	-6316
▁analy	-6317
▁cloud	-6318
▁crash	-6319
▁guide	-6320
▁hyper	-6321
▁moves	-6322
▁pizza	-6323
▁score	-6324
▁shock	-6325
▁songs	-6326
▁stake	-6327
▁swing	-6328
▁witch	-6329
actions	-6330
▁Pretty	-6331
▁candid	-6332
▁decent	-6333
▁degree	-6334
▁invite	-6335
▁powder	-6336
▁prosec	-6337
▁random	-6338
▁square	-6339
▁superv	-6340
▁tattoo	-6341
▁toilet	-6342
▁burning	-6343
▁contest	-6344
▁leaders	-6345
▁located	-6346
▁sustain	-6347
▁vessels	-6348
ibilities	-6349
▁pregnancy	-6350
▁confidence	-6351
▁scientific	-6352
UM	-6353
ams	-6354
lla	-6355
ora	-6356
ugs	-6357
van	-6358
▁Id	-6359
▁ho	-6360
▁pa	-6361
kins	-6362
ront	-6363
▁APP	-6364
▁Cam	-6365
▁Doc	-6366
▁Eve	-6367
▁Ten	-6368
▁Ton	-6369
▁Wed	-6370
▁bat	-6371
▁nut	-6372
▁2010	-6373
▁Barb	-6374
▁Conn	-6375
▁Marg	-6376
▁Mind	-6377
▁Need	-6378
▁core	-6379
▁loud	-6380
▁mama	-6381
enture	-6382
itches	-6383
▁Emily	-6384
▁Enter	-6385
▁alert	-6386
▁coinc	-6387
▁confl	-6388
▁curse	-6389
▁sandw	-6390
▁scary	-6391
▁sport	-6392
▁voted	-6393
▁whore	-6394
▁Taylor	-6395
▁assure	-6396
▁backup	-6397
▁coward	-6398
▁garden	-6399
▁hearts	-6400
▁limits	-6401
▁reward	-6402
▁syring	-6403
inations	-6404
▁murders	-6405
▁refused	-6406
▁sources	-6407
▁version	-6408
▁distract	-6409
▁domestic	-6410
▁magazine	-6411
▁ordinary	-6412
▁quantity	-6413
▁recorded	-6414
▁spending	-6415
▁carefully	-6416
▁chocolate	-6417
▁expensive	-6418
▁performed	-6419
▁protected	-6420
▁officially	-6421
▁quantities	-6422
EM	-6423
IP	-6424
ji	-6425
ACK	-6426
ECT	-6427
bes	-6428
equ	-6429
rip	-6430
ttp	-6431
uan	-6432
▁AG	-6433
▁Na	-6434
ague	-6435
bour	-6436
cont	-6437
iano	-6438
pson	-6439
urry	-6440
▁Atl	-6441
▁Dem	-6442
▁Dun	-6443
▁Leo	-6444
▁Nah	-6445
▁Sit	-6446
▁jew	-6447
asant	-6448
ester	-6449
iforn	-6450
water	-6451
▁2008	-6452
▁Cass	-6453
▁Feel	-6454
▁Kyle	-6455
▁Name	-6456
▁Pull	-6457
▁Sean	-6458
▁Walk	-6459
▁pump	-6460
▁valu	-6461
atures	-6462
▁Party	-6463
▁beast	-6464
▁hated	-6465
▁reput	-6466
▁rooms	-6467
▁title	-6468
▁units	-6469
▁atmosp	-6470
▁causes	-6471
▁pounds	-6472
▁recept	-6473
▁stands	-6474
▁tissue	-6475
▁transp	-6476
▁amounts	-6477
▁conform	-6478
▁depends	-6479
▁display	-6480
▁staring	-6481
▁Japanese	-6482
▁deserves	-6483
▁exposure	-6484
▁facility	-6485
▁handsome	-6486
▁meetings	-6487
▁messages	-6488
▁occurred	-6489
▁whenever	-6490
▁clearance	-6491
▁temporary	-6492
▁identified	-6493
▁registered	-6494
▁yourselves	-6495
▁grandfather	-6496
▁independent	-6497
▁understanding	-6498
70	-6499
▁=	-6500
▁]	-6501
bey	-6502
die	-6503
irk	-6504
run	-6505
ura	-6506
zer	-6507
▁Ba	-6508
▁Mu	-6509
▁ye	-6510
ipal	-6511
ique	-6512
miss	-6513
uits	-6514
vell	-6515
▁Ash	-6516
▁Pap	-6517
▁fra	-6518
▁nic	-6519
▁spy	-6520
/2004	-6521
going	-6522
itate	-6523
lying	-6524
prise	-6525
▁Alan	-6526
▁Case	-6527
▁Shan	-6528
▁hits	-6529
▁salt	-6530
▁whis	-6531
▁Blood	-6532
▁Brown	-6533
▁Young	-6534
▁enhan	-6535
▁troub	-6536
aration	-6537
ifornia	-6538
▁Arthur	-6539
▁button	-6540
▁circle	-6541
▁effort	-6542
▁factor	-6543
▁guests	-6544
▁joined	-6545
▁pushed	-6546
▁studio	-6547
iversity	-6548
rastruct	-6549
▁Anybody	-6550
▁Whereas	-6551
▁context	-6552
▁custody	-6553
▁glasses	-6554
▁goodbye	-6555
▁replace	-6556
▁samples	-6557
including	-6558
▁familiar	-6559
▁properly	-6560
▁requires	-6561
▁stealing	-6562
▁stranger	-6563
▁suffered	-6564
▁contracts	-6565
▁emissions	-6566
▁marketing	-6567
▁satellite	-6568
▁Management	-6569
▁commission	-6570
▁friendship	-6571
▁importance	-6572
▁television	-6573
▁explanation	-6574
▁grandmother	-6575
▁International	-6576
▁organisations	-6577
▁representative	-6578
RA	-6579
ATE	-6580
eur	-6581
omy	-6582
▁(1	-6583
▁AB	-6584
▁OR	-6585
▁Yo	-6586
asks	-6587
avir	-6588
rael	-6589
semb	-6590
▁Ain	-6591
▁Cho	-6592
▁Deb	-6593
▁Fel	-6594
▁Yet	-6595
allow	-6596
esome	-6597
useum	-6598
▁Greg	-6599
▁Holy	-6600
▁Sand	-6601
▁Sara	-6602
▁ears	-6603
▁lake	-6604
▁lung	-6605
▁nurs	-6606
▁plat	-6607
▁pros	-6608
▁scan	-6609
▁spin	-6610
▁unus	-6611
▁Found	-6612
▁Light	-6613
▁adapt	-6614
▁alarm	-6615
▁anger	-6616
▁awake	-6617
▁blank	-6618
▁candy	-6619
▁datab	-6620
▁drawn	-6621
▁hates	-6622
▁prote	-6623
ignment	-6624
▁Econom	-6625
▁Jackie	-6626
▁assass	-6627
▁basket	-6628
▁batter	-6629
▁brains	-6630
▁perman	-6631
▁submit	-6632
▁unique	-6633
▁fortune	-6634
▁landing	-6635
▁licence	-6636
▁miracle	-6637
▁passing	-6638
▁achieved	-6639
▁becoming	-6640
▁checking	-6641
▁compared	-6642
▁customer	-6643
▁mistakes	-6644
▁notified	-6645
▁slightly	-6646
▁sometime	-6647
▁supplies	-6648
▁influence	-6649
▁developing	-6650
▁paragraphs	-6651
▁Commissioner	-6652
6)	-6653
PS	-6654
UN	-6655
sk	-6656
://	-6657
III	-6658
IVE	-6659
hia	-6660
huh	-6661
ipt	-6662
▁70	-6663
▁NO	-6664
ador	-6665
augh	-6666
aura	-6667
rett	-6668
ript	-6669
then	-6670
wear	-6671
▁Aud	-6672
▁Cos	-6673
▁Squ	-6674
▁ben	-6675
▁pee	-6676
abeth	-6677
ailed	-6678
ergic	-6679
osite	-6680
rific	-6681
▁2009	-6682
▁Forg	-6683
▁Mess	-6684
▁Said	-6685
▁deny	-6686
▁porn	-6687
▁sole	-6688
▁vial	-6689
▁virt	-6690
▁whoa	-6691
cience	-6692
▁Const	-6693
▁Kelly	-6694
▁Maria	-6695
▁River	-6696
▁juice	-6697
amental	-6698
▁Church	-6699
▁Monday	-6700
▁Morgan	-6701
▁Walter	-6702
▁depart	-6703
▁mostly	-6704
▁plasma	-6705
▁riding	-6706
▁served	-6707
▁stated	-6708
▁thrown	-6709
rilliant	-6710
▁Brother	-6711
▁adverse	-6712
▁exhaust	-6713
▁smoking	-6714
▁succeed	-6715
▁trapped	-6716
▁conflict	-6717
▁district	-6718
▁exercise	-6719
▁judgment	-6720
▁majority	-6721
▁payments	-6722
▁register	-6723
▁presented	-6724
▁increasing	-6725
▁remembered	-6726
LD	-6727
Oh	-6728
ba	-6729
bal	-6730
roc	-6731
▁IF	-6732
▁SO	-6733
▁Wr	-6734
That	-6735
anks	-6736
ares	-6737
ghan	-6738
iana	-6739
ivia	-6740
sell	-6741
wide	-6742
xide	-6743
▁Bas	-6744
▁Div	-6745
▁Kid	-6746
▁bid	-6747
rison	-6748
sters	-6749
▁Work	-6750
▁babe	-6751
▁coat	-6752
▁poll	-6753
▁trig	-6754
▁warn	-6755
ancial	-6756
atched	-6757
uesday	-6758
▁India	-6759
▁Vegas	-6760
▁armed	-6761
▁brown	-6762
▁doses	-6763
▁draft	-6764
▁entit	-6765
▁plays	-6766
▁scope	-6767
▁Claire	-6768
▁Gentle	-6769
▁Maggie	-6770
▁Marsha	-6771
▁appeal	-6772
▁desire	-6773
▁explos	-6774
▁ingred	-6775
▁manner	-6776
▁motion	-6777
▁serial	-6778
▁unlike	-6779
ferences	-6780
▁ancient	-6781
▁classes	-6782
▁counsel	-6783
▁courage	-6784
▁proport	-6785
▁sweetie	-6786
▁Honestly	-6787
▁adoption	-6788
▁aircraft	-6789
▁attached	-6790
▁audience	-6791
atulations	-6792
▁existence	-6793
▁signature	-6794
▁California	-6795
▁punishment	-6796
▁instruments	-6797
▁maintenance	-6798
▁notification	-6799
5/	-6800
’.	-6801
.1.	-6802
500	-6803
AND	-6804
ILL	-6805
UST	-6806
aps	-6807
bum	-6808
nam	-6809
▁IM	-6810
IONS	-6811
anch	-6812
berg	-6813
gust	-6814
osal	-6815
rink	-6816
road	-6817
▁Def	-6818
▁Guy	-6819
▁Hor	-6820
▁vul	-6821
▁wet	-6822
/2003	-6823
alley	-6824
while	-6825
▁Kids	-6826
▁Lisa	-6827
▁Wall	-6828
▁blew	-6829
▁corn	-6830
▁craw	-6831
▁diss	-6832
▁elig	-6833
▁frag	-6834
▁isol	-6835
▁lips	-6836
▁owns	-6837
▁plus	-6838
▁rude	-6839
▁rush	-6840
ursday	-6841
▁Terry	-6842
▁banks	-6843
▁blast	-6844
▁bride	-6845
▁facts	-6846
▁items	-6847
▁kinds	-6848
▁mayor	-6849
▁newsp	-6850
▁rapid	-6851
▁shape	-6852
▁sucks	-6853
ication	-6854
▁Office	-6855
▁Polish	-6856
▁Steven	-6857
▁colour	-6858
▁repeat	-6859
▁symbol	-6860
▁beating	-6861
▁council	-6862
▁hunting	-6863
▁robbery	-6864
▁windows	-6865
▁announce	-6866
▁argument	-6867
▁confused	-6868
▁creature	-6869
▁guessing	-6870
▁identity	-6871
▁buildings	-6872
▁expressed	-6873
▁intention	-6874
▁compliance	-6875
▁components	-6876
▁introduced	-6877
▁reputation	-6878
▁communicate	-6879
▁differences	-6880
▁infrastruct	-6881
▁institution	-6882
**	-6883
11	-6884
EAR	-6885
ado	-6886
imp	-6887
▁EX	-6888
▁TA	-6889
▁[2	-6890
enda	-6891
pers	-6892
▁Cop	-6893
▁Fer	-6894
▁Its	-6895
▁Mmm	-6896
▁Rad	-6897
▁Vol	-6898
▁WAS	-6899
▁Won	-6900
▁org	-6901
based	-6902
eline	-6903
eting	-6904
isted	-6905
ulate	-6906
▁Belg	-6907
▁Best	-6908
▁Hung	-6909
▁Norm	-6910
▁Read	-6911
▁Shar	-6912
▁Soon	-6913
▁acts	-6914
▁aunt	-6915
▁batt	-6916
▁cult	-6917
▁hunt	-6918
▁jerk	-6919
▁junk	-6920
▁rein	-6921
▁west	-6922
engers	-6923
▁Night	-6924
▁brand	-6925
▁cheer	-6926
▁flesh	-6927
▁kills	-6928
▁nasty	-6929
▁sheep	-6930
▁shift	-6931
▁simpl	-6932
▁skull	-6933
itution	-6934
looking	-6935
▁Almost	-6936
▁Israel	-6937
▁crimes	-6938
▁kissed	-6939
▁loving	-6940
▁needle	-6941
▁toward	-6942
▁Tuesday	-6943
▁disgust	-6944
▁lessons	-6945
▁category	-6946
▁midnight	-6947
▁survived	-6948
▁valuable	-6949
▁happiness	-6950
▁prisoners	-6951
▁Department	-6952
▁amendments	-6953
▁incredible	-6954
▁Information	-6955
SE	-6956
ANT	-6957
ala	-6958
gun	-6959
oma	-6960
osc	-6961
▁Ta	-6962
adem	-6963
iary	-6964
oked	-6965
reek	-6966
zard	-6967
▁150	-6968
▁Bad	-6969
▁Dor	-6970
▁Eli	-6971
▁McG	-6972
▁Tha	-6973
▁Tob	-6974
▁glo	-6975
▁sav	-6976
▁thy	-6977
lines	-6978
oured	-6979
point	-6980
▁Jean	-6981
▁Kind	-6982
▁Pier	-6983
▁Ross	-6984
▁Send	-6985
▁magn	-6986
▁puts	-6987
▁sets	-6988
▁thin	-6989
nesday	-6990
orters	-6991
▁Barry	-6992
▁Organ	-6993
▁fianc	-6994
▁funct	-6995
▁sites	-6996
▁toler	-6997
▁Couldn	-6998
▁Marcus	-6999
▁Though	-7000
▁advert	-7001
▁boring	-7002
▁closet	-7003
▁frozen	-7004
▁prohib	-7005
▁reduce	-7006
▁shield	-7007
▁twenty	-7008
▁Ireland	-7009
▁awesome	-7010
▁charged	-7011
▁culture	-7012
▁destiny	-7013
▁primary	-7014
▁reconst	-7015
▁torture	-7016
▁affected	-7017
▁covering	-7018
▁friendly	-7019
▁normally	-7020
▁prisoner	-7021
▁relation	-7022
▁studying	-7023
▁Authority	-7024
▁Gentlemen	-7025
▁brilliant	-7026
▁completed	-7027
▁concluded	-7028
▁disorders	-7029
▁immediate	-7030
▁telephone	-7031
▁adjustment	-7032
▁commitment	-7033
▁controlled	-7034
▁electricity	-7035
▁operational	-7036
DP	-7037
SP	-7038
But	-7039
ESS	-7040
oty	-7041
sis	-7042
▁38	-7043
▁LO	-7044
▁Sk	-7045
▁TR	-7046
▁ol	-7047
IGHT	-7048
abor	-7049
atus	-7050
emia	-7051
hatt	-7052
ogue	-7053
rich	-7054
utch	-7055
▁Fed	-7056
▁Gal	-7057
▁Jam	-7058
▁Ltd	-7059
▁Tal	-7060
▁Tel	-7061
▁Tri	-7062
▁bum	-7063
▁gre	-7064
▁rac	-7065
cover	-7066
enses	-7067
itute	-7068
oston	-7069
throp	-7070
▁Down	-7071
▁Half	-7072
▁Hand	-7073
▁Kore	-7074
▁PART	-7075
▁Prov	-7076
▁WITH	-7077
▁Year	-7078
▁haem	-7079
▁rice	-7080
▁sequ	-7081
▁sons	-7082
▁thee	-7083
▁tool	-7084
cholog	-7085
▁Board	-7086
▁Hanna	-7087
▁habit	-7088
▁ocean	-7089
▁recru	-7090
▁stops	-7091
▁thick	-7092
▁votes	-7093
▁Andrew	-7094
▁County	-7095
▁Greece	-7096
▁Nathan	-7097
▁Prince	-7098
▁Social	-7099
▁centre	-7100
▁combat	-7101
▁ending	-7102
▁exclus	-7103
▁linked	-7104
▁Develop	-7105
▁climate	-7106
▁closely	-7107
▁cooking	-7108
▁garbage	-7109
▁hurting	-7110
▁mystery	-7111
▁operate	-7112
▁precise	-7113
▁produce	-7114
▁smiling	-7115
▁Thursday	-7116
▁attitude	-7117
▁selected	-7118
▁continued	-7119
▁encourage	-7120
▁Convention	-7121
▁consistent	-7122
▁discussion	-7123
▁transferred	-7124
▁confidential	-7125
-3	-7126
YP	-7127
jo	-7128
ARD	-7129
hyd	-7130
ila	-7131
isk	-7132
ito	-7133
loe	-7134
str	-7135
ups	-7136
▁36	-7137
▁37	-7138
▁75	-7139
▁Ly	-7140
▁wa	-7141
"...	-7142
iami	-7143
omic	-7144
ownt	-7145
ques	-7146
unte	-7147
▁Ali	-7148
▁Alp	-7149
▁Bul	-7150
▁ECB	-7151
▁Han	-7152
▁Pho	-7153
▁lin	-7154
▁rib	-7155
▁rig	-7156
▁spo	-7157
▁tro	-7158
▁wha	-7159
▁wid	-7160
atoes	-7161
etime	-7162
itals	-7163
kward	-7164
osing	-7165
rical	-7166
uters	-7167
wered	-7168
▁Aunt	-7169
▁Beth	-7170
▁Blue	-7171
▁Free	-7172
▁Hank	-7173
▁Scot	-7174
▁asks	-7175
▁fasc	-7176
▁hill	-7177
▁leaf	-7178
▁seed	-7179
igning	-7180
inates	-7181
ulated	-7182
▁Death	-7183
▁Karen	-7184
▁absor	-7185
▁badly	-7186
▁falls	-7187
▁pride	-7188
▁trace	-7189
pective	-7190
▁Boston	-7191
▁clever	-7192
▁compre	-7193
▁fallen	-7194
▁messed	-7195
▁shadow	-7196
▁warned	-7197
▁article	-7198
▁benefic	-7199
▁closing	-7200
▁crossed	-7201
▁curious	-7202
▁digging	-7203
▁engaged	-7204
▁fashion	-7205
▁helpful	-7206
▁settled	-7207
▁smaller	-7208
▁studied	-7209
▁syringe	-7210
▁trusted	-7211
▁unusual	-7212
▁useless	-7213
▁accepted	-7214
▁entitled	-7215
▁passport	-7216
▁weakness	-7217
▁Financial	-7218
▁employees	-7219
▁household	-7220
▁miserable	-7221
▁proposals	-7222
▁witnesses	-7223
▁authorised	-7224
▁confession	-7225
▁alternative	-7226
▁coincidence	-7227
▁arrangements	-7228
▁infrastructure	-7229
OK	-7230
fa	-7231
zo	-7232
Don	-7233
How	-7234
kee	-7235
nia	-7236
▁Kr	-7237
▁je	-7238
This	-7239
agne	-7240
ighs	-7241
issa	-7242
long	-7243
ussy	-7244
▁Rus	-7245
▁fib	-7246
▁las	-7247
▁lob	-7248
▁via	-7249
▁wal	-7250
abled	-7251
belie	-7252
oster	-7253
▁Abby	-7254
▁Bell	-7255
▁Hang	-7256
▁Save	-7257
▁Vinc	-7258
▁evac	-7259
▁http	-7260
▁Gotta	-7261
▁Grant	-7262
▁Joint	-7263
▁await	-7264
▁knees	-7265
▁sharp	-7266
▁warri	-7267
acement	-7268
▁Afghan	-7269
▁Health	-7270
▁System	-7271
▁Wouldn	-7272
▁corpor	-7273
▁exists	-7274
▁ignore	-7275
▁impair	-7276
▁jacket	-7277
▁launch	-7278
▁silver	-7279
▁strict	-7280
▁vessel	-7281
▁Program	-7282
▁Tonight	-7283
▁applies	-7284
▁aspects	-7285
▁escaped	-7286
▁figures	-7287
▁players	-7288
▁pulling	-7289
▁although	-7290
▁baseball	-7291
▁database	-7292
▁handling	-7293
▁wherever	-7294
▁applicant	-7295
▁consumers	-7296
▁emotional	-7297
▁exceeding	-7298
▁gentleman	-7299
▁promotion	-7300
▁sensitive	-7301
▁agreements	-7302
▁threatened	-7303
▁transmission	-7304
sa	-7305
ERS	-7306
box	-7307
fit	-7308
hab	-7309
try	-7310
▁Ky	-7311
free	-7312
ifts	-7313
iper	-7314
mary	-7315
part	-7316
stal	-7317
yard	-7318
▁194	-7319
▁196	-7320
▁Bus	-7321
▁Pot	-7322
▁tub	-7323
icity	-7324
raine	-7325
▁Cole	-7326
▁Form	-7327
▁Plan	-7328
▁Road	-7329
▁Wasn	-7330
▁clue	-7331
▁libr	-7332
▁soup	-7333
▁tent	-7334
ensity	-7335
itched	-7336
ulance	-7337
▁2007.	-7338
▁Again	-7339
▁Irish	-7340
▁Larry	-7341
▁blond	-7342
▁coast	-7343
▁diagn	-7344
▁drain	-7345
▁minds	-7346
▁navig	-7347
▁novel	-7348
▁phase	-7349
▁resid	-7350
▁sneak	-7351
▁sweat	-7352
▁tooth	-7353
▁Canada	-7354
▁arrive	-7355
▁dumped	-7356
▁laying	-7357
▁owners	-7358
▁accused	-7359
▁awkward	-7360
▁connect	-7361
▁enforce	-7362
▁experts	-7363
▁genetic	-7364
▁kingdom	-7365
▁metabol	-7366
▁prescri	-7367
▁privacy	-7368
▁silence	-7369
ructuring	-7370
sequently	-7371
▁counting	-7372
▁discover	-7373
▁honestly	-7374
▁Obviously	-7375
▁Seriously	-7376
▁desperate	-7377
▁estimated	-7378
▁exception	-7379
▁explained	-7380
▁fantastic	-7381
▁financing	-7382
▁literally	-7383
▁positions	-7384
▁atmosphere	-7385
▁efficiency	-7386
▁generation	-7387
▁instrument	-7388
▁photograph	-7389
▁suspicious	-7390
▁unfortunately	-7391
▁characteristics	-7392
-4	-7393
DUC	-7394
bar	-7395
edy	-7396
ipl	-7397
non	-7398
pes	-7399
rot	-7400
yes	-7401
zed	-7402
▁32	-7403
▁33	-7404
▁Kn	-7405
▁SP	-7406
bits	-7407
cing	-7408
comm	-7409
good	-7410
hate	-7411
iger	-7412
isms	-7413
riel	-7414
▁Inc	-7415
▁Jay	-7416
▁Kar	-7417
▁OUT	-7418
▁Rod	-7419
▁Yep	-7420
▁oxy	-7421
eable	-7422
imony	-7423
ontin	-7424
utive	-7425
▁Army	-7426
▁Book	-7427
▁COMM	-7428
▁Care	-7429
▁Sher	-7430
▁diet	-7431
▁golf	-7432
▁hire	-7433
▁liar	-7434
▁oral	-7435
▁thor	-7436
▁Being	-7437
▁Jesse	-7438
▁Miami	-7439
▁Robin	-7440
▁Seven	-7441
▁Total	-7442
▁defic	-7443
▁deleg	-7444
▁delic	-7445
▁gorge	-7446
▁jokes	-7447
▁pages	-7448
▁patch	-7449
▁scale	-7450
▁surre	-7451
▁tears	-7452
izabeth	-7453
related	-7454
▁Harvey	-7455
▁Indian	-7456
▁School	-7457
▁belief	-7458
▁medium	-7459
▁offers	-7460
▁smells	-7461
▁sports	-7462
▁thrill	-7463
entially	-7464
▁diamond	-7465
▁factors	-7466
▁footage	-7467
▁hitting	-7468
▁regions	-7469
▁routine	-7470
▁selfish	-7471
▁session	-7472
abilities	-7473
▁Protocol	-7474
▁cleaning	-7475
▁multiple	-7476
▁offering	-7477
▁princess	-7478
▁rejected	-7479
▁substant	-7480
▁treasure	-7481
▁Wednesday	-7482
▁frequency	-7483
▁kidnapped	-7484
▁resulting	-7485
▁inspection	-7486
▁vegetables	-7487
▁accompanied	-7488
.5	-7489
17	-7490
:30	-7491
acc	-7492
ami	-7493
ati	-7494
lam	-7495
nis	-7496
ogl	-7497
rek	-7498
via	-7499
▁LI	-7500
eman	-7501
iece	-7502
itro	-7503
know	-7504
mony	-7505
rive	-7506
rows	-7507
uffs	-7508
utor	-7509
▁EEA	-7510
▁Gus	-7511
▁Log	-7512
▁lip	-7513
▁mig	-7514
▁ven	-7515
▁wra	-7516
chlor	-7517
earch	-7518
elled	-7519
ested	-7520
oting	-7521
▁Camp	-7522
▁Lily	-7523
▁Main	-7524
▁bury	-7525
▁chip	-7526
▁epis	-7527
▁rats	-7528
ailing	-7529
▁Betty	-7530
▁Chloe	-7531
▁Laura	-7532
▁Lucas	-7533
▁Point	-7534
▁Seems	-7535
▁Water	-7536
▁bread	-7537
▁codes	-7538
▁legit	-7539
▁loser	-7540
▁punch	-7541
▁stays	-7542
▁trash	-7543
▁Surely	-7544
▁collap	-7545
▁desert	-7546
▁estate	-7547
▁extent	-7548
▁jumped	-7549
▁labour	-7550
▁myster	-7551
▁phones	-7552
▁shared	-7553
▁sodium	-7554
▁stable	-7555
▁visual	-7556
ployment	-7557
▁Alright	-7558
▁Product	-7559
▁Senator	-7560
▁Vincent	-7561
▁comment	-7562
▁dumping	-7563
▁efforts	-7564
▁federal	-7565
▁knocked	-7566
▁massive	-7567
▁vaccine	-7568
▁Economic	-7569
▁informed	-7570
▁operator	-7571
▁precious	-7572
▁quarters	-7573
▁relative	-7574
▁ambulance	-7575
▁entertain	-7576
▁tradition	-7577
▁impression	-7578
▁manufacturer	-7579
▁consideration	-7580
▁identification	-7581
EX	-7582
po	-7583
wr	-7584
EST	-7585
pse	-7586
▁AR	-7587
▁CD	-7588
▁IP	-7589
aded	-7590
essa	-7591
gers	-7592
itar	-7593
ords	-7594
tery	-7595
▁Com	-7596
▁Dra	-7597
▁Ira	-7598
▁avo	-7599
▁lod	-7600
▁rit	-7601
▁sul	-7602
▁una	-7603
▁unp	-7604
actly	-7605
agers	-7606
agger	-7607
pling	-7608
verty	-7609
▁Dear	-7610
▁Food	-7611
▁Iran	-7612
▁Lucy	-7613
▁Made	-7614
▁Prom	-7615
▁Sign	-7616
▁buck	-7617
▁cave	-7618
▁defe	-7619
▁dirt	-7620
▁dish	-7621
▁exit	-7622
▁phil	-7623
▁reli	-7624
▁seal	-7625
▁soil	-7626
▁symp	-7627
▁ware	-7628
ducing	-7629
iments	-7630
omeday	-7631
▁Annie	-7632
▁Bible	-7633
▁Jones	-7634
▁Judge	-7635
▁Laure	-7636
▁Susan	-7637
▁actor	-7638
▁album	-7639
▁cargo	-7640
▁eaten	-7641
▁elder	-7642
▁shake	-7643
▁tools	-7644
▁youth	-7645
entions	-7646
▁Taking	-7647
▁allows	-7648
▁merely	-7649
▁mobile	-7650
▁nothin	-7651
▁prejud	-7652
▁prints	-7653
▁remote	-7654
▁wounds	-7655
▁British	-7656
▁Forgive	-7657
▁Looking	-7658
▁Patrick	-7659
▁besides	-7660
▁degrees	-7661
▁lawyers	-7662
▁possess	-7663
▁poverty	-7664
▁violent	-7665
▁winning	-7666
▁declared	-7667
▁eligible	-7668
▁incorpor	-7669
▁inserted	-7670
▁lifetime	-7671
▁shoulder	-7672
▁abandoned	-7673
▁conscious	-7674
▁creatures	-7675
▁depressed	-7676
▁efficient	-7677
▁incorrect	-7678
▁languages	-7679
▁classified	-7680
▁definition	-7681
▁Furthermore	-7682
▁obligations	-7683
▁significantly	-7684
14	-7685
bi	-7686
ua	-7687
ONE	-7688
isy	-7689
▁CN	-7690
▁Cz	-7691
▁Di	-7692
▁SA	-7693
Comm	-7694
ains	-7695
iour	-7696
nels	-7697
olve	-7698
ores	-7699
quar	-7700
▁CAN	-7701
▁Tex	-7702
▁ans	-7703
▁bom	-7704
▁bub	-7705
▁gal	-7706
▁hug	-7707
▁mac	-7708
ardon	-7709
ethyl	-7710
icing	-7711
itect	-7712
opher	-7713
ordon	-7714
osity	-7715
▁Brad	-7716
▁Code	-7717
▁Dark	-7718
▁Lois	-7719
▁Wend	-7720
▁bang	-7721
▁bars	-7722
▁eter	-7723
▁fert	-7724
▁fest	-7725
▁merc	-7726
▁pink	-7727
▁rape	-7728
▁sexy	-7729
▁stub	-7730
▁tank	-7731
▁wolf	-7732
ancing	-7733
ipping	-7734
isible	-7735
▁2004.	-7736
▁2008.	-7737
▁Elect	-7738
▁Going	-7739
▁Tyler	-7740
▁boots	-7741
▁bored	-7742
▁chlor	-7743
▁conce	-7744
▁cruel	-7745
▁dates	-7746
▁owned	-7747
▁recip	-7748
▁teams	-7749
▁toast	-7750
rations	-7751
▁Howard	-7752
▁Parker	-7753
▁beings	-7754
▁histor	-7755
▁houses	-7756
▁kidney	-7757
▁prayer	-7758
▁senior	-7759
▁stairs	-7760
aughters	-7761
▁absence	-7762
▁channel	-7763
▁compens	-7764
▁concert	-7765
▁cutting	-7766
▁enjoyed	-7767
▁largest	-7768
▁pension	-7769
▁realise	-7770
▁trained	-7771
▁advanced	-7772
▁cheating	-7773
▁controls	-7774
▁election	-7775
▁instance	-7776
▁software	-7777
▁tracking	-7778
▁visiting	-7779
▁amendment	-7780
▁contained	-7781
▁generally	-7782
▁psycholog	-7783
▁receiving	-7784
▁industrial	-7785
▁resolution	-7786
▁university	-7787
▁considering	-7788
▁regulations	-7789
▁implementing	-7790
38	-7791
49	-7792
Ch	-7793
So	-7794
uz	-7795
iti	-7796
lie	-7797
▁AM	-7798
▁DE	-7799
▁UK	-7800
▁VI	-7801
▁du	-7802
▁vi	-7803
ader	-7804
alls	-7805
itan	-7806
nity	-7807
ocal	-7808
oted	-7809
rete	-7810
teen	-7811
umps	-7812
unny	-7813
your	-7814
▁Cur	-7815
▁Est	-7816
▁Les	-7817
▁Pop	-7818
▁Ret	-7819
▁cru	-7820
▁lad	-7821
▁lit	-7822
▁lun	-7823
▁nom	-7824
▁rip	-7825
,000.	-7826
after	-7827
amine	-7828
becca	-7829
clock	-7830
▁Jere	-7831
▁Pack	-7832
▁Pick	-7833
▁Prop	-7834
▁beef	-7835
▁cuts	-7836
▁diab	-7837
▁fart	-7838
▁hack	-7839
▁poet	-7840
▁Eight	-7841
▁Molly	-7842
▁Whose	-7843
▁angle	-7844
▁argue	-7845
▁guilt	-7846
▁rocks	-7847
▁squad	-7848
▁vital	-7849
▁Miller	-7850
▁beaten	-7851
▁conven	-7852
▁covers	-7853
▁insult	-7854
▁oxygen	-7855
▁patrol	-7856
▁permit	-7857
▁refuse	-7858
▁temple	-7859
function	-7860
▁Exactly	-7861
▁citizen	-7862
▁confess	-7863
▁devices	-7864
▁element	-7865
▁feeding	-7866
▁highest	-7867
▁library	-7868
▁rolling	-7869
▁schools	-7870
▁extraord	-7871
▁fingerpr	-7872
▁gorgeous	-7873
▁Americans	-7874
▁Implement	-7875
▁daughters	-7876
▁execution	-7877
▁furniture	-7878
▁permanent	-7879
▁screaming	-7880
▁Previously	-7881
▁impairment	-7882
▁situations	-7883
▁proceedings	-7884
▁specifically	-7885
▁concentration	-7886
▁opportunities	-7887
▁restructuring	-7888
eu	-7889
asm	-7890
lar	-7891
onn	-7892
▁95	-7893
▁ec	-7894
acon	-7895
asha	-7896
hour	-7897
ieur	-7898
irts	-7899
kind	-7900
ocks	-7901
omit	-7902
otte	-7903
rary	-7904
rome	-7905
this	-7906
▁MAN	-7907
▁Mir	-7908
▁Naz	-7909
▁Pak	-7910
▁anx	-7911
▁vic	-7912
artan	-7913
cknow	-7914
eters	-7915
icate	-7916
inger	-7917
▁Cust	-7918
▁Gary	-7919
▁Kent	-7920
▁Pope	-7921
▁Rich	-7922
▁Stud	-7923
▁Test	-7924
▁Whit	-7925
▁cher	-7926
▁cruc	-7927
▁drum	-7928
▁earn	-7929
▁flex	-7930
▁maid	-7931
▁phen	-7932
▁slip	-7933
▁ster	-7934
▁wave	-7935
pector	-7936
umping	-7937
urally	-7938
▁Hands	-7939
▁Human	-7940
▁Randy	-7941
▁adequ	-7942
▁boxes	-7943
▁flash	-7944
▁laund	-7945
▁nerve	-7946
istical	-7947
▁Wilson	-7948
▁assemb	-7949
▁creepy	-7950
▁divers	-7951
▁excess	-7952
▁models	-7953
▁stream	-7954
▁urgent	-7955
▁virgin	-7956
▁vulner	-7957
▁winter	-7958
▁wishes	-7959
▁Angeles	-7960
▁Leonard	-7961
▁Members	-7962
▁despite	-7963
▁drawing	-7964
▁moments	-7965
▁privile	-7966
▁receipt	-7967
▁travell	-7968
▁vampire	-7969
▁wanting	-7970
▁wasting	-7971
▁Patients	-7972
▁answered	-7973
▁appeared	-7974
▁basement	-7975
▁describe	-7976
▁hundreds	-7977
▁stopping	-7978
▁swimming	-7979
▁Elizabeth	-7980
▁Hollywood	-7981
▁Secretary	-7982
▁addressed	-7983
▁answering	-7984
▁continues	-7985
▁neighbour	-7986
▁operators	-7987
▁passenger	-7988
▁personnel	-7989
▁terrorist	-7990
▁Government	-7991
▁University	-7992
▁expression	-7993
▁guidelines	-7994
▁medication	-7995
▁percentage	-7996
▁reasonable	-7997
▁declaration	-7998
▁examination	-7999
-0	-8000
13	-8001
ii	-8002
tr	-8003
uv	-8004
ALL	-8005
esc	-8006
oof	-8007
uns	-8008
▁%.	-8009
▁00	-8010
▁Bi	-8011
▁NE	-8012
▁Po	-8013
cles	-8014
dies	-8015
gues	-8016
made	-8017
▁ALL	-8018
▁End	-8019
▁Ext	-8020
▁Gen	-8021
▁Ori	-8022
▁SHE	-8023
▁Tar	-8024
▁dos	-8025
▁gig	-8026
▁nep	-8027
▁pie	-8028
▁sch	-8029
▁wre	-8030
anche	-8031
tical	-8032
▁Prin	-8033
▁Rest	-8034
▁mand	-8035
▁mart	-8036
▁math	-8037
▁purs	-8038
▁rope	-8039
▁stim	-8040
▁trop	-8041
▁vent	-8042
idance	-8043
itored	-8044
▁Gonna	-8045
▁Hurry	-8046
▁Jacob	-8047
▁Julia	-8048
▁Shawn	-8049
▁Table	-8050
▁Wayne	-8051
▁chips	-8052
▁cycle	-8053
▁hoped	-8054
▁mommy	-8055
▁pound	-8056
▁prost	-8057
▁roomm	-8058
▁shell	-8059
▁tries	-8060
▁trunk	-8061
▁Access	-8062
▁Bridge	-8063
▁Carlos	-8064
▁Indust	-8065
▁Lisbon	-8066
▁Olivia	-8067
▁Person	-8068
▁Virgin	-8069
▁calend	-8070
▁conver	-8071
▁facing	-8072
▁fields	-8073
▁formal	-8074
▁marked	-8075
▁motive	-8076
▁prince	-8077
▁struck	-8078
▁tested	-8079
▁trauma	-8080
▁waters	-8081
▁Instead	-8082
▁Rebecca	-8083
▁Service	-8084
▁Whether	-8085
▁affairs	-8086
▁claimed	-8087
▁cleared	-8088
▁concept	-8089
▁conspir	-8090
▁demands	-8091
▁emotion	-8092
▁painful	-8093
▁testify	-8094
▁trigger	-8095
▁volunte	-8096
▁Children	-8097
▁allergic	-8098
▁constant	-8099
▁creation	-8100
▁critical	-8101
▁disposal	-8102
▁humanity	-8103
▁misunder	-8104
▁networks	-8105
▁politics	-8106
▁champagne	-8107
▁discontin	-8108
▁mechanism	-8109
▁monitored	-8110
▁recovered	-8111
▁religious	-8112
▁calculated	-8113
▁Afghanistan	-8114
▁provisional	-8115
▁intervention	-8116
-5	-8117
My	-8118
PL	-8119
TA	-8120
ez	-8121
▁x	-8122
Gen	-8123
imb	-8124
iva	-8125
mat	-8126
oli	-8127
olt	-8128
say	-8129
who	-8130
zie	-8131
▁KN	-8132
▁PL	-8133
▁Uk	-8134
▁ly	-8135
ario	-8136
bons	-8137
fere	-8138
norm	-8139
oren	-8140
pret	-8141
sect	-8142
▁10.	-8143
▁Fat	-8144
▁HER	-8145
▁Lux	-8146
▁Ven	-8147
▁doc	-8148
▁emp	-8149
▁gro	-8150
▁mel	-8151
▁ped	-8152
▁sor	-8153
/2007	-8154
encer	-8155
ength	-8156
inals	-8157
onder	-8158
ridge	-8159
▁Been	-8160
▁Club	-8161
▁Conf	-8162
▁Gall	-8163
▁Post	-8164
▁Rain	-8165
▁Requ	-8166
▁Thus	-8167
▁holy	-8168
▁mile	-8169
▁mixt	-8170
▁rehe	-8171
▁salv	-8172
imeter	-8173
▁Camer	-8174
▁Coach	-8175
▁Greek	-8176
▁Title	-8177
▁antib	-8178
▁badge	-8179
▁dated	-8180
▁derog	-8181
▁downt	-8182
▁facil	-8183
▁grace	-8184
▁grass	-8185
▁gross	-8186
▁label	-8187
▁noble	-8188
▁serum	-8189
▁stink	-8190
▁suits	-8191
assador	-8192
onsieur	-8193
▁Amanda	-8194
▁Bulgar	-8195
▁Center	-8196
▁Joseph	-8197
▁Sister	-8198
▁begins	-8199
▁escort	-8200
▁guards	-8201
▁guitar	-8202
▁legend	-8203
▁museum	-8204
▁speaks	-8205
▁Getting	-8206
▁Jessica	-8207
▁arrival	-8208
▁costume	-8209
▁damaged	-8210
▁grabbed	-8211
▁install	-8212
▁swallow	-8213
▁Catholic	-8214
▁Speaking	-8215
▁annivers	-8216
▁arranged	-8217
▁division	-8218
▁findings	-8219
▁freaking	-8220
▁internet	-8221
▁meantime	-8222
▁millions	-8223
▁opposite	-8224
▁purchase	-8225
ifications	-8226
▁Catherine	-8227
▁adventure	-8228
▁cooperate	-8229
▁newspaper	-8230
▁satisfied	-8231
▁attractive	-8232
▁conclusion	-8233
▁conformity	-8234
▁impressive	-8235
▁incredibly	-8236
▁statistics	-8237
▁Communities	-8238
▁implemented	-8239
▁ingredients	-8240
▁intelligence	-8241
▁introduction	-8242
▁verification	-8243
%.	-8244
(1	-8245
21	-8246
Do	-8247
IE	-8248
If	-8249
aze	-8250
eck	-8251
ima	-8252
ori	-8253
▁39	-8254
▁5,	-8255
▁Ho	-8256
▁Ru	-8257
▁Wy	-8258
alty	-8259
eous	-8260
hire	-8261
icon	-8262
ishe	-8263
okin	-8264
onia	-8265
oper	-8266
roke	-8267
umin	-8268
▁ARE	-8269
▁Bal	-8270
▁Emp	-8271
▁Lex	-8272
▁REG	-8273
▁[1]	-8274
▁dea	-8275
▁dil	-8276
▁hip	-8277
▁jam	-8278
▁lap	-8279
▁pho	-8280
▁pir	-8281
hydro	-8282
inson	-8283
oscow	-8284
plant	-8285
stone	-8286
ureau	-8287
▁Bern	-8288
▁FROM	-8289
▁Face	-8290
▁Girl	-8291
▁Jews	-8292
▁Supp	-8293
▁buff	-8294
▁mild	-8295
▁mode	-8296
▁prob	-8297
▁wins	-8298
▁worm	-8299
illing	-8300
prises	-8301
uction	-8302
▁2011.	-8303
▁Ethan	-8304
▁Jenny	-8305
▁Julie	-8306
▁Makes	-8307
▁Place	-8308
▁Ricky	-8309
▁Turns	-8310
▁appar	-8311
▁apple	-8312
▁fires	-8313
▁fraud	-8314
▁mercy	-8315
▁mustn	-8316
▁param	-8317
▁piano	-8318
▁prize	-8319
▁seats	-8320
▁sides	-8321
▁souls	-8322
▁tasks	-8323
▁thief	-8324
▁tribe	-8325
ography	-8326
▁Indeed	-8327
▁Trying	-8328
▁angels	-8329
▁destro	-8330
▁expand	-8331
▁fabric	-8332
▁height	-8333
▁loaded	-8334
▁mirror	-8335
▁nephew	-8336
▁relief	-8337
▁reveal	-8338
▁shares	-8339
▁thirst	-8340
▁Florida	-8341
▁Johnson	-8342
▁choices	-8343
▁delight	-8344
▁disturb	-8345
▁engines	-8346
▁joining	-8347
▁leaflet	-8348
▁propose	-8349
▁returns	-8350
▁sisters	-8351
▁typical	-8352
▁Margaret	-8353
▁confront	-8354
▁entrance	-8355
▁homework	-8356
▁religion	-8357
▁repeated	-8358
▁sandwich	-8359
▁thorough	-8360
▁wondered	-8361
▁Charlotte	-8362
▁computers	-8363
▁impressed	-8364
▁invisible	-8365
▁processes	-8366
▁solutions	-8367
▁comprehens	-8368
▁disgusting	-8369
▁passengers	-8370
▁profession	-8371
▁suspension	-8372
▁anniversary	-8373
▁fundamental	-8374
▁practically	-8375
▁certificates	-8376
▁negotiations	-8377
▁establishment	-8378
▁relationships	-8379
Is	-8380
IAL	-8381
OUT	-8382
agg	-8383
arn	-8384
asp	-8385
bag	-8386
ggy	-8387
osa	-8388
wan	-8389
▁BY	-8390
▁ES	-8391
▁LA	-8392
▁MR	-8393
▁Sn	-8394
▁ax	-8395
idal	-8396
neys	-8397
oard	-8398
opsy	-8399
uman	-8400
wife	-8401
▁400	-8402
▁Ice	-8403
▁Imp	-8404
▁Lat	-8405
▁Sea	-8406
▁ali	-8407
▁fee	-8408
▁foc	-8409
▁gut	-8410
▁por	-8411
acked	-8412
bourg	-8413
ennis	-8414
feron	-8415
liver	-8416
mates	-8417
oglob	-8418
peror	-8419
riger	-8420
▁Dist	-8421
▁JUST	-8422
▁Lake	-8423
▁Lock	-8424
▁Meet	-8425
▁horm	-8426
▁mall	-8427
▁mask	-8428
▁mini	-8429
▁sect	-8430
▁sink	-8431
▁unha	-8432
▁user	-8433
active	-8434
ateral	-8435
giving	-8436
oultry	-8437
rating	-8438
retion	-8439
▁Given	-8440
▁Medic	-8441
▁Texas	-8442
▁Third	-8443
▁audit	-8444
▁crown	-8445
▁explo	-8446
▁fifth	-8447
▁fract	-8448
▁lover	-8449
▁panic	-8450
▁strip	-8451
▁users	-8452
▁yield	-8453
ologies	-8454
▁Adrian	-8455
▁Moscow	-8456
▁agenda	-8457
▁blocks	-8458
▁breaks	-8459
▁damned	-8460
▁dealer	-8461
▁deaths	-8462
▁muscle	-8463
▁narrow	-8464
▁nearby	-8465
▁recall	-8466
▁tablet	-8467
▁timing	-8468
▁worlds	-8469
atically	-8470
isheries	-8471
▁Britain	-8472
▁bullets	-8473
▁charity	-8474
▁grandma	-8475
▁kilomet	-8476
▁leather	-8477
▁loyalty	-8478
▁shooter	-8479
▁targets	-8480
▁Marshall	-8481
▁articles	-8482
▁captured	-8483
▁dropping	-8484
▁emotions	-8485
▁stubborn	-8486
▁suitable	-8487
▁behaviour	-8488
▁collected	-8489
▁favourite	-8490
▁paperwork	-8491
▁recording	-8492
▁initiative	-8493
▁surrounded	-8494
▁vulnerable	-8495
▁destination	-8496
▁embarrassed	-8497
▁experienced	-8498
▁perspective	-8499
▁disappointed	-8500
▁organization	-8501
▁corresponding	-8502
▁extraordinary	-8503
43	-8504
bu	-8505
da	-8506
ga	-8507
azz	-8508
bet	-8509
eer	-8510
eez	-8511
gic	-8512
ipp	-8513
low	-8514
oto	-8515
rix	-8516
▁MA	-8517
ante	-8518
elve	-8519
oner	-8520
rase	-8521
sure	-8522
▁12.	-8523
▁Abs	-8524
▁Agr	-8525
▁Ari	-8526
▁Bye	-8527
▁Mid	-8528
▁Rub	-8529
▁tag	-8530
▁unw	-8531
celer	-8532
eller	-8533
inery	-8534
itzer	-8535
olves	-8536
▁2002	-8537
▁Arab	-8538
▁Hist	-8539
▁KNOW	-8540
▁LIKE	-8541
▁Priv	-8542
▁Room	-8543
▁Team	-8544
▁belt	-8545
▁dawn	-8546
▁flav	-8547
▁matt	-8548
▁pity	-8549
▁tack	-8550
itable	-8551
orious	-8552
urning	-8553
▁Cross	-8554
▁Quick	-8555
▁Times	-8556
▁congr	-8557
▁fluid	-8558
▁frank	-8559
▁outer	-8560
▁trend	-8561
▁wings	-8562
onsense	-8563
▁Angela	-8564
▁Friend	-8565
▁Import	-8566
▁Juliet	-8567
▁PRODUC	-8568
▁Travis	-8569
▁aboard	-8570
▁busted	-8571
▁critic	-8572
▁indent	-8573
▁makeup	-8574
▁rating	-8575
▁repair	-8576
▁retire	-8577
▁slowly	-8578
▁spaces	-8579
▁talkin	-8580
▁tennis	-8581
▁tracks	-8582
▁volunt	-8583
▁winner	-8584
▁writer	-8585
aneously	-8586
▁Company	-8587
▁Shouldn	-8588
▁aggress	-8589
▁assumed	-8590
▁compass	-8591
▁deposit	-8592
▁farmers	-8593
▁kissing	-8594
▁reminds	-8595
▁victory	-8596
▁Moreover	-8597
▁Victoria	-8598
▁agencies	-8599
▁creating	-8600
▁elevator	-8601
▁mistaken	-8602
▁refriger	-8603
▁revealed	-8604
▁survival	-8605
▁appointed	-8606
▁architect	-8607
▁discussed	-8608
▁mountains	-8609
▁prejudice	-8610
▁qualified	-8611
▁radiation	-8612
▁selection	-8613
▁spiritual	-8614
▁suggested	-8615
▁warehouse	-8616
▁afterwards	-8617
▁convention	-8618
▁frightened	-8619
▁lieutenant	-8620
▁properties	-8621
▁represents	-8622
▁Development	-8623
▁enforcement	-8624
▁investigate	-8625
▁supervision	-8626
▁underground	-8627
▁distribution	-8628
▁presentation	-8629
▁representatives	-8630
rd	-8631
vi	-8632
2).	-8633
END	-8634
ETH	-8635
For	-8636
ROP	-8637
ali	-8638
amm	-8639
bow	-8640
iry	-8641
kel	-8642
orp	-8643
▁4,	-8644
▁7.	-8645
▁CT	-8646
▁EM	-8647
▁Pa	-8648
▁Ra	-8649
OULD	-8650
away	-8651
ayer	-8652
care	-8653
iffe	-8654
iner	-8655
lude	-8656
mare	-8657
ummy	-8658
▁(2)	-8659
▁Aff	-8660
▁Mod	-8661
▁NCB	-8662
▁Tem	-8663
▁Vic	-8664
▁ham	-8665
▁mol	-8666
▁pip	-8667
There	-8668
andal	-8669
apine	-8670
arded	-8671
arter	-8672
cules	-8673
otton	-8674
urate	-8675
▁(200	-8676
▁2012	-8677
▁Cond	-8678
▁Doug	-8679
▁Godd	-8680
▁Iraq	-8681
▁Mars	-8682
▁Papa	-8683
▁Poor	-8684
▁Soph	-8685
▁Stat	-8686
▁beam	-8687
▁choo	-8688
▁fits	-8689
▁hood	-8690
▁pant	-8691
▁remo	-8692
▁yard	-8693
encing	-8694
pected	-8695
▁Alpha	-8696
▁Anton	-8697
▁Congr	-8698
▁Czech	-8699
▁Derek	-8700
▁Guard	-8701
▁Helen	-8702
▁backs	-8703
▁begun	-8704
▁bills	-8705
▁blown	-8706
▁chase	-8707
▁clown	-8708
▁hopes	-8709
▁inher	-8710
▁lungs	-8711
▁poker	-8712
▁ratio	-8713
▁robot	-8714
▁scrap	-8715
▁spark	-8716
▁spray	-8717
▁twins	-8718
▁union	-8719
▁walks	-8720
▁Action	-8721
▁Edward	-8722
▁Jeremy	-8723
▁Valent	-8724
▁deeper	-8725
▁safely	-8726
▁tunnel	-8727
culation	-8728
▁African	-8729
▁Fucking	-8730
▁Germans	-8731
▁Grandma	-8732
▁Spencer	-8733
▁binding	-8734
▁chapter	-8735
▁grounds	-8736
▁hostage	-8737
▁someday	-8738
▁applying	-8739
▁calendar	-8740
▁ceremony	-8741
▁enjoying	-8742
▁extended	-8743
▁features	-8744
▁generous	-8745
▁goodness	-8746
▁instinct	-8747
▁licences	-8748
▁platform	-8749
▁subjects	-8750
▁officials	-8751
▁remaining	-8752
▁searching	-8753
▁someplace	-8754
▁stability	-8755
▁supported	-8756
▁testimony	-8757
▁contribute	-8758
▁laboratory	-8759
▁mysterious	-8760
▁proportion	-8761
▁arrangement	-8762
▁preparation	-8763
▁contributions	-8764
29	-8765
35	-8766
45	-8767
95	-8768
CR	-8769
ds	-8770
hot	-8771
isd	-8772
pol	-8773
raz	-8774
vak	-8775
▁ls	-8776
athy	-8777
case	-8778
etes	-8779
gypt	-8780
hent	-8781
hony	-8782
imer	-8783
wing	-8784
▁195	-8785
▁BUT	-8786
▁DON	-8787
▁Eat	-8788
▁Lab	-8789
▁Rev	-8790
▁Sav	-8791
▁Sky	-8792
▁Top	-8793
▁bru	-8794
▁caf	-8795
▁err	-8796
▁jur	-8797
▁pra	-8798
▁vag	-8799
break	-8800
ecess	-8801
igure	-8802
licop	-8803
uting	-8804
venue	-8805
▁"...	-8806
▁2001	-8807
▁2011	-8808
▁Bull	-8809
▁Clay	-8810
▁Earl	-8811
▁Fair	-8812
▁Finn	-8813
▁Jenn	-8814
▁Much	-8815
▁Says	-8816
▁[...	-8817
▁bail	-8818
▁bump	-8819
▁gamb	-8820
▁guts	-8821
▁laun	-8822
▁noon	-8823
▁pays	-8824
▁pile	-8825
▁rack	-8826
▁rose	-8827
▁shoe	-8828
▁spit	-8829
▁terr	-8830
▁ther	-8831
▁toss	-8832
omatic	-8833
ortion	-8834
▁2009.	-8835
▁Jamie	-8836
▁Press	-8837
▁Quest	-8838
▁Quinn	-8839
▁Regul	-8840
▁Saint	-8841
▁Speak	-8842
▁climb	-8843
▁couch	-8844
▁crush	-8845
▁disag	-8846
▁drama	-8847
▁holds	-8848
▁manip	-8849
▁panel	-8850
▁penis	-8851
▁quota	-8852
▁sauce	-8853
▁slave	-8854
▁uncom	-8855
▁upper	-8856
emption	-8857
ruption	-8858
▁Castle	-8859
▁Centre	-8860
▁Coming	-8861
▁Mickey	-8862
▁Object	-8863
▁Oliver	-8864
▁analys	-8865
▁cities	-8866
▁deeply	-8867
▁dosage	-8868
▁harass	-8869
▁harmon	-8870
▁income	-8871
▁margin	-8872
▁packed	-8873
▁philos	-8874
▁preced	-8875
▁ripped	-8876
▁silent	-8877
▁wished	-8878
ropriate	-8879
▁Barbara	-8880
▁Gabriel	-8881
▁Western	-8882
▁apology	-8883
▁beloved	-8884
▁crashed	-8885
▁poultry	-8886
▁protest	-8887
▁rapport	-8888
▁rehears	-8889
▁reverse	-8890
▁servant	-8891
▁sharing	-8892
▁surgeon	-8893
▁warrior	-8894
▁assigned	-8895
▁betrayed	-8896
▁blessing	-8897
▁entering	-8898
▁headache	-8899
▁imported	-8900
▁interrog	-8901
▁measured	-8902
▁roommate	-8903
▁somethin	-8904
▁struggle	-8905
▁suspects	-8906
▁Inspector	-8907
▁Programme	-8908
▁apparatus	-8909
▁conducted	-8910
▁dimension	-8911
▁extension	-8912
▁indicates	-8913
▁professor	-8914
▁secretary	-8915
▁accounting	-8916
▁integrated	-8917
▁regulation	-8918
▁undercover	-8919
▁sustainable	-8920
▁embarrassing	-8921
▁undertakings	-8922
▁documentation	-8923
▁Congratulations	-8924
41	-8925
GH	-8926
LA	-8927
LL	-8928
ée	-8929
ARY	-8930
FOR	-8931
Let	-8932
ebe	-8933
erm	-8934
hio	-8935
iar	-8936
ras	-8937
sex	-8938
vir	-8939
zil	-8940
▁UP	-8941
▁[3	-8942
▁mr	-8943
,...	-8944
2010	-8945
agle	-8946
bian	-8947
gins	-8948
igan	-8949
iped	-8950
mate	-8951
okes	-8952
orse	-8953
rell	-8954
they	-8955
umes	-8956
vity	-8957
word	-8958
ylan	-8959
ynam	-8960
▁15.	-8961
▁Bor	-8962
▁Ent	-8963
▁Fil	-8964
▁Net	-8965
▁Osc	-8966
▁Shh	-8967
▁Syl	-8968
▁USA	-8969
▁bes	-8970
▁hmm	-8971
▁idi	-8972
▁pit	-8973
amily	-8974
endix	-8975
odium	-8976
rings	-8977
ungle	-8978
uster	-8979
▁Boss	-8980
▁Hale	-8981
▁Kirk	-8982
▁Left	-8983
▁Nate	-8984
▁Turk	-8985
▁VIII	-8986
▁deck	-8987
▁fold	-8988
▁leak	-8989
▁obst	-8990
▁pipe	-8991
▁plot	-8992
▁toys	-8993
▁trem	-8994
▁wore	-8995
assium	-8996
iatric	-8997
making	-8998
system	-8999
weight	-9000
▁Amend	-9001
▁Andre	-9002
▁Clear	-9003
▁Davis	-9004
▁Donna	-9005
▁Enjoy	-9006
▁Latin	-9007
▁Mayor	-9008
▁Peace	-9009
▁Rober	-9010
▁Small	-9011
▁Stone	-9012
▁Vince	-9013
▁Wanna	-9014
▁Wendy	-9015
▁acted	-9016
▁advis	-9017
▁alley	-9018
▁alpha	-9019
▁fence	-9020
▁jewel	-9021
▁madam	-9022
▁noted	-9023
▁overd	-9024
▁quote	-9025
▁sanct	-9026
▁snake	-9027
▁wrest	-9028
Article	-9029
oglobin	-9030
urities	-9031
▁Barney	-9032
▁Corpor	-9033
▁Dennis	-9034
▁Heaven	-9035
▁Island	-9036
▁Sweden	-9037
▁acknow	-9038
▁clinic	-9039
▁column	-9040
▁insist	-9041
▁manual	-9042
▁plates	-9043
▁regime	-9044
▁sheets	-9045
▁tonnes	-9046
▁trials	-9047
▁wasted	-9048
fortable	-9049
▁Denmark	-9050
▁acceler	-9051
▁causing	-9052
▁exposed	-9053
▁matches	-9054
ervations	-9055
▁Consider	-9056
▁Princess	-9057
▁duration	-9058
▁injuries	-9059
▁pathetic	-9060
▁pleasant	-9061
▁teachers	-9062
▁touching	-9063
▁candidate	-9064
▁commander	-9065
▁component	-9066
▁evolution	-9067
▁neighbors	-9068
▁reception	-9069
▁residence	-9070
▁engagement	-9071
▁innovation	-9072
▁obligation	-9073
▁suggesting	-9074
▁commitments	-9075
▁replacement	-9076
▁technically	-9077
▁developments	-9078
▁registration	-9079
.?	-9080
33	-9081
75	-9082
gs	-9083
EUR	-9084
dad	-9085
ded	-9086
don	-9087
gle	-9088
ova	-9089
war	-9090
▁8.	-9091
▁IC	-9092
▁NB	-9093
▁Os	-9094
acks	-9095
akin	-9096
arms	-9097
burg	-9098
gate	-9099
heny	-9100
ingu	-9101
lymp	-9102
neum	-9103
pass	-9104
plan	-9105
rous	-9106
soci	-9107
vine	-9108
▁Dee	-9109
▁Equ	-9110
▁HOW	-9111
▁Hay	-9112
▁Hun	-9113
▁Isa	-9114
▁Jar	-9115
▁Lyn	-9116
▁aer	-9117
ademy	-9118
berry	-9119
etary	-9120
ource	-9121
▁Ball	-9122
▁Burn	-9123
▁Full	-9124
▁Lear	-9125
▁Side	-9126
▁Unit	-9127
▁duck	-9128
▁fond	-9129
▁irre	-9130
▁lean	-9131
▁ment	-9132
▁pled	-9133
▁reck	-9134
▁skip	-9135
▁tire	-9136
▁unex	-9137
normal	-9138
zapine	-9139
▁2010.	-9140
▁Agric	-9141
▁Bruce	-9142
▁Chair	-9143
▁alter	-9144
▁annoy	-9145
▁cable	-9146
▁cance	-9147
▁discl	-9148
▁dough	-9149
▁drill	-9150
▁immig	-9151
▁intra	-9152
▁parad	-9153
▁plain	-9154
▁prime	-9155
▁pussy	-9156
▁radar	-9157
▁repay	-9158
▁repro	-9159
▁roads	-9160
▁spect	-9161
▁steam	-9162
▁views	-9163
▁weigh	-9164
▁wives	-9165
itching	-9166
ocation	-9167
▁Hallow	-9168
▁Madame	-9169
▁aliens	-9170
▁burden	-9171
▁county	-9172
▁earned	-9173
▁fellas	-9174
▁firing	-9175
▁flower	-9176
▁gettin	-9177
▁junior	-9178
▁larger	-9179
▁mainly	-9180
▁monkey	-9181
▁notify	-9182
▁posted	-9183
▁proven	-9184
▁rabbit	-9185
▁singer	-9186
▁smooth	-9187
▁terrif	-9188
onscious	-9189
▁Command	-9190
▁Control	-9191
▁arrives	-9192
▁conclus	-9193
▁dischar	-9194
▁encoura	-9195
▁focused	-9196
▁highway	-9197
▁inhibit	-9198
▁protein	-9199
▁publish	-9200
▁revenue	-9201
▁scratch	-9202
▁stepped	-9203
▁visited	-9204
▁witches	-9205
▁Bulgaria	-9206
▁Computer	-9207
▁Governor	-9208
▁Monsieur	-9209
▁Pakistan	-9210
▁Portugal	-9211
▁allowing	-9212
▁assuming	-9213
▁divorced	-9214
▁download	-9215
▁downtown	-9216
▁governor	-9217
▁repealed	-9218
▁sticking	-9219
▁suggests	-9220
▁involving	-9221
▁providing	-9222
▁returning	-9223
▁businesses	-9224
▁prohibited	-9225
▁protective	-9226
▁determining	-9227
▁recognition	-9228
▁Consequently	-9229
▁participants	-9230
▁transactions	-9231
12	-9232
7)	-9233
SI	-9234
(4)	-9235
Hey	-9236
INK	-9237
alo	-9238
aws	-9239
aza	-9240
azy	-9241
chi	-9242
cia	-9243
fia	-9244
isa	-9245
mel	-9246
oyd	-9247
pth	-9248
rus	-9249
▁BO	-9250
▁Eh	-9251
▁Ko	-9252
(2),	-9253
Euro	-9254
INAL	-9255
acle	-9256
amma	-9257
assy	-9258
bell	-9259
gedy	-9260
lcom	-9261
name	-9262
oded	-9263
oids	-9264
oned	-9265
ophy	-9266
ousy	-9267
pher	-9268
quer	-9269
quis	-9270
rose	-9271
tail	-9272
zzle	-9273
▁600	-9274
▁Amb	-9275
▁Cas	-9276
▁Fif	-9277
▁Lib	-9278
▁Lim	-9279
▁Low	-9280
▁MAR	-9281
▁SOM	-9282
▁Sud	-9283
▁Zoe	-9284
▁ank	-9285
▁bul	-9286
▁ink	-9287
▁sar	-9288
▁ski	-9289
▁sue	-9290
▁tab	-9291
▁tit	-9292
althy	-9293
ifies	-9294
ishop	-9295
power	-9296
ribly	-9297
state	-9298
▁Cher	-9299
▁Evan	-9300
▁Grab	-9301
▁Imag	-9302
▁Less	-9303
▁Owen	-9304
▁Real	-9305
▁Roll	-9306
▁Rory	-9307
▁Scar	-9308
▁Spir	-9309
▁Todd	-9310
▁blog	-9311
▁cats	-9312
▁dent	-9313
▁dipl	-9314
▁gluc	-9315
▁grap	-9316
▁nail	-9317
▁neut	-9318
▁nigg	-9319
▁odds	-9320
▁soph	-9321
▁tied	-9322
arette	-9323
coated	-9324
idency	-9325
ptions	-9326
▁Dutch	-9327
▁Egypt	-9328
▁Hawai	-9329
▁Legal	-9330
▁Sally	-9331
▁deriv	-9332
▁ethic	-9333
▁gover	-9334
▁imper	-9335
▁lands	-9336
▁lobby	-9337
▁memor	-9338
▁mount	-9339
▁persu	-9340
▁sheet	-9341
reshold	-9342
▁Nether	-9343
▁Palmer	-9344
▁Sophie	-9345
▁addict	-9346
▁campus	-9347
▁copies	-9348
▁counts	-9349
▁fulfil	-9350
▁halluc	-9351
▁humili	-9352
▁landed	-9353
▁length	-9354
▁lookin	-9355
▁mutual	-9356
▁orphan	-9357
▁racing	-9358
▁string	-9359
▁tricks	-9360
quarters	-9361
▁Certain	-9362
▁Frankie	-9363
▁Simpson	-9364
▁Ukraine	-9365
▁authent	-9366
▁cancell	-9367
▁chamber	-9368
▁cleaned	-9369
▁corrupt	-9370
▁dragged	-9371
▁handled	-9372
▁laundry	-9373
▁mothers	-9374
▁spirits	-9375
▁unhappy	-9376
▁wounded	-9377
▁adequate	-9378
▁combined	-9379
▁contents	-9380
▁cultural	-9381
▁employee	-9382
▁equipped	-9383
▁guidance	-9384
▁immunity	-9385
▁infected	-9386
▁presents	-9387
▁reliable	-9388
▁visitors	-9389
▁Meanwhile	-9390
▁attracted	-9391
▁bothering	-9392
▁childhood	-9393
▁considers	-9394
▁defendant	-9395
▁directive	-9396
▁physician	-9397
▁strangers	-9398
▁underwear	-9399
▁Enterprise	-9400
▁basketball	-9401
▁categories	-9402
▁compliment	-9403
▁conspiracy	-9404
▁electrical	-9405
▁pharmacist	-9406
▁submission	-9407
▁generations	-9408
▁investments	-9409
▁participate	-9410
▁threatening	-9411
▁investigating	-9412
▁uncomfortable	-9413
▁recommendations	-9414
26	-9415
bra	-9416
hus	-9417
ibi	-9418
mir	-9419
ois	-9420
rin	-9421
was	-9422
www	-9423
▁6,	-9424
▁py	-9425
aire	-9426
card	-9427
colm	-9428
fall	-9429
fire	-9430
greg	-9431
iren	-9432
ldon	-9433
mers	-9434
ouch	-9435
ping	-9436
pton	-9437
▁Bat	-9438
▁Bow	-9439
▁CPA	-9440
▁Cir	-9441
▁Dex	-9442
▁Dur	-9443
▁GET	-9444
▁Kel	-9445
▁Pen	-9446
▁cav	-9447
▁fir	-9448
▁ske	-9449
▁web	-9450
▁wow	-9451
▁yog	-9452
ansas	-9453
aring	-9454
eered	-9455
helle	-9456
holes	-9457
igger	-9458
lined	-9459
never	-9460
ommod	-9461
orous	-9462
ourse	-9463
riers	-9464
there	-9465
vable	-9466
world	-9467
▁Anne	-9468
▁Beck	-9469
▁Gene	-9470
▁Isab	-9471
▁Mort	-9472
▁Neil	-9473
▁News	-9474
▁Word	-9475
▁buzz	-9476
▁coma	-9477
▁conj	-9478
▁deaf	-9479
▁dign	-9480
▁gray	-9481
▁hers	-9482
▁lect	-9483
▁lets	-9484
▁loop	-9485
▁quot	-9486
▁sail	-9487
▁shel	-9488
▁tact	-9489
▁unst	-9490
▁wars	-9491
ousing	-9492
stream	-9493
utiful	-9494
▁Elena	-9495
▁Ellen	-9496
▁Jenna	-9497
▁Nancy	-9498
▁Riley	-9499
▁Staff	-9500
▁bleed	-9501
▁cheat	-9502
▁films	-9503
▁fools	-9504
▁homes	-9505
▁incur	-9506
▁march	-9507
▁neare	-9508
▁safer	-9509
▁suitc	-9510
▁sweep	-9511
▁tapes	-9512
▁tract	-9513
athered	-9514
itchell	-9515
▁Gordon	-9516
▁Harold	-9517
▁Jersey	-9518
▁Phoebe	-9519
▁advise	-9520
▁ancest	-9521
▁astron	-9522
▁barrel	-9523
▁booked	-9524
▁casino	-9525
▁casual	-9526
▁enable	-9527
▁entity	-9528
▁fisher	-9529
▁ghosts	-9530
▁images	-9531
▁plague	-9532
▁retail	-9533
▁ritual	-9534
▁script	-9535
▁shrink	-9536
▁stocks	-9537
▁Anthony	-9538
▁Justice	-9539
▁buddies	-9540
▁capture	-9541
▁chasing	-9542
▁couples	-9543
▁fighter	-9544
▁helicop	-9545
▁magical	-9546
▁outcome	-9547
▁sectors	-9548
▁seeking	-9549
▁slipped	-9550
▁Administ	-9551
▁Interest	-9552
▁Jennifer	-9553
▁Research	-9554
▁Virginia	-9555
▁admitted	-9556
▁belonged	-9557
▁capsules	-9558
▁concrete	-9559
▁consists	-9560
▁decrease	-9561
▁diseases	-9562
▁disorder	-9563
▁dreaming	-9564
▁examined	-9565
▁improved	-9566
▁marrying	-9567
▁modified	-9568
▁supplied	-9569
▁toxicity	-9570
▁treating	-9571
▁allocated	-9572
▁corrected	-9573
▁interpret	-9574
▁processed	-9575
▁regularly	-9576
▁surrender	-9577
▁suspended	-9578
▁acceptable	-9579
▁colleagues	-9580
▁democratic	-9581
▁indication	-9582
▁priorities	-9583
▁rapporteur	-9584
▁supplement	-9585
▁veterinary	-9586
▁complaining	-9587
▁destruction	-9588
▁enterprises	-9589
▁improvement	-9590
▁questioning	-9591
▁traditional	-9592
▁coordination	-9593
▁determination	-9594
▁participation	-9595
%)	-9596
(3	-9597
.)	-9598
0,	-9599
2-	-9600
23	-9601
36	-9602
84	-9603
Am	-9604
RS	-9605
Re	-9606
ht	-9607
je	-9608
ni	-9609
és	-9610
ARS	-9611
Yes	-9612
ani	-9613
fan	-9614
lle	-9615
▁34	-9616
▁46	-9617
▁65	-9618
▁Hu	-9619
▁Ze	-9620
▁ah	-9621
▁od	-9622
▁pi	-9623
comp	-9624
gain	-9625
lers	-9626
list	-9627
obby	-9628
oral	-9629
type	-9630
walk	-9631
▁250	-9632
▁Alf	-9633
▁Daw	-9634
▁Gil	-9635
▁Lew	-9636
▁McK	-9637
▁Mig	-9638
▁Neg	-9639
▁Pac	-9640
▁Syd	-9641
▁Wat	-9642
▁dia	-9643
▁mug	-9644
▁shy	-9645
▁vig	-9646
▁wis	-9647
cycle	-9648
iders	-9649
nergy	-9650
venth	-9651
▁Asia	-9652
▁Beat	-9653
▁Monk	-9654
▁Nine	-9655
▁Nope	-9656
▁Thor	-9657
▁Till	-9658
▁Wake	-9659
▁insp	-9660
▁lamp	-9661
▁lion	-9662
▁menu	-9663
▁nick	-9664
▁obey	-9665
▁pigs	-9666
▁pour	-9667
▁punk	-9668
▁rear	-9669
▁root	-9670
▁tone	-9671
▁trib	-9672
▁tube	-9673
▁wipe	-9674
erican	-9675
filled	-9676
▁Appro	-9677
▁Booth	-9678
▁Close	-9679
▁Force	-9680
▁Hotel	-9681
▁Linda	-9682
▁Manny	-9683
▁Marie	-9684
▁Mason	-9685
▁Prime	-9686
▁Ready	-9687
▁abuse	-9688
▁antic	-9689
▁deals	-9690
▁glory	-9691
▁lousy	-9692
▁opens	-9693
▁stret	-9694
▁tempt	-9695
General	-9696
ensions	-9697
outhern	-9698
raining	-9699
theless	-9700
▁Brazil	-9701
▁Deputy	-9702
▁Harris	-9703
▁Jewish	-9704
▁Justin	-9705
▁Lauren	-9706
▁Martha	-9707
▁Nicole	-9708
▁Pierce	-9709
▁Public	-9710
▁Warren	-9711
▁adults	-9712
▁christ	-9713
▁compat	-9714
▁contam	-9715
▁extend	-9716
▁fights	-9717
▁gloves	-9718
▁hazard	-9719
▁honour	-9720
▁hunger	-9721
▁jungle	-9722
▁meters	-9723
▁orange	-9724
▁robbed	-9725
▁sealed	-9726
▁troops	-9727
▁wallet	-9728
▁welcom	-9729
▁Between	-9730
▁Imagine	-9731
▁Malcolm	-9732
▁Morning	-9733
▁Russell	-9734
▁altered	-9735
▁amongst	-9736
▁beneath	-9737
▁clarity	-9738
▁deleted	-9739
▁dismiss	-9740
▁examine	-9741
▁fantasy	-9742
▁foolish	-9743
▁formula	-9744
▁healing	-9745
▁illness	-9746
▁promote	-9747
▁pushing	-9748
▁sounded	-9749
▁unbelie	-9750
▁Hercules	-9751
▁Mitchell	-9752
▁bastards	-9753
▁consumer	-9754
▁disabled	-9755
▁explains	-9756
▁homeless	-9757
▁homicide	-9758
▁invented	-9759
▁minister	-9760
▁nonsense	-9761
▁protocol	-9762
▁punished	-9763
▁reporter	-9764
▁sections	-9765
▁superior	-9766
▁threaten	-9767
▁Halloween	-9768
▁colleague	-9769
▁criminals	-9770
▁principal	-9771
▁respected	-9772
▁satisfact	-9773
▁separated	-9774
▁specially	-9775
▁allocation	-9776
▁collective	-9777
▁conscience	-9778
▁constantly	-9779
▁consulting	-9780
▁designated	-9781
▁revolution	-9782
▁suggestion	-9783
▁transplant	-9784
▁Netherlands	-9785
▁advertising	-9786
▁differently	-9787
▁personality	-9788
▁accidentally	-9789
▁preparations	-9790
▁recommendation	-9791
31	-9792
cr	-9793
2.1	-9794
ANS	-9795
ISS	-9796
URE	-9797
lee	-9798
rem	-9799
rik	-9800
two	-9801
▁1:	-9802
▁2-	-9803
▁42	-9804
▁Ax	-9805
▁CL	-9806
▁Fa	-9807
1999	-9808
Yeah	-9809
acco	-9810
alph	-9811
aron	-9812
emic	-9813
fers	-9814
foot	-9815
ixon	-9816
lace	-9817
laus	-9818
olid	-9819
oons	-9820
ride	-9821
uese	-9822
viet	-9823
▁CYP	-9824
▁Goa	-9825
▁Lin	-9826
▁Ned	-9827
▁Sad	-9828
▁Shi	-9829
▁Tam	-9830
▁Tan	-9831
▁lam	-9832
▁pod	-9833
▁tox	-9834
ACKAG	-9835
asses	-9836
erate	-9837
erous	-9838
neath	-9839
▁Bert	-9840
▁Budd	-9841
▁Dale	-9842
▁Exec	-9843
▁Glad	-9844
▁HERE	-9845
▁Mall	-9846
▁Moon	-9847
▁Stra	-9848
▁Toby	-9849
▁Told	-9850
▁Took	-9851
▁alfa	-9852
▁auto	-9853
▁dope	-9854
▁enzy	-9855
▁fare	-9856
▁forb	-9857
▁heav	-9858
▁lact	-9859
▁owed	-9860
▁sins	-9861
▁stem	-9862
▁wrap	-9863
Europe	-9864
ashing	-9865
essert	-9866
hattan	-9867
ilding	-9868
itated	-9869
ndrome	-9870
reated	-9871
▁Based	-9872
▁Casey	-9873
▁Damon	-9874
▁Domin	-9875
▁Frame	-9876
▁Gibbs	-9877
▁Islam	-9878
▁Korea	-9879
▁Liber	-9880
▁Lucky	-9881
▁Oscar	-9882
▁Penny	-9883
▁THINK	-9884
▁Tracy	-9885
▁appet	-9886
▁beans	-9887
▁bombs	-9888
▁cared	-9889
▁clubs	-9890
▁dynam	-9891
▁enorm	-9892
▁grief	-9893
▁handy	-9894
▁hypot	-9895
▁optim	-9896
▁pitch	-9897
▁prick	-9898
▁salad	-9899
▁tower	-9900
otherap	-9901
▁Democr	-9902
▁PACKAG	-9903
▁Walker	-9904
▁bitter	-9905
▁collar	-9906
▁cookie	-9907
▁demons	-9908
▁dollar	-9909
▁drives	-9910
▁formed	-9911
▁fortun	-9912
▁heroin	-9913
▁inspir	-9914
▁organs	-9915
▁remark	-9916
▁rising	-9917
▁solved	-9918
▁stored	-9919
▁surviv	-9920
▁unable	-9921
▁voting	-9922
▁waking	-9923
▁Belgium	-9924
▁History	-9925
▁Matthew	-9926
▁Stephen	-9927
▁Through	-9928
▁approve	-9929
▁bottles	-9930
▁consent	-9931
▁defence	-9932
▁discipl	-9933
▁offices	-9934
▁penalty	-9935
▁shocked	-9936
▁signals	-9937
▁signing	-9938
▁specify	-9939
▁theater	-9940
▁transit	-9941
▁yelling	-9942
▁Communic	-9943
▁Ministry	-9944
▁compound	-9945
▁crossing	-9946
▁dressing	-9947
▁stations	-9948
▁troubles	-9949
▁underest	-9950
▁unlikely	-9951
▁vampires	-9952
▁abilities	-9953
▁broadcast	-9954
▁cigarette	-9955
▁installed	-9956
▁interfere	-9957
▁potassium	-9958
▁recognise	-9959
▁scheduled	-9960
▁strategic	-9961
▁Portuguese	-9962
▁challenges	-9963
▁comparison	-9964
▁facilities	-9965
▁possession	-9966
▁scientists	-9967
▁settlement	-9968
▁Christopher	-9969
▁celebrating	-9970
▁forgiveness	-9971
▁haemoglobin	-9972
▁represented	-9973
▁statistical	-9974
▁Implementing	-9975
(5	-9976
98	-9977
GE	-9978
PT	-9979
QU	-9980
kg	-9981
IES	-9982
Man	-9983
axy	-9984
eek	-9985
ele	-9986
iah	-9987
izz	-9988
mic	-9989
nan	-9990
omi	-9991
orr	-9992
phy	-9993
pot	-9994
udd	-9995
▁##	-9996
▁$5	-9997
▁43	-9998
▁9.	-9999
▁DC	-10000
▁Od	-10001
▁Ve	-10002
▁ln	-10003
arks	-10004
hers	-10005
look	-10006
rove	-10007
ttes	-10008
▁800	-10009
▁Ban	-10010
▁Boo	-10011
▁Cou	-10012
▁Die	-10013
▁HIV	-10014
▁Len	-10015
▁Pan	-10016
▁Raj	-10017
▁Sab	-10018
▁Ugh	-10019
▁bio	-10020
▁fet	-10021
▁gum	-10022
▁hid	-10023
▁mas	-10024
▁nin	-10025
▁poo	-10026
/2008	-10027
APTER	-10028
allel	-10029
appro	-10030
athan	-10031
istle	-10032
ockey	-10033
press	-10034
rable	-10035
worth	-10036
▁Alic	-10037
▁Arch	-10038
▁Benj	-10039
▁Brig	-10040
▁COUN	-10041
▁Calm	-10042
▁Came	-10043
▁Curt	-10044
▁Dead	-10045
▁Drop	-10046
▁Joan	-10047
▁Lane	-10048
▁Mass	-10049
▁Note	-10050
▁Stew	-10051
▁Town	-10052
▁Zone	-10053
▁ages	-10054
▁fans	-10055
▁grid	-10056
▁hamm	-10057
▁hybr	-10058
▁lend	-10059
▁mole	-10060
▁peak	-10061
▁vast	-10062
▁wand	-10063
▁wing	-10064
alling	-10065
apping	-10066
irable	-10067
resent	-10068
▁Break	-10069
▁Daisy	-10070
▁Devil	-10071
▁Heard	-10072
▁Lemon	-10073
▁Marco	-10074
▁Olymp	-10075
▁Royal	-10076
▁Rules	-10077
▁aimed	-10078
▁asset	-10079
▁decor	-10080
▁depth	-10081
▁donor	-10082
▁grill	-10083
▁loans	-10084
▁logic	-10085
▁moral	-10086
▁oppon	-10087
▁paran	-10088
▁pulse	-10089
▁purse	-10090
▁rings	-10091
▁schol	-10092
▁skill	-10093
▁solar	-10094
▁suite	-10095
▁taxes	-10096
omiting	-10097
sequent	-10098
▁Bonnie	-10099
▁Change	-10100
▁Easter	-10101
▁Empire	-10102
▁Hannah	-10103
▁Partic	-10104
▁Sloven	-10105
▁Within	-10106
▁bacter	-10107
▁cattle	-10108
▁differ	-10109
▁doubts	-10110
▁driven	-10111
▁freeze	-10112
▁immune	-10113
▁mister	-10114
▁revers	-10115
▁sacred	-10116
▁skinny	-10117
▁stroke	-10118
▁thread	-10119
▁throne	-10120
▁worker	-10121
▁Austral	-10122
▁Austria	-10123
▁CHAPTER	-10124
▁Melissa	-10125
▁Sheldon	-10126
▁anytime	-10127
▁blessed	-10128
▁dreamed	-10129
▁explode	-10130
▁heavens	-10131
▁killers	-10132
▁prayers	-10133
▁premium	-10134
▁refunds	-10135
▁shortly	-10136
▁tragedy	-10137
▁traitor	-10138
▁worship	-10139
itzerland	-10140
▁Services	-10141
▁contacts	-10142
▁contrary	-10143
▁enormous	-10144
▁opinions	-10145
▁talented	-10146
▁budgetary	-10147
▁centuries	-10148
▁decreased	-10149
▁machinery	-10150
▁nightmare	-10151
▁biological	-10152
▁destroying	-10153
▁geographic	-10154
▁leadership	-10155
▁pretending	-10156
▁recognized	-10157
▁supporting	-10158
▁terrorists	-10159
▁approaching	-10160
▁competitive	-10161
▁concentrate	-10162
▁engineering	-10163
▁partnership	-10164
▁pharmacokin	-10165
▁transaction	-10166
▁announcement	-10167
▁prescription	-10168
▁comprehensive	-10169
▁consciousness	-10170
▁effectiveness	-10171
▁appropriations	-10172
47	-10173
71	-10174
An	-10175
CC	-10176
Es	-10177
MS	-10178
oz	-10179
wa	-10180
(5)	-10181
-1,	-10182
ORT	-10183
gir	-10184
gor	-10185
iro	-10186
isp	-10187
nut	-10188
sho	-10189
uld	-10190
▁85	-10191
▁88	-10192
▁Ja	-10193
▁Ot	-10194
▁Ri	-10195
▁yo	-10196
KING	-10197
anta	-10198
beat	-10199
elia	-10200
euro	-10201
fter	-10202
gage	-10203
grad	-10204
isha	-10205
keep	-10206
mann	-10207
pled	-10208
spec	-10209
udes	-10210
uine	-10211
west	-10212
▁12-	-10213
▁91/	-10214
▁Box	-10215
▁DID	-10216
▁GDP	-10217
▁Ill	-10218
▁Jas	-10219
▁Las	-10220
▁Meg	-10221
▁Mot	-10222
▁NSA	-10223
▁Row	-10224
▁hem	-10225
▁hen	-10226
▁que	-10227
▁rhy	-10228
▁ric	-10229
▁rul	-10230
▁sew	-10231
▁syn	-10232
ellow	-10233
elson	-10234
fleet	-10235
icial	-10236
ilton	-10237
level	-10238
onies	-10239
orgia	-10240
union	-10241
▁Answ	-10242
▁Cart	-10243
▁Cost	-10244
▁Drag	-10245
▁Easy	-10246
▁Fran	-10247
▁Holl	-10248
▁Iron	-10249
▁Lang	-10250
▁Nora	-10251
▁Prep	-10252
▁Rand	-10253
▁[1],	-10254
▁bart	-10255
▁blah	-10256
▁brut	-10257
▁chef	-10258
▁coin	-10259
▁flip	-10260
▁grie	-10261
▁inha	-10262
▁intr	-10263
▁panc	-10264
▁penc	-10265
▁rely	-10266
▁shed	-10267
▁tech	-10268
▁unre	-10269
▁verd	-10270
▁weed	-10271
asures	-10272
hesion	-10273
outing	-10274
sphate	-10275
urrect	-10276
velope	-10277
verend	-10278
▁Brook	-10279
▁Danie	-10280
▁Girls	-10281
▁Griff	-10282
▁Klaus	-10283
▁Luxem	-10284
▁Malta	-10285
▁Megan	-10286
▁Music	-10287
▁Phill	-10288
▁Ralph	-10289
▁Relax	-10290
▁Swiss	-10291
▁[...]	-10292
▁abdom	-10293
▁belly	-10294
▁boats	-10295
▁drank	-10296
▁email	-10297
▁fairy	-10298
▁fella	-10299
▁filed	-10300
▁gifts	-10301
▁horiz	-10302
▁humor	-10303
▁manif	-10304
▁meets	-10305
▁motel	-10306
▁rehab	-10307
▁royal	-10308
▁scrub	-10309
▁sniff	-10310
▁sober	-10311
▁theft	-10312
▁vault	-10313
holders	-10314
itivity	-10315
olutely	-10316
respect	-10317
▁Associ	-10318
▁Connor	-10319
▁Elliot	-10320
▁Market	-10321
▁Mulder	-10322
▁Norway	-10323
▁Policy	-10324
▁Ronnie	-10325
▁Safety	-10326
▁Slovak	-10327
▁Spirit	-10328
▁Twenty	-10329
▁Unsure	-10330
▁cancel	-10331
▁caring	-10332
▁corpse	-10333
▁define	-10334
▁engage	-10335
▁fairly	-10336
▁lodged	-10337
▁losses	-10338
▁mortal	-10339
▁outfit	-10340
▁poetry	-10341
▁retrie	-10342
▁update	-10343
▁versus	-10344
▁voices	-10345
▁wisdom	-10346
European	-10347
ecessary	-10348
▁Annexes	-10349
▁Darling	-10350
▁Private	-10351
▁Project	-10352
▁blowing	-10353
▁carries	-10354
▁caution	-10355
▁convict	-10356
▁crucial	-10357
▁crystal	-10358
▁derived	-10359
▁halfway	-10360
▁kicking	-10361
▁lighter	-10362
▁manners	-10363
▁ongoing	-10364
▁praying	-10365
▁railway	-10366
▁wrapped	-10367
▁Business	-10368
▁Division	-10369
▁Operator	-10370
▁Russians	-10371
▁Standard	-10372
▁Standing	-10373
▁Williams	-10374
▁accommod	-10375
▁canceled	-10376
▁discount	-10377
▁entities	-10378
▁envelope	-10379
▁isolated	-10380
▁promises	-10381
▁servants	-10382
▁supervis	-10383
▁terminal	-10384
▁territor	-10385
▁Beautiful	-10386
▁Francisco	-10387
▁Manhattan	-10388
▁believing	-10389
▁extensive	-10390
▁fisheries	-10391
▁fulfilled	-10392
▁naturally	-10393
▁organized	-10394
▁practical	-10395
▁preparing	-10396
▁righteous	-10397
▁secondary	-10398
▁slaughter	-10399
▁threshold	-10400
▁compromise	-10401
▁depression	-10402
▁functional	-10403
▁parameters	-10404
▁struggling	-10405
▁calculation	-10406
▁composition	-10407
▁conclusions	-10408
▁coordinates	-10409
▁exceptional	-10410
▁experiences	-10411
▁imagination	-10412
▁integration	-10413
▁legislative	-10414
▁measurement	-10415
▁understands	-10416
▁fingerprints	-10417
▁manufacturing	-10418
/1	-10419
46	-10420
67	-10421
87	-10422
AF	-10423
CF	-10424
EG	-10425
SC	-10426
hm	-10427
’,	-10428
All	-10429
ITY	-10430
bia	-10431
bro	-10432
bul	-10433
dll	-10434
had	-10435
irs	-10436
mbH	-10437
nic	-10438
pos	-10439
uba	-10440
vet	-10441
▁$2	-10442
▁%1	-10443
▁(2	-10444
▁87	-10445
▁CE	-10446
▁SC	-10447
▁fu	-10448
fish	-10449
ggie	-10450
iler	-10451
izzy	-10452
keys	-10453
lets	-10454
mart	-10455
peed	-10456
pert	-10457
quet	-10458
rane	-10459
shot	-10460
udge	-10461
usty	-10462
▁AID	-10463
▁Ast	-10464
▁Aut	-10465
▁Aye	-10466
▁Bos	-10467
▁Fox	-10468
▁Ian	-10469
▁Lor	-10470
▁Lot	-10471
▁MIN	-10472
▁Mas	-10473
▁Ohh	-10474
▁Seb	-10475
▁Sex	-10476
▁Sid	-10477
▁Stu	-10478
▁Viv	-10479
▁[2]	-10480
▁asc	-10481
▁dug	-10482
▁gly	-10483
▁nap	-10484
▁sab	-10485
▁toy	-10486
▁vit	-10487
/2009	-10488
angle	-10489
guard	-10490
guing	-10491
ifted	-10492
inder	-10493
lfare	-10494
organ	-10495
patic	-10496
▁Cold	-10497
▁Comb	-10498
▁Corn	-10499
▁Desp	-10500
▁Duke	-10501
▁GmbH	-10502
▁Hans	-10503
▁Karl	-10504
▁Khan	-10505
▁Kiss	-10506
▁Kong	-10507
▁Linc	-10508
▁Magn	-10509
▁Mult	-10510
▁Seth	-10511
▁WELL	-10512
▁Went	-10513
▁Wolf	-10514
▁cage	-10515
▁carc	-10516
▁chop	-10517
▁dime	-10518
▁embr	-10519
▁horn	-10520
▁lapt	-10521
▁perf	-10522
▁plug	-10523
▁slut	-10524
▁synt	-10525
▁tale	-10526
▁unem	-10527
▁vice	-10528
▁warp	-10529
acking	-10530
border	-10531
called	-10532
handed	-10533
itives	-10534
soever	-10535
ulsion	-10536
▁ABOUT	-10537
▁Kling	-10538
▁McGee	-10539
▁Moses	-10540
▁Power	-10541
▁Trade	-10542
▁alibi	-10543
▁burst	-10544
▁charm	-10545
▁comin	-10546
▁dealt	-10547
▁debts	-10548
▁disgr	-10549
▁fleet	-10550
▁flood	-10551
▁groom	-10552
▁ideal	-10553
▁intel	-10554
▁neuro	-10555
▁orbit	-10556
▁pneum	-10557
▁rifle	-10558
▁spons	-10559
▁stain	-10560
▁unsub	-10561
arettes	-10562
imental	-10563
ogether	-10564
orthern	-10565
▁Berlin	-10566
▁Contin	-10567
▁Family	-10568
▁Mister	-10569
▁Silver	-10570
▁Stefan	-10571
▁Turkey	-10572
▁beside	-10573
▁breach	-10574
▁coffin	-10575
▁cotton	-10576
▁denied	-10577
▁dragon	-10578
▁editor	-10579
▁farmer	-10580
▁idiots	-10581
▁locker	-10582
▁occurs	-10583
▁palace	-10584
▁passes	-10585
▁refuge	-10586
▁rubber	-10587
▁stabil	-10588
▁strain	-10589
▁trophy	-10590
▁wicked	-10591
mination	-10592
▁Goodbye	-10593
▁Promise	-10594
▁Seattle	-10595
▁Somehow	-10596
▁Station	-10597
▁Strateg	-10598
▁artific	-10599
▁attacks	-10600
▁autopsy	-10601
▁awfully	-10602
▁bargain	-10603
▁bitches	-10604
▁ceiling	-10605
▁cereals	-10606
▁crushed	-10607
▁declare	-10608
▁dessert	-10609
▁devoted	-10610
▁digital	-10611
▁discrim	-10612
▁elected	-10613
▁episode	-10614
▁freight	-10615
▁injured	-10616
▁mankind	-10617
▁mixture	-10618
▁musical	-10619
▁nearest	-10620
▁objects	-10621
▁profits	-10622
▁psychic	-10623
▁serving	-10624
▁shaking	-10625
▁solvent	-10626
▁trailer	-10627
▁verdict	-10628
▁washing	-10629
▁Appendix	-10630
▁Contract	-10631
▁concomit	-10632
▁deadline	-10633
▁deserved	-10634
▁diabetes	-10635
▁dialogue	-10636
▁expenses	-10637
▁faithful	-10638
▁festival	-10639
▁frequent	-10640
▁gathered	-10641
▁imagined	-10642
▁patterns	-10643
▁potatoes	-10644
▁remained	-10645
▁resident	-10646
▁sequence	-10647
▁sexually	-10648
▁strongly	-10649
▁ultimate	-10650
▁Alexander	-10651
▁Yesterday	-10652
▁champions	-10653
▁complaint	-10654
▁container	-10655
▁corporate	-10656
▁dedicated	-10657
▁democracy	-10658
▁depending	-10659
▁increases	-10660
▁liability	-10661
▁movements	-10662
▁possessed	-10663
▁practices	-10664
▁scientist	-10665
▁Absolutely	-10666
▁compassion	-10667
▁difficulty	-10668
▁journalist	-10669
▁regulatory	-10670
▁subsequent	-10671
▁Switzerland	-10672
▁compromised	-10673
▁intelligent	-10674
▁originating	-10675
▁demonstrated	-10676
▁possibilities	-10677
▁specifications	-10678
18	-10679
5-	-10680
BS	-10681
RY	-10682
To	-10683
yc	-10684
’;	-10685
00.	-10686
ACE	-10687
ACT	-10688
BER	-10689
EAN	-10690
elp	-10691
ios	-10692
olo	-10693
rod	-10694
udy	-10695
una	-10696
vol	-10697
▁57	-10698
▁91	-10699
▁AF	-10700
▁ER	-10701
▁Ju	-10702
▁PC	-10703
(1)(	-10704
(5),	-10705
alem	-10706
alog	-10707
anes	-10708
auer	-10709
enth	-10710
esar	-10711
icky	-10712
onym	-10713
rine	-10714
rise	-10715
step	-10716
uffy	-10717
usal	-10718
▁(1)	-10719
▁000	-10720
▁30.	-10721
▁Arn	-10722
▁Cru	-10723
▁Din	-10724
▁Ele	-10725
▁Eva	-10726
▁HAS	-10727
▁Hob	-10728
▁Hug	-10729
▁Joy	-10730
▁Kay	-10731
▁Mob	-10732
▁Peg	-10733
▁Ple	-10734
▁bay	-10735
▁bee	-10736
▁coc	-10737
▁ren	-10738
▁unn	-10739
aceut	-10740
antha	-10741
antis	-10742
child	-10743
cular	-10744
might	-10745
pless	-10746
rants	-10747
rying	-10748
▁2013	-10749
▁Chin	-10750
▁Crow	-10751
▁Expl	-10752
▁Ford	-10753
▁LOOK	-10754
▁Live	-10755
▁Mand	-10756
▁Pear	-10757
▁Viol	-10758
▁bowl	-10759
▁bunk	-10760
▁coal	-10761
▁nest	-10762
▁unto	-10763
ainted	-10764
bridge	-10765
icians	-10766
ivated	-10767
nament	-10768
ployed	-10769
rolled	-10770
uckles	-10771
ucting	-10772
▁Broad	-10773
▁Clean	-10774
▁Croat	-10775
▁Drink	-10776
▁Fight	-10777
▁Homer	-10778
▁Lewis	-10779
▁Marty	-10780
▁Money	-10781
▁Pilot	-10782
▁Price	-10783
▁Satan	-10784
▁Sleep	-10785
▁Tower	-10786
▁alleg	-10787
▁asses	-10788
▁booze	-10789
▁domin	-10790
▁enlar	-10791
▁exped	-10792
▁flies	-10793
▁foods	-10794
▁grows	-10795
▁olive	-10796
▁presc	-10797
▁raped	-10798
▁relie	-10799
▁shark	-10800
▁swore	-10801
▁theme	-10802
▁thumb	-10803
▁trips	-10804
▁zones	-10805
ointing	-10806
ressing	-10807
▁Albert	-10808
▁Alicia	-10809
▁Answer	-10810
▁Ashley	-10811
▁Carrie	-10812
▁Hector	-10813
▁Invest	-10814
▁Junior	-10815
▁Middle	-10816
▁Muslim	-10817
▁Others	-10818
▁PARTIC	-10819
▁Valley	-10820
▁abroad	-10821
▁blonde	-10822
▁branch	-10823
▁curren	-10824
▁dancer	-10825
▁exchan	-10826
▁fooled	-10827
▁forens	-10828
▁immort	-10829
▁incomp	-10830
▁insuff	-10831
▁jurisd	-10832
▁latter	-10833
▁mighty	-10834
▁oldest	-10835
▁pardon	-10836
▁perpet	-10837
▁prophe	-10838
▁proved	-10839
▁scenes	-10840
▁steady	-10841
▁stones	-10842
▁subcut	-10843
▁tables	-10844
▁unfair	-10845
▁visits	-10846
▁wealth	-10847
▁worthy	-10848
ications	-10849
ilateral	-10850
otherapy	-10851
▁Grandpa	-10852
▁Hungary	-10853
▁Lindsay	-10854
▁Romania	-10855
▁Support	-10856
▁actress	-10857
▁anticip	-10858
▁avoided	-10859
▁compete	-10860
▁dealers	-10861
▁deliber	-10862
▁elderly	-10863
▁enhance	-10864
▁equally	-10865
▁explore	-10866
▁genuine	-10867
▁harvest	-10868
▁lesbian	-10869
▁passage	-10870
▁periods	-10871
▁predict	-10872
▁schemes	-10873
▁sensors	-10874
▁smarter	-10875
▁trading	-10876
▁wonders	-10877
▁Products	-10878
▁abnormal	-10879
▁accurate	-10880
▁carriage	-10881
▁chloride	-10882
▁exported	-10883
▁freezing	-10884
▁listened	-10885
▁paranoid	-10886
▁reminded	-10887
▁resource	-10888
▁sickness	-10889
▁tortured	-10890
▁Starfleet	-10891
▁Transport	-10892
▁announced	-10893
▁exporting	-10894
▁gathering	-10895
▁hopefully	-10896
▁intercept	-10897
▁overnight	-10898
▁photograp	-10899
▁traveling	-10900
▁Luxembourg	-10901
▁Presidency	-10902
▁aggressive	-10903
▁conviction	-10904
▁directions	-10905
▁discretion	-10906
▁previously	-10907
▁recognised	-10908
▁references	-10909
▁resistance	-10910
▁statements	-10911
▁agriculture	-10912
▁association	-10913
▁desperately	-10914
▁fascinating	-10915
▁importantly	-10916
▁individuals	-10917
▁prosecution	-10918
▁restaurants	-10919
▁substantial	-10920
▁translation	-10921
▁Thanksgiving	-10922
▁consultation	-10923
▁representing	-10924
▁respectively	-10925
▁technologies	-10926
▁communications	-10927
16	-10928
4-	-10929
On	-10930
bb	-10931
mi	-10932
4).	-10933
ITT	-10934
UTH	-10935
VIS	-10936
Why	-10937
aby	-10938
awa	-10939
dia	-10940
hos	-10941
mid	-10942
oda	-10943
rac	-10944
rep	-10945
too	-10946
ulu	-10947
ums	-10948
uum	-10949
▁BR	-10950
▁Ga	-10951
▁Ll	-10952
▁OH	-10953
▁Oz	-10954
alia	-10955
aman	-10956
arin	-10957
arus	-10958
aste	-10959
atre	-10960
burn	-10961
ccer	-10962
char	-10963
cure	-10964
hane	-10965
have	-10966
iban	-10967
inda	-10968
nedy	-10969
ulse	-10970
will	-10971
▁10,	-10972
▁Fle	-10973
▁Hom	-10974
▁Inf	-10975
▁Moo	-10976
▁NOW	-10977
▁Nin	-10978
▁Non	-10979
▁Pic	-10980
▁Pow	-10981
▁Rex	-10982
▁ath	-10983
▁cul	-10984
▁dio	-10985
▁ego	-10986
▁fer	-10987
▁fog	-10988
▁jer	-10989
▁mud	-10990
cript	-10991
etics	-10992
heads	-10993
ifier	-10994
mouth	-10995
ookie	-10996
space	-10997
▁1000	-10998
▁Abra	-10999
▁Educ	-11000
▁Grey	-11001
▁Hart	-11002
▁Ling	-11003
▁Lion	-11004
▁Mach	-11005
▁Maya	-11006
▁Rail	-11007
▁Reid	-11008
▁THEY	-11009
▁Viet	-11010
▁Wind	-11011
▁carp	-11012
▁info	-11013
▁lame	-11014
▁lays	-11015
▁pier	-11016
▁pist	-11017
▁plea	-11018
▁rebu	-11019
▁rode	-11020
▁seiz	-11021
▁sore	-11022
▁stun	-11023
▁ties	-11024
▁torn	-11025
▁ward	-11026
▁worn	-11027
arents	-11028
caemia	-11029
endous	-11030
europa	-11031
uating	-11032
▁1,000	-11033
▁Allen	-11034
▁Chand	-11035
▁Isaac	-11036
▁Katie	-11037
▁Logan	-11038
▁annex	-11039
▁batch	-11040
▁bench	-11041
▁burnt	-11042
▁cheek	-11043
▁chill	-11044
▁craft	-11045
▁deton	-11046
▁exhib	-11047
▁grain	-11048
▁infin	-11049
▁lamps	-11050
▁multi	-11051
▁occas	-11052
▁penny	-11053
▁rival	-11054
▁roots	-11055
▁rural	-11056
▁straw	-11057
▁sulph	-11058
▁twist	-11059
ISATION	-11060
hydrate	-11061
ulating	-11062
▁Hawaii	-11063
▁Knight	-11064
▁Living	-11065
▁Nelson	-11066
▁Nichol	-11067
▁Origin	-11068
▁Soviet	-11069
▁Spring	-11070
▁Tucker	-11071
▁Watson	-11072
▁admire	-11073
▁attach	-11074
▁begged	-11075
▁condem	-11076
▁exempt	-11077
▁golden	-11078
▁grades	-11079
▁handed	-11080
▁misery	-11081
▁phrase	-11082
▁relate	-11083
▁rolled	-11084
▁rotten	-11085
▁server	-11086
▁sketch	-11087
▁slaves	-11088
▁supper	-11089
▁trains	-11090
▁Affairs	-11091
▁Despite	-11092
▁Finland	-11093
▁Madison	-11094
▁Parties	-11095
▁Raymond	-11096
▁Winston	-11097
▁auction	-11098
▁battery	-11099
▁carrier	-11100
▁circuit	-11101
▁cocaine	-11102
▁compare	-11103
▁divided	-11104
▁fathers	-11105
▁feature	-11106
▁filling	-11107
▁happier	-11108
▁heating	-11109
▁instant	-11110
▁judging	-11111
▁lunatic	-11112
▁organic	-11113
▁painted	-11114
▁partial	-11115
▁placebo	-11116
▁shelter	-11117
▁tourist	-11118
fortunate	-11119
isticated	-11120
▁Atlantic	-11121
▁Benjamin	-11122
▁Congress	-11123
▁Michelle	-11124
▁Mountain	-11125
▁audition	-11126
▁clearing	-11127
▁collapse	-11128
▁creative	-11129
▁detected	-11130
▁deterior	-11131
▁excluded	-11132
▁obsessed	-11133
▁sampling	-11134
▁terrific	-11135
▁Following	-11136
▁Framework	-11137
▁Katherine	-11138
▁Treatment	-11139
▁affecting	-11140
▁batteries	-11141
▁chemicals	-11142
▁confessed	-11143
▁confusion	-11144
▁construct	-11145
▁contacted	-11146
▁delicious	-11147
▁exclusive	-11148
▁justified	-11149
▁permitted	-11150
▁precisely	-11151
▁shoulders	-11152
▁therapist	-11153
▁witnessed	-11154
appropriate	-11155
▁Guidelines	-11156
▁appearance	-11157
▁cigarettes	-11158
▁continuous	-11159
▁kidnapping	-11160
▁mechanical	-11161
▁performing	-11162
▁prevention	-11163
▁strengthen	-11164
▁elimination	-11165
▁flexibility	-11166
▁involvement	-11167
▁requirement	-11168
.!	-11169
44	-11170
mn	-11171
py	-11172
uf	-11173
/96	-11174
AME	-11175
CAS	-11176
ICE	-11177
ICH	-11178
She	-11179
Who	-11180
ags	-11181
aks	-11182
aux	-11183
ema	-11184
gas	-11185
gra	-11186
has	-11187
roe	-11188
rof	-11189
san	-11190
sor	-11191
vor	-11192
▁$3	-11193
▁0.	-11194
▁47	-11195
▁56	-11196
▁DV	-11197
▁Py	-11198
▁SE	-11199
▁Zo	-11200
ando	-11201
ardo	-11202
aver	-11203
bout	-11204
bury	-11205
emet	-11206
etin	-11207
iety	-11208
imen	-11209
ingo	-11210
lett	-11211
ogly	-11212
okay	-11213
olan	-11214
prus	-11215
rien	-11216
rock	-11217
role	-11218
vard	-11219
▁190	-11220
▁ANY	-11221
▁Ang	-11222
▁Ark	-11223
▁Arm	-11224
▁Cre	-11225
▁Fun	-11226
▁Hud	-11227
▁Psy	-11228
▁RES	-11229
▁Roc	-11230
▁SEE	-11231
▁Sue	-11232
▁USE	-11233
▁Var	-11234
▁Vin	-11235
▁cam	-11236
▁clo	-11237
▁hoo	-11238
▁kit	-11239
▁lev	-11240
▁pad	-11241
▁tac	-11242
anges	-11243
arson	-11244
eches	-11245
etion	-11246
ights	-11247
ipher	-11248
naire	-11249
orthy	-11250
otype	-11251
pered	-11252
rates	-11253
▁Boys	-11254
▁Buck	-11255
▁Dana	-11256
▁Ferr	-11257
▁Gret	-11258
▁Hong	-11259
▁Judy	-11260
▁Kira	-11261
▁Marc	-11262
▁NCBs	-11263
▁Ruth	-11264
▁Shaw	-11265
▁Tara	-11266
▁Wife	-11267
▁barn	-11268
▁boom	-11269
▁boot	-11270
▁dram	-11271
▁flew	-11272
▁gest	-11273
▁lazy	-11274
▁mour	-11275
▁outs	-11276
▁oven	-11277
▁pimp	-11278
▁poem	-11279
▁soda	-11280
▁tons	-11281
accept	-11282
arency	-11283
ellect	-11284
enders	-11285
eopard	-11286
iaries	-11287
keeper	-11288
person	-11289
uments	-11290
▁2004/	-11291
▁Beach	-11292
▁Bless	-11293
▁Burke	-11294
▁Compl	-11295
▁Craig	-11296
▁Defin	-11297
▁Denny	-11298
▁Dylan	-11299
▁EUROP	-11300
▁Krist	-11301
▁Marge	-11302
▁Sandy	-11303
▁Stark	-11304
▁THERE	-11305
▁Teddy	-11306
▁Truth	-11307
▁bonus	-11308
▁cease	-11309
▁chaos	-11310
▁coins	-11311
▁crawl	-11312
▁cried	-11313
▁goals	-11314
▁ignor	-11315
▁locks	-11316
▁moron	-11317
▁mouse	-11318
▁naive	-11319
▁recon	-11320
▁shove	-11321
▁sixth	-11322
▁slide	-11323
▁stare	-11324
▁texts	-11325
▁tumor	-11326
▁urine	-11327
▁waves	-11328
▁wreck	-11329
▁yards	-11330
ascular	-11331
autions	-11332
uminium	-11333
▁Animal	-11334
▁Annual	-11335
▁Audrey	-11336
▁Curtis	-11337
▁Cyprus	-11338
▁Effect	-11339
▁Energy	-11340
▁Global	-11341
▁Jessie	-11342
▁Select	-11343
▁Source	-11344
▁colors	-11345
▁devast	-11346
▁enthus	-11347
▁foster	-11348
▁helmet	-11349
▁horror	-11350
▁joking	-11351
▁lovers	-11352
▁nurses	-11353
▁simult	-11354
▁sought	-11355
▁sucker	-11356
▁traces	-11357
▁tragic	-11358
▁upside	-11359
daughter	-11360
▁Allison	-11361
▁Already	-11362
▁Clearly	-11363
▁Customs	-11364
▁Federal	-11365
▁Freddie	-11366
▁Georgia	-11367
▁Goddamn	-11368
▁Mexican	-11369
▁Pacific	-11370
▁Stanley	-11371
▁Swedish	-11372
▁Talking	-11373
▁Usually	-11374
▁Vanessa	-11375
▁Witness	-11376
▁advised	-11377
▁battles	-11378
▁convert	-11379
▁decides	-11380
▁exports	-11381
▁fragile	-11382
▁hardest	-11383
▁hepatic	-11384
▁housing	-11385
▁jewelry	-11386
▁marking	-11387
▁needles	-11388
▁planted	-11389
▁quietly	-11390
▁restore	-11391
▁scandal	-11392
▁textile	-11393
▁Jonathan	-11394
▁Manufact	-11395
▁Specific	-11396
▁Superman	-11397
▁alliance	-11398
▁boarding	-11399
▁bothered	-11400
▁champion	-11401
▁charming	-11402
▁diamonds	-11403
▁interven	-11404
▁intimate	-11405
▁missions	-11406
▁moderate	-11407
▁necklace	-11408
▁numerous	-11409
▁patience	-11410
▁pointing	-11411
▁predomin	-11412
▁printing	-11413
▁requests	-11414
▁sergeant	-11415
▁somewhat	-11416
▁supports	-11417
▁wormhole	-11418
▁accidents	-11419
▁associate	-11420
▁blackmail	-11421
▁consulted	-11422
▁excluding	-11423
▁explosion	-11424
▁highlight	-11425
▁intensity	-11426
▁measuring	-11427
▁poisoning	-11428
▁policeman	-11429
▁promoting	-11430
▁remembers	-11431
▁suspected	-11432
▁technique	-11433
▁worldwide	-11434
▁accomplish	-11435
▁assignment	-11436
▁conversion	-11437
▁facilitate	-11438
▁hydrochlor	-11439
▁infections	-11440
▁inhibitors	-11441
▁maintained	-11442
▁motorcycle	-11443
▁securities	-11444
▁unexpected	-11445
▁Association	-11446
▁demonstrate	-11447
▁essentially	-11448
▁necessarily	-11449
▁precautions	-11450
▁transmitted	-11451
▁unfortunate	-11452
▁compensation	-11453
▁discontinued	-11454
▁geographical	-11455
▁refrigerator	-11456
-8	-11457
06	-11458
85	-11459
MA	-11460
Os	-11461
UD	-11462
sl	-11463
ASE	-11464
IFE	-11465
INE	-11466
OUR	-11467
PER	-11468
eda	-11469
fol	-11470
hor	-11471
iaz	-11472
kov	-11473
ofi	-11474
opl	-11475
tes	-11476
thm	-11477
tor	-11478
tra	-11479
weg	-11480
▁1/	-11481
▁Az	-11482
▁CP	-11483
▁IU	-11484
▁Ka	-11485
▁Mi	-11486
▁km	-11487
▁ox	-11488
IBLE	-11489
acey	-11490
anor	-11491
bate	-11492
econ	-11493
five	-11494
hant	-11495
inea	-11496
ivan	-11497
izer	-11498
moon	-11499
nell	-11500
olds	-11501
opic	-11502
path	-11503
rams	-11504
riot	-11505
roit	-11506
stan	-11507
vals	-11508
wick	-11509
▁$20	-11510
▁13.	-11511
▁14.	-11512
▁16,	-11513
▁===	-11514
▁Ale	-11515
▁DEC	-11516
▁Der	-11517
▁Dri	-11518
▁Foc	-11519
▁GPS	-11520
▁Kal	-11521
▁Key	-11522
▁Lam	-11523
▁Lay	-11524
▁OTH	-11525
▁Pad	-11526
▁Rum	-11527
▁Sug	-11528
▁Tun	-11529
▁blo	-11530
▁cub	-11531
▁dys	-11532
▁jet	-11533
▁maj	-11534
▁ooh	-11535
▁pic	-11536
▁tel	-11537
▁tob	-11538
▁toe	-11539
▁une	-11540
▁wax	-11541
/2000	-11542
MENTS	-11543
about	-11544
adium	-11545
ashes	-11546
fting	-11547
inine	-11548
izard	-11549
onica	-11550
rator	-11551
shine	-11552
think	-11553
utter	-11554
▁Area	-11555
▁Bang	-11556
▁Bren	-11557
▁Clar	-11558
▁Cool	-11559
▁Glor	-11560
▁Into	-11561
▁Lith	-11562
▁Sche	-11563
▁Skin	-11564
▁Troy	-11565
▁Vice	-11566
▁Vill	-11567
▁bits	-11568
▁dict	-11569
▁drew	-11570
▁erad	-11571
▁grat	-11572
▁haun	-11573
▁lawn	-11574
▁oath	-11575
▁olan	-11576
▁pupp	-11577
▁saus	-11578
▁tips	-11579
▁toes	-11580
acting	-11581
erving	-11582
headed	-11583
herent	-11584
mighty	-11585
minute	-11586
orable	-11587
ounter	-11588
pering	-11589
rewall	-11590
ribing	-11591
▁2013.	-11592
▁Champ	-11593
▁Corps	-11594
▁Ellie	-11595
▁Lance	-11596
▁Lloyd	-11597
▁Mount	-11598
▁Perry	-11599
▁Pharm	-11600
▁Princ	-11601
▁Quite	-11602
▁Sonny	-11603
▁Stock	-11604
▁babys	-11605
▁drops	-11606
▁empha	-11607
▁fifty	-11608
▁frust	-11609
▁hears	-11610
▁hepat	-11611
▁irrit	-11612
▁landl	-11613
▁lists	-11614
▁nails	-11615
▁punct	-11616
▁risky	-11617
▁roast	-11618
▁ruled	-11619
▁salts	-11620
▁seeds	-11621
▁shops	-11622
▁smugg	-11623
▁socks	-11624
▁spill	-11625
▁stove	-11626
▁wears	-11627
dumping	-11628
ologist	-11629
oration	-11630
through	-11631
▁APPEAR	-11632
▁League	-11633
▁Lincol	-11634
▁Monica	-11635
▁Sebast	-11636
▁Summer	-11637
▁abduct	-11638
▁adding	-11639
▁attrib	-11640
▁bovine	-11641
▁candle	-11642
▁circus	-11643
▁clause	-11644
▁cooked	-11645
▁courts	-11646
▁cowboy	-11647
▁defeat	-11648
▁fertil	-11649
▁filter	-11650
▁finest	-11651
▁fridge	-11652
▁gained	-11653
▁heroes	-11654
▁mathem	-11655
▁overse	-11656
▁proves	-11657
▁quotas	-11658
▁resign	-11659
▁rocket	-11660
▁soccer	-11661
▁twelve	-11662
▁washed	-11663
besartan	-11664
ifferent	-11665
▁Abraham	-11666
▁Cameron	-11667
▁Islands	-11668
▁Miranda	-11669
▁barrier	-11670
▁bearing	-11671
▁bombing	-11672
▁borders	-11673
▁cheated	-11674
▁chronic	-11675
▁closure	-11676
▁cracked	-11677
▁dignity	-11678
▁frankly	-11679
▁gravity	-11680
▁jumping	-11681
▁messing	-11682
▁offense	-11683
▁packing	-11684
▁planets	-11685
▁printed	-11686
▁quarant	-11687
▁rapidly	-11688
▁sincere	-11689
▁summary	-11690
▁threats	-11691
▁touches	-11692
aceutical	-11693
▁Brooklyn	-11694
▁Highness	-11695
▁Question	-11696
▁Whenever	-11697
▁antibiot	-11698
▁catching	-11699
▁chairman	-11700
▁clothing	-11701
▁coverage	-11702
▁executed	-11703
▁incurred	-11704
▁infusion	-11705
▁initiate	-11706
▁insuffic	-11707
▁investor	-11708
▁miracles	-11709
▁monsters	-11710
▁peaceful	-11711
▁phenomen	-11712
▁poisoned	-11713
▁reaching	-11714
▁reducing	-11715
▁sneaking	-11716
▁suitcase	-11717
▁syndrome	-11718
▁terribly	-11719
▁thrilled	-11720
▁trusting	-11721
▁vomiting	-11722
▁Australia	-11723
▁Somewhere	-11724
▁Valentine	-11725
▁accession	-11726
▁breakdown	-11727
▁chemistry	-11728
▁discharge	-11729
▁diversity	-11730
▁elsewhere	-11731
▁excessive	-11732
▁functions	-11733
▁lightning	-11734
▁locations	-11735
▁microgram	-11736
▁particles	-11737
▁phosphate	-11738
▁primarily	-11739
▁salvation	-11740
▁shorewall	-11741
▁survivors	-11742
▁Foundation	-11743
▁accessible	-11744
▁artificial	-11745
▁continuing	-11746
▁delegation	-11747
▁helicopter	-11748
▁injections	-11749
▁olanzapine	-11750
▁regardless	-11751
▁relatively	-11752
▁tremendous	-11753
▁appreciated	-11754
▁beneficiary	-11755
▁effectively	-11756
▁transported	-11757
▁unconscious	-11758
▁jurisdiction	-11759
▁significance	-11760
▁transparency	-11761
▁Communication	-11762
▁automatically	-11763
"!	-11764
)*	-11765
-6	-11766
-7	-11767
34	-11768
39	-11769
Al	-11770
As	-11771
OC	-11772
di	-11773
fu	-11774
hu	-11775
/93	-11776
199	-11777
DER	-11778
ECA	-11779
HER	-11780
USE	-11781
ahl	-11782
ava	-11783
des	-11784
dog	-11785
esy	-11786
igo	-11787
imm	-11788
oes	-11789
▁01	-11790
▁DR	-11791
▁Dw	-11792
▁Ji	-11793
▁MI	-11794
▁Ny	-11795
(3),	-11796
Okay	-11797
asse	-11798
avin	-11799
chen	-11800
ears	-11801
enia	-11802
eyed	-11803
hend	-11804
iate	-11805
iber	-11806
mont	-11807
othy	-11808
star	-11809
sten	-11810
ulpt	-11811
whel	-11812
ylon	-11813
▁$10	-11814
▁120	-11815
▁125	-11816
▁Coc	-11817
▁Cup	-11818
▁Fix	-11819
▁Hod	-11820
▁Hou	-11821
▁Kos	-11822
▁LEA	-11823
▁Lut	-11824
▁Mis	-11825
▁ONE	-11826
▁Pig	-11827
▁Pra	-11828
▁Saw	-11829
▁Tai	-11830
▁Voy	-11831
▁Vul	-11832
▁WHO	-11833
▁WOR	-11834
▁Yan	-11835
▁aqu	-11836
▁cod	-11837
▁hes	-11838
▁pec	-11839
/2002	-11840
ULARS	-11841
UTHOR	-11842
borne	-11843
class	-11844
etent	-11845
grade	-11846
iated	-11847
inter	-11848
itime	-11849
lings	-11850
otion	-11851
pherd	-11852
ports	-11853
unist	-11854
▁100%	-11855
▁6:00	-11856
▁Amaz	-11857
▁Conc	-11858
▁Cred	-11859
▁Game	-11860
▁Gray	-11861
▁Hunt	-11862
▁Lost	-11863
▁Milk	-11864
▁Mine	-11865
▁Soci	-11866
▁Sull	-11867
▁Tina	-11868
▁Wade	-11869
▁bend	-11870
▁beta	-11871
▁bisc	-11872
▁bold	-11873
▁chap	-11874
▁cord	-11875
▁foul	-11876
▁goss	-11877
▁haul	-11878
▁heck	-11879
▁knee	-11880
▁lane	-11881
▁owes	-11882
▁rash	-11883
▁silk	-11884
▁slam	-11885
▁slap	-11886
▁twin	-11887
▁visa	-11888
▁zomb	-11889
angled	-11890
astrop	-11891
earing	-11892
roleum	-11893
▁2005,	-11894
▁2012.	-11895
▁Admir	-11896
▁Asian	-11897
▁Bauer	-11898
▁Bravo	-11899
▁Chase	-11900
▁Claud	-11901
▁Diana	-11902
▁Diego	-11903
▁Fresh	-11904
▁Ident	-11905
▁Keith	-11906
▁Miles	-11907
▁Mitch	-11908
▁Nicky	-11909
▁Romeo	-11910
▁Round	-11911
▁Shane	-11912
▁Short	-11913
▁Throw	-11914
▁brush	-11915
▁burgl	-11916
▁deeds	-11917
▁diary	-11918
▁disgu	-11919
▁dread	-11920
▁drift	-11921
▁greet	-11922
▁holes	-11923
▁inhib	-11924
▁inner	-11925
▁input	-11926
▁intim	-11927
▁laser	-11928
▁minim	-11929
▁penet	-11930
▁porch	-11931
▁reass	-11932
▁revel	-11933
▁roses	-11934
▁shred	-11935
▁sizes	-11936
▁sperm	-11937
▁swine	-11938
▁urban	-11939
attered	-11940
iatrist	-11941
itarian	-11942
itative	-11943
section	-11944
▁10,000	-11945
▁AUTHOR	-11946
▁Avenue	-11947
▁Budget	-11948
▁Bureau	-11949
▁Kansas	-11950
▁Sudden	-11951
▁Wonder	-11952
▁anonym	-11953
▁chicks	-11954
▁clouds	-11955
▁copper	-11956
▁deadly	-11957
▁deemed	-11958
▁dental	-11959
▁drawer	-11960
▁endure	-11961
▁gender	-11962
▁intact	-11963
▁metaph	-11964
▁naught	-11965
▁nerves	-11966
▁nigger	-11967
▁parked	-11968
▁rarely	-11969
▁rounds	-11970
▁rumors	-11971
▁sculpt	-11972
▁stores	-11973
▁survey	-11974
▁treaty	-11975
▁weekly	-11976
liminary	-11977
▁Careful	-11978
▁College	-11979
▁Friends	-11980
▁Hammond	-11981
▁Harvard	-11982
▁Kennedy	-11983
▁Medical	-11984
▁Mission	-11985
▁artists	-11986
▁blocked	-11987
▁closest	-11988
▁crowded	-11989
▁delayed	-11990
▁dioxide	-11991
▁farming	-11992
▁flights	-11993
▁founded	-11994
▁freaked	-11995
▁happily	-11996
▁honored	-11997
▁intense	-11998
▁liberty	-11999
▁microsc	-12000
▁minimal	-12001
▁placing	-12002
▁raising	-12003
▁removal	-12004
▁renewed	-12005
▁retreat	-12006
▁savings	-12007
▁seventh	-12008
▁speaker	-12009
▁stabbed	-12010
▁tearing	-12011
▁tension	-12012
▁thirsty	-12013
▁tunnels	-12014
▁variety	-12015
▁visible	-12016
▁welfare	-12017
▁Chairman	-12018
▁EUROPEAN	-12019
▁Hospital	-12020
▁Regional	-12021
▁Samantha	-12022
▁Strategy	-12023
▁appetite	-12024
▁assisted	-12025
▁breeding	-12026
▁civilian	-12027
▁currency	-12028
▁distinct	-12029
▁gambling	-12030
▁graduate	-12031
▁illusion	-12032
▁inspired	-12033
▁inviting	-12034
▁judicial	-12035
▁leverage	-12036
▁manifest	-12037
▁operated	-12038
▁opponent	-12039
▁parallel	-12040
▁premises	-12041
▁stepping	-12042
▁Sebastian	-12043
▁addresses	-12044
▁attacking	-12045
▁diagnosis	-12046
▁exhausted	-12047
▁expertise	-12048
▁formation	-12049
▁paintings	-12050
▁worthless	-12051
▁disturbing	-12052
▁intentions	-12053
▁separately	-12054
▁structural	-12055
▁withdrawal	-12056
▁Directorate	-12057
▁compartment	-12058
▁connections	-12059
▁derivatives	-12060
▁photographs	-12061
▁reservation	-12062
▁unnecessary	-12063
▁civilization	-12064
▁incorporated	-12065
▁restrictions	-12066
▁transitional	-12067
▁inappropriate	-12068
▁participating	-12069
▁sophisticated	-12070
▁classification	-12071
▁concentrations	-12072
▁disappointment	-12073
▁simultaneously	-12074
.:	-12075
42	-12076
81	-12077
AV	-12078
CT	-12079
Le	-12080
▁;	-12081
CIL	-12082
IDE	-12083
OPT	-12084
abe	-12085
aga	-12086
aka	-12087
bot	-12088
dam	-12089
eau	-12090
edi	-12091
fav	-12092
hai	-12093
ido	-12094
kyo	-12095
log	-12096
may	-12097
oks	-12098
oni	-12099
opa	-12100
rob	-12101
uds	-12102
zes	-12103
▁7,	-12104
▁Ak	-12105
▁Fu	-12106
▁GU	-12107
▁Gw	-12108
▁Il	-12109
▁NC	-12110
▁XX	-12111
▁lf	-12112
When	-12113
agen	-12114
arts	-12115
avan	-12116
bish	-12117
ctic	-12118
hank	-12119
hara	-12120
inch	-12121
iona	-12122
ione	-12123
itus	-12124
lynn	-12125
maid	-12126
odka	-12127
pple	-12128
prop	-12129
ptic	-12130
rape	-12131
rigg	-12132
rimp	-12133
seen	-12134
sers	-12135
stop	-12136
utic	-12137
ylum	-12138
▁Adv	-12139
▁Bol	-12140
▁Dog	-12141
▁Dub	-12142
▁Ear	-12143
▁Eur	-12144
▁GON	-12145
▁GOT	-12146
▁Jin	-12147
▁Jos	-12148
▁Pel	-12149
▁Pur	-12150
▁Web	-12151
▁bye	-12152
▁dod	-12153
▁fur	-12154
▁gap	-12155
▁mam	-12156
▁spr	-12157
/2001	-12158
ITION	-12159
armed	-12160
being	-12161
blood	-12162
ensed	-12163
▁2014	-12164
▁AIDS	-12165
▁Cale	-12166
▁Cert	-12167
▁Deep	-12168
▁Dest	-12169
▁GOOD	-12170
▁Juan	-12171
▁Line	-12172
▁Luck	-12173
▁Ohio	-12174
▁Repe	-12175
▁Rule	-12176
▁Zero	-12177
▁bicy	-12178
▁biod	-12179
▁bore	-12180
▁carn	-12181
▁dock	-12182
▁ease	-12183
▁flee	-12184
▁goat	-12185
▁hosp	-12186
▁mast	-12187
▁melt	-12188
▁mold	-12189
▁pops	-12190
▁pron	-12191
▁rank	-12192
▁semi	-12193
▁thie	-12194
▁tide	-12195
▁tits	-12196
▁tomb	-12197
▁undo	-12198
▁vary	-12199
arship	-12200
ington	-12201
istant	-12202
istent	-12203
market	-12204
ooping	-12205
▁Amber	-12206
▁Blake	-12207
▁Brend	-12208
▁Canad	-12209
▁Cause	-12210
▁Color	-12211
▁Doyle	-12212
▁Kenny	-12213
▁Kitty	-12214
▁Later	-12215
▁Moore	-12216
▁Quiet	-12217
▁RIGHT	-12218
▁Tokyo	-12219
▁Woman	-12220
▁aspir	-12221
▁blows	-12222
▁burns	-12223
▁chrom	-12224
▁cough	-12225
▁dried	-12226
▁fatal	-12227
▁glove	-12228
▁handc	-12229
▁heels	-12230
▁incap	-12231
▁links	-12232
▁sayin	-12233
▁sends	-12234
▁sorts	-12235
▁stiff	-12236
▁tense	-12237
▁wheat	-12238
emetery	-12239
igation	-12240
▁Caesar	-12241
▁Carson	-12242
▁Dawson	-12243
▁Donald	-12244
▁Engine	-12245
▁Fisher	-12246
▁Graham	-12247
▁Hudson	-12248
▁Inside	-12249
▁Julian	-12250
▁Miguel	-12251
▁Proble	-12252
▁Proced	-12253
▁Remind	-12254
▁Scient	-12255
▁Scully	-12256
▁Square	-12257
▁Sydney	-12258
▁Yellow	-12259
▁actors	-12260
▁awaits	-12261
▁bubble	-12262
▁carpet	-12263
▁correl	-12264
▁cursed	-12265
▁decade	-12266
▁expose	-12267
▁folder	-12268
▁hunter	-12269
▁incent	-12270
▁laptop	-12271
▁morgue	-12272
▁mouths	-12273
▁notion	-12274
▁popped	-12275
▁reckon	-12276
▁restra	-12277
▁salary	-12278
▁sucked	-12279
▁tariff	-12280
▁tastes	-12281
▁turkey	-12282
▁virtue	-12283
▁volcan	-12284
aternity	-12285
ductions	-12286
izations	-12287
uriosity	-12288
▁Address	-12289
▁Admiral	-12290
▁Channel	-12291
▁Country	-12292
▁Lithuan	-12293
▁Maximum	-12294
▁Nations	-12295
▁Prepare	-12296
▁Sweetie	-12297
▁Wallace	-12298
▁arguing	-12299
▁assured	-12300
▁capsule	-12301
▁colonel	-12302
▁dresses	-12303
▁existed	-12304
▁imposed	-12305
▁jeopard	-12306
▁legally	-12307
▁logical	-12308
▁pockets	-12309
▁qualify	-12310
▁recital	-12311
▁resolve	-12312
▁ruining	-12313
▁shotgun	-12314
▁shuttle	-12315
▁sweater	-12316
▁thermal	-12317
▁tobacco	-12318
▁torment	-12319
▁whistle	-12320
ellectual	-12321
itiveness	-12322
▁Caroline	-12323
▁Harrison	-12324
▁Reverend	-12325
▁Slovakia	-12326
▁Suddenly	-12327
▁Thompson	-12328
▁Veronica	-12329
▁backyard	-12330
▁choosing	-12331
▁cocktail	-12332
▁discreet	-12333
▁disgrace	-12334
▁estimate	-12335
▁forehead	-12336
▁imprison	-12337
▁injected	-12338
▁managing	-12339
▁paradise	-12340
▁province	-12341
▁relieved	-12342
▁respects	-12343
▁scenario	-12344
▁starving	-12345
▁strictly	-12346
▁switched	-12347
▁targeted	-12348
▁theories	-12349
▁unaccept	-12350
▁variable	-12351
▁weekends	-12352
▁worrying	-12353
▁Education	-12354
▁Jefferson	-12355
▁Operation	-12356
▁Represent	-12357
▁apologise	-12358
▁automatic	-12359
▁bartender	-12360
▁cancelled	-12361
▁correctly	-12362
▁departure	-12363
▁detention	-12364
▁exemption	-12365
▁finishing	-12366
▁initiated	-12367
▁inspector	-12368
▁organised	-12369
▁perimeter	-12370
▁privilege	-12371
▁referring	-12372
▁strengthe	-12373
▁transform	-12374
▁travelled	-12375
▁acceptance	-12376
▁ambassador	-12377
▁candidates	-12378
▁convenient	-12379
▁definitive	-12380
▁discussing	-12381
▁foundation	-12382
▁guarantees	-12383
▁healthcare	-12384
▁historical	-12385
▁philosophy	-12386
▁underneath	-12387
▁PARTICULARS	-12388
▁acknowledge	-12389
▁celebration	-12390
▁cooperating	-12391
▁exclusively	-12392
▁liabilities	-12393
▁malfunction	-12394
▁observation	-12395
▁confirmation	-12396
▁considerable	-12397
▁unacceptable	-12398
▁neighbourhood	-12399
▁questionnaire	-12400
24	-12401
54	-12402
96	-12403
Bl	-12404
FC	-12405
KS	-12406
OG	-12407
lu	-12408
MIN	-12409
OSE	-12410
ede	-12411
eem	-12412
ere	-12413
fly	-12414
gal	-12415
ims	-12416
lot	-12417
urd	-12418
▁66	-12419
▁8,	-12420
▁Iz	-12421
▁Ni	-12422
▁Ur	-12423
▁[4	-12424
▁au	-12425
.12.	-12426
OUGH	-12427
anne	-12428
asia	-12429
bird	-12430
bles	-12431
dest	-12432
ghed	-12433
hart	-12434
icit	-12435
imme	-12436
inky	-12437
jack	-12438
mith	-12439
mons	-12440
otch	-12441
oust	-12442
pack	-12443
plus	-12444
resa	-12445
ubby	-12446
uced	-12447
umph	-12448
usea	-12449
wait	-12450
when	-12451
▁107	-12452
▁12,	-12453
▁17.	-12454
▁193	-12455
▁Ana	-12456
▁CAR	-12457
▁Dal	-12458
▁Dom	-12459
▁Nov	-12460
▁Pam	-12461
▁Rab	-12462
▁Rea	-12463
▁VAT	-12464
▁Vas	-12465
▁Vel	-12466
▁ber	-12467
▁cad	-12468
▁cel	-12469
▁fug	-12470
▁hay	-12471
▁kar	-12472
▁nit	-12473
▁urg	-12474
▁zoo	-12475
adelp	-12476
eland	-12477
erman	-12478
gular	-12479
iques	-12480
isers	-12481
leton	-12482
print	-12483
sized	-12484
stick	-12485
▁$100	-12486
▁COME	-12487
▁Dian	-12488
▁Fish	-12489
▁Ivan	-12490
▁Lots	-12491
▁Mona	-12492
▁Neal	-12493
▁Past	-12494
▁Poly	-12495
▁Poss	-12496
▁Ring	-12497
▁SMEs	-12498
▁Shir	-12499
▁Slow	-12500
▁TAIL	-12501
▁Wars	-12502
▁Whoo	-12503
▁Yang	-12504
▁adol	-12505
▁cann	-12506
▁chew	-12507
▁cupc	-12508
▁fled	-12509
▁gard	-12510
▁gosh	-12511
▁heir	-12512
▁hipp	-12513
▁lads	-12514
▁meds	-12515
▁muff	-12516
▁narc	-12517
▁pole	-12518
▁slee	-12519
▁solo	-12520
▁stew	-12521
▁stip	-12522
▁surg	-12523
▁taxi	-12524
▁util	-12525
▁vine	-12526
ISSION	-12527
acters	-12528
change	-12529
ranean	-12530
stuffs	-12531
uality	-12532
▁1999/	-12533
▁Aaron	-12534
▁Baker	-12535
▁Colin	-12536
▁Crazy	-12537
▁Dixon	-12538
▁Drive	-12539
▁Felix	-12540
▁Fiona	-12541
▁Haley	-12542
▁Learn	-12543
▁Lydia	-12544
▁OTHER	-12545
▁Shoot	-12546
▁accus	-12547
▁alike	-12548
▁ambit	-12549
▁array	-12550
▁camps	-12551
▁chart	-12552
▁click	-12553
▁cliff	-12554
▁dizzy	-12555
▁fetch	-12556
▁firms	-12557
▁frost	-12558
▁gates	-12559
▁lease	-12560
▁spots	-12561
▁stall	-12562
▁stamp	-12563
▁wines	-12564
▁wired	-12565
ICATION	-12566
ULATION	-12567
achelor	-12568
because	-12569
berries	-12570
essions	-12571
essment	-12572
fashion	-12573
istance	-12574
umbling	-12575
▁Arnold	-12576
▁Bishop	-12577
▁Conrad	-12578
▁Double	-12579
▁Dwight	-12580
▁Elaine	-12581
▁Fortun	-12582
▁Golden	-12583
▁Harper	-12584
▁Leslie	-12585
▁Monroe	-12586
▁Prison	-12587
▁Robbie	-12588
▁Thirty	-12589
▁apples	-12590
▁barbec	-12591
▁bounce	-12592
▁deputy	-12593
▁dishes	-12594
▁format	-12595
▁hacked	-12596
▁holder	-12597
▁hypers	-12598
▁knives	-12599
▁league	-12600
▁locate	-12601
▁portal	-12602
▁presum	-12603
▁purity	-12604
▁resume	-12605
▁retain	-12606
▁senses	-12607
▁shoots	-12608
▁sorrow	-12609
▁sticks	-12610
▁subway	-12611
▁writes	-12612
adelphia	-12613
▁Bernard	-12614
▁Detroit	-12615
▁Foreign	-12616
▁Lincoln	-12617
▁Network	-12618
▁Phillip	-12619
▁Science	-12620
▁Taliban	-12621
▁Working	-12622
▁affects	-12623
▁begging	-12624
▁butcher	-12625
▁circles	-12626
▁classic	-12627
▁convinc	-12628
▁cookies	-12629
▁creates	-12630
▁decades	-12631
▁designs	-12632
▁despair	-12633
▁elephan	-12634
▁embassy	-12635
▁expects	-12636
▁glucose	-12637
▁grandpa	-12638
▁inherit	-12639
▁justify	-12640
▁massage	-12641
▁pending	-12642
▁prolong	-12643
▁recruit	-12644
▁rubbish	-12645
▁sucking	-12646
▁wealthy	-12647
efficient	-12648
▁Atlantis	-12649
▁Cardinal	-12650
▁Winthrop	-12651
▁additive	-12652
▁adjusted	-12653
▁agreeing	-12654
▁assembly	-12655
▁assholes	-12656
▁consolid	-12657
▁deserted	-12658
▁ensuring	-12659
▁equation	-12660
▁eternity	-12661
▁fabulous	-12662
▁financed	-12663
▁grandson	-12664
▁holidays	-12665
▁hopeless	-12666
▁hydrogen	-12667
▁invasion	-12668
▁mobility	-12669
▁overdose	-12670
▁overseas	-12671
▁pressing	-12672
▁realised	-12673
▁reciproc	-12674
▁screwing	-12675
▁searched	-12676
▁transmit	-12677
▁unstable	-12678
▁Hopefully	-12679
▁alongside	-12680
▁ambitious	-12681
▁awareness	-12682
▁backwards	-12683
▁believers	-12684
▁elections	-12685
▁eliminate	-12686
▁evaluated	-12687
▁graduated	-12688
▁honeymoon	-12689
▁investors	-12690
▁magazines	-12691
▁migration	-12692
▁negotiate	-12693
▁rehearsal	-12694
▁relatives	-12695
▁teenagers	-12696
▁terrorism	-12697
▁tolerance	-12698
▁Protection	-12699
▁accountant	-12700
▁companions	-12701
▁constitute	-12702
▁detectives	-12703
▁explaining	-12704
▁mechanisms	-12705
▁phenomenon	-12706
▁prescribed	-12707
▁Regulations	-12708
▁consequence	-12709
▁outstanding	-12710
▁temporarily	-12711
▁difficulties	-12712
▁psychiatrist	-12713
▁subcutaneous	-12714
82	-12715
86	-12716
:3	-12717
MM	-12718
MY	-12719
SS	-12720
dr	-12721
3).	-12722
ANG	-12723
ICK	-12724
UAL	-12725
hit	-12726
idi	-12727
ika	-12728
iov	-12729
jan	-12730
lay	-12731
ocy	-12732
osy	-12733
oya	-12734
spr	-12735
why	-12736
▁"'	-12737
▁3-	-12738
▁49	-12739
▁61	-12740
▁Ay	-12741
▁CR	-12742
▁EV	-12743
▁Ep	-12744
▁Es	-12745
▁GR	-12746
▁SG	-12747
▁ll	-12748
▁tu	-12749
2011	-12750
2013	-12751
CFSP	-12752
FORM	-12753
OUND	-12754
They	-12755
Well	-12756
Your	-12757
achi	-12758
alie	-12759
alin	-12760
anie	-12761
aria	-12762
ayed	-12763
bies	-12764
dale	-12765
ells	-12766
enza	-12767
ests	-12768
hett	-12769
ista	-12770
itia	-12771
link	-12772
mits	-12773
ollo	-12774
onic	-12775
race	-12776
rena	-12777
ribe	-12778
rice	-12779
rina	-12780
roid	-12781
rost	-12782
town	-12783
uity	-12784
wind	-12785
▁$50	-12786
▁***	-12787
▁1).	-12788
▁24.	-12789
▁ANN	-12790
▁FIR	-12791
▁Goo	-12792
▁HIM	-12793
▁Hop	-12794
▁OFF	-12795
▁Sem	-12796
▁Som	-12797
▁Sop	-12798
▁Wol	-12799
▁bin	-12800
▁gel	-12801
▁goo	-12802
▁pil	-12803
▁pud	-12804
▁ray	-12805
▁rug	-12806
▁sla	-12807
▁tan	-12808
▁tex	-12809
acles	-12810
aline	-12811
ancer	-12812
elect	-12813
erals	-12814
henyl	-12815
icket	-12816
ideon	-12817
ilipp	-12818
inion	-12819
irenz	-12820
owing	-12821
range	-12822
storm	-12823
three	-12824
▁3:00	-12825
▁BEEN	-12826
▁Bear	-12827
▁Bomb	-12828
▁Born	-12829
▁Cash	-12830
▁Fitz	-12831
▁Hear	-12832
▁Horn	-12833
▁Init	-12834
▁Kurt	-12835
▁Liam	-12836
▁Mack	-12837
▁Mick	-12838
▁Navy	-12839
▁Noah	-12840
▁Saul	-12841
▁Sent	-12842
▁Tess	-12843
▁True	-12844
▁Vera	-12845
▁WILL	-12846
▁Week	-12847
▁Zack	-12848
▁arts	-12849
▁bait	-12850
▁bees	-12851
▁cant	-12852
▁dorm	-12853
▁fork	-12854
▁idol	-12855
▁invo	-12856
▁john	-12857
▁pean	-12858
▁pork	-12859
▁raid	-12860
▁riot	-12861
▁sits	-12862
▁slot	-12863
▁tang	-12864
▁toug	-12865
▁tune	-12866
▁wage	-12867
▁writ	-12868
alties	-12869
coming	-12870
estern	-12871
forced	-12872
ittees	-12873
ogenic	-12874
porter	-12875
school	-12876
venile	-12877
venous	-12878
▁2006/	-12879
▁Allow	-12880
▁Artie	-12881
▁Buddy	-12882
▁Civil	-12883
▁Coast	-12884
▁Doing	-12885
▁Dream	-12886
▁Final	-12887
▁Heart	-12888
▁Hills	-12889
▁Local	-12890
▁Lower	-12891
▁Mummy	-12892
▁Nurse	-12893
▁Paper	-12894
▁Percy	-12895
▁Reese	-12896
▁Sofia	-12897
▁Wells	-12898
▁accum	-12899
▁boost	-12900
▁brake	-12901
▁brick	-12902
▁chuck	-12903
▁clone	-12904
▁comic	-12905
▁conqu	-12906
▁flame	-12907
▁halls	-12908
▁harsh	-12909
▁hunch	-12910
▁lemon	-12911
▁loses	-12912
▁meals	-12913
▁medal	-12914
▁minus	-12915
▁pipes	-12916
▁shine	-12917
▁swamp	-12918
▁tiger	-12919
▁wagon	-12920
▁wakes	-12921
ificent	-12922
inarian	-12923
▁Alfred	-12924
▁Applic	-12925
▁Cassie	-12926
▁Gloria	-12927
▁Making	-12928
▁Potter	-12929
▁Return	-12930
▁Rights	-12931
▁Seeing	-12932
▁Unlike	-12933
▁accent	-12934
▁blamed	-12935
▁brutal	-12936
▁empire	-12937
▁expiry	-12938
▁filthy	-12939
▁galaxy	-12940
▁hooked	-12941
▁hotels	-12942
▁humble	-12943
▁intake	-12944
▁lifted	-12945
▁liquor	-12946
▁losers	-12947
▁output	-12948
▁parade	-12949
▁parole	-12950
▁pencil	-12951
▁planes	-12952
▁purple	-12953
▁resent	-12954
▁respir	-12955
▁shovel	-12956
▁thirty	-12957
▁towels	-12958
▁waiter	-12959
▁warden	-12960
▁wheels	-12961
economic	-12962
favirenz	-12963
ulations	-12964
▁Belarus	-12965
▁COUNCIL	-12966
▁Croatia	-12967
▁Defense	-12968
▁Eastern	-12969
▁Emperor	-12970
▁PRODUCT	-12971
▁Perfect	-12972
▁Roberts	-12973
▁Vietnam	-12974
▁anxious	-12975
▁beliefs	-12976
▁density	-12977
▁dentist	-12978
▁drowned	-12979
▁endless	-12980
▁expired	-12981
▁feather	-12982
▁females	-12983
▁hormone	-12984
▁kidneys	-12985
▁laughed	-12986
▁lawsuit	-12987
▁lecture	-12988
▁matched	-12989
▁obliged	-12990
▁painter	-12991
▁pointed	-12992
▁sandwic	-12993
▁satisfy	-12994
▁segment	-12995
▁talents	-12996
▁updated	-12997
▁warming	-12998
▁whiskey	-12999
eneration	-13000
fashioned	-13001
urrection	-13002
▁Attorney	-13003
▁Duration	-13004
▁Intellig	-13005
▁Nicholas	-13006
▁Partners	-13007
▁Position	-13008
▁ambition	-13009
▁annoying	-13010
▁arriving	-13011
▁conclude	-13012
▁designer	-13013
▁destined	-13014
▁directed	-13015
▁efficacy	-13016
▁glorious	-13017
▁granting	-13018
▁harmless	-13019
▁helpless	-13020
▁knocking	-13021
▁launched	-13022
▁mistress	-13023
▁overwhel	-13024
▁preserve	-13025
▁prophecy	-13026
▁spinning	-13027
▁sympathy	-13028
▁verified	-13029
Commission	-13030
▁Amendment	-13031
▁Christine	-13032
▁Executive	-13033
▁Institute	-13034
▁alcoholic	-13035
▁ancestors	-13036
▁arguments	-13037
▁confusing	-13038
▁convicted	-13039
▁curiosity	-13040
▁dissolved	-13041
▁disturbed	-13042
▁forthwith	-13043
▁fortunate	-13044
▁preserved	-13045
▁producing	-13046
▁purchased	-13047
▁renewable	-13048
▁responded	-13049
▁terrified	-13050
▁voluntary	-13051
▁Christians	-13052
▁characters	-13053
▁compatible	-13054
▁convincing	-13055
▁disrespect	-13056
▁evacuation	-13057
▁frequently	-13058
▁governance	-13059
▁guaranteed	-13060
▁indicators	-13061
▁legitimate	-13062
▁micrograms	-13063
▁neighbours	-13064
▁opposition	-13065
▁physically	-13066
▁quarantine	-13067
▁questioned	-13068
▁responding	-13069
▁restricted	-13070
▁retirement	-13071
▁structures	-13072
▁surprising	-13073
▁techniques	-13074
▁circulation	-13075
▁communities	-13076
▁controlling	-13077
▁designation	-13078
▁functioning	-13079
▁surrounding	-13080
▁trafficking	-13081
▁transparent	-13082
▁accomplished	-13083
▁conventional	-13084
▁independence	-13085
▁appropriation	-13086
▁certification	-13087
▁predominantly	-13088
▁technological	-13089
▁competitiveness	-13090
65	-13091
BC	-13092
DR	-13093
Go	-13094
Jo	-13095
MP	-13096
SR	-13097
UB	-13098
ui	-13099
ACH	-13100
ARL	-13101
EAH	-13102
ESC	-13103
LIS	-13104
ONS	-13105
REE	-13106
agu	-13107
aya	-13108
cal	-13109
chy	-13110
gus	-13111
idy	-13112
ige	-13113
nat	-13114
ovo	-13115
oxy	-13116
sun	-13117
uki	-13118
zel	-13119
▁41	-13120
▁99	-13121
▁AP	-13122
▁EF	-13123
▁Et	-13124
▁Gi	-13125
▁Jr	-13126
▁PD	-13127
▁PO	-13128
▁ov	-13129
(1),	-13130
EDIC	-13131
INGS	-13132
NING	-13133
abel	-13134
acer	-13135
bone	-13136
conf	-13137
conn	-13138
erie	-13139
fold	-13140
from	-13141
gard	-13142
gina	-13143
hero	-13144
iker	-13145
ithm	-13146
kers	-13147
main	-13148
meat	-13149
midt	-13150
nest	-13151
note	-13152
otox	-13153
pted	-13154
quin	-13155
roph	-13156
▁(3)	-13157
▁11,	-13158
▁19.	-13159
▁20.	-13160
▁Bax	-13161
▁Bry	-13162
▁Buy	-13163
▁Fab	-13164
▁Gee	-13165
▁Heh	-13166
▁Ker	-13167
▁Kle	-13168
▁LET	-13169
▁Lau	-13170
▁Mah	-13171
▁Mia	-13172
▁Mix	-13173
▁Nav	-13174
▁OUR	-13175
▁Obs	-13176
▁Opt	-13177
▁Pas	-13178
▁REP	-13179
▁Ran	-13180
▁Rot	-13181
▁ana	-13182
▁bol	-13183
▁cue	-13184
▁dun	-13185
▁era	-13186
▁jar	-13187
▁lia	-13188
▁loo	-13189
▁luc	-13190
▁lux	-13191
▁mos	-13192
▁oct	-13193
▁pup	-13194
▁rod	-13195
▁slo	-13196
▁spa	-13197
▁ted	-13198
▁whi	-13199
actic	-13200
adder	-13201
amous	-13202
arity	-13203
asive	-13204
aughs	-13205
count	-13206
enson	-13207
fight	-13208
geons	-13209
idity	-13210
inity	-13211
liest	-13212
maker	-13213
month	-13214
orrha	-13215
owned	-13216
phine	-13217
piece	-13218
plate	-13219
ricia	-13220
stage	-13221
umper	-13222
utton	-13223
▁7:00	-13224
▁9:00	-13225
▁Beta	-13226
▁Brun	-13227
▁Chen	-13228
▁Deal	-13229
▁Disc	-13230
▁Drew	-13231
▁EVER	-13232
▁Fall	-13233
▁Foot	-13234
▁Gard	-13235
▁Gina	-13236
▁Hend	-13237
▁Hood	-13238
▁Kane	-13239
▁Ming	-13240
▁Novo	-13241
▁Pain	-13242
▁Pink	-13243
▁Pitt	-13244
▁Reed	-13245
▁Shad	-13246
▁Teal	-13247
▁Trib	-13248
▁Vira	-13249
▁WANT	-13250
▁YEAH	-13251
▁alle	-13252
▁ammo	-13253
▁anch	-13254
▁bald	-13255
▁beds	-13256
▁beet	-13257
▁bets	-13258
▁brac	-13259
▁dull	-13260
▁eats	-13261
▁frog	-13262
▁grey	-13263
▁herd	-13264
▁hint	-13265
▁inqu	-13266
▁keen	-13267
▁leap	-13268
▁memo	-13269
▁mete	-13270
▁mint	-13271
▁pawn	-13272
▁peel	-13273
▁ratt	-13274
▁sack	-13275
▁snap	-13276
▁sulf	-13277
▁wret	-13278
▁yoga	-13279
acious	-13280
anches	-13281
ancies	-13282
arding	-13283
iamond	-13284
usions	-13285
veland	-13286
wegian	-13287
▁2003.	-13288
▁Advis	-13289
▁Carla	-13290
▁Claus	-13291
▁Erica	-13292
▁Eston	-13293
▁Flash	-13294
▁Flynn	-13295
▁Focus	-13296
▁Front	-13297
▁Funny	-13298
▁MEDIC	-13299
▁Mario	-13300
▁Merry	-13301
▁Olive	-13302
▁Order	-13303
▁Paula	-13304
▁Peggy	-13305
▁Sammy	-13306
▁Screw	-13307
▁Sever	-13308
▁Space	-13309
▁Store	-13310
▁Stuff	-13311
▁audio	-13312
▁beats	-13313
▁beers	-13314
▁blade	-13315
▁bounc	-13316
▁crops	-13317
▁diner	-13318
▁diver	-13319
▁fears	-13320
▁feeds	-13321
▁hobby	-13322
▁index	-13323
▁jeans	-13324
▁newly	-13325
▁nigga	-13326
▁ofthe	-13327
▁rides	-13328
▁rumor	-13329
▁shore	-13330
▁snack	-13331
▁spite	-13332
▁spook	-13333
▁towns	-13334
▁tubes	-13335
▁utter	-13336
▁vigil	-13337
▁vodka	-13338
▁wages	-13339
▁winds	-13340
carbons	-13341
hydroxy	-13342
ilation	-13343
ipation	-13344
ushroom	-13345
▁Barnes	-13346
▁Columb	-13347
▁Duncan	-13348
▁Floren	-13349
▁Holmes	-13350
▁Philip	-13351
▁Porter	-13352
▁Prepar	-13353
▁Reggie	-13354
▁Rogers	-13355
▁Single	-13356
▁acquis	-13357
▁assign	-13358
▁boards	-13359
▁chased	-13360
▁elabor	-13361
▁excret	-13362
▁favors	-13363
▁feared	-13364
▁fibres	-13365
▁fitted	-13366
▁fucker	-13367
▁goddam	-13368
▁gossip	-13369
▁hatred	-13370
▁hereto	-13371
▁hiring	-13372
▁marine	-13373
▁mature	-13374
▁nicely	-13375
▁overre	-13376
▁polite	-13377
▁rental	-13378
▁roller	-13379
▁rushed	-13380
▁shorts	-13381
▁sleeps	-13382
▁solely	-13383
▁stages	-13384
▁stimul	-13385
▁theore	-13386
▁tipped	-13387
▁vagina	-13388
▁viable	-13389
▁wolves	-13390
American	-13391
Chuckles	-13392
ewitness	-13393
minister	-13394
resident	-13395
ribution	-13396
▁Account	-13397
▁Antonio	-13398
▁Brennan	-13399
▁Collins	-13400
▁Houston	-13401
▁Iceland	-13402
▁Knowing	-13403
▁Limited	-13404
▁Meaning	-13405
▁Shirley	-13406
▁Voyager	-13407
▁acquire	-13408
▁candles	-13409
▁cardiac	-13410
▁cleaner	-13411
▁compuls	-13412
▁curtain	-13413
▁deficit	-13414
▁descend	-13415
▁desired	-13416
▁distant	-13417
▁eternal	-13418
▁evolved	-13419
▁excuses	-13420
▁execute	-13421
▁fabrics	-13422
▁fiancée	-13423
▁finance	-13424
▁fulfill	-13425
▁hallway	-13426
▁hostile	-13427
▁hypogly	-13428
▁intimid	-13429
▁issuing	-13430
▁liberal	-13431
▁missile	-13432
▁neglect	-13433
▁observe	-13434
▁pudding	-13435
▁rabbits	-13436
▁relaxed	-13437
▁retired	-13438
▁risking	-13439
▁sailing	-13440
▁shadows	-13441
▁stadium	-13442
▁stretch	-13443
▁tattoos	-13444
▁District	-13445
▁Facebook	-13446
▁Function	-13447
▁Peterson	-13448
▁Sullivan	-13449
▁Training	-13450
▁acquired	-13451
▁avoiding	-13452
▁channels	-13453
▁claiming	-13454
▁commonly	-13455
▁confirms	-13456
▁crawling	-13457
▁disagree	-13458
▁dragging	-13459
▁drowning	-13460
▁employer	-13461
▁engineer	-13462
▁evaluate	-13463
▁floating	-13464
▁marketed	-13465
▁promoted	-13466
▁prospect	-13467
▁rational	-13468
▁reserves	-13469
▁restored	-13470
▁resulted	-13471
▁sacrific	-13472
▁shipment	-13473
▁shipping	-13474
▁stressed	-13475
▁validity	-13476
▁waitress	-13477
ensitivity	-13478
▁Cleveland	-13479
▁MEDICINAL	-13480
▁Norwegian	-13481
▁Viraferon	-13482
▁achieving	-13483
▁calculate	-13484
▁catastrop	-13485
▁classroom	-13486
▁compounds	-13487
▁congratul	-13488
▁demanding	-13489
▁discovery	-13490
▁hepatitis	-13491
▁hospitals	-13492
▁importers	-13493
▁inventory	-13494
▁messenger	-13495
▁partially	-13496
▁reporters	-13497
▁residents	-13498
▁transfers	-13499
▁withdrawn	-13500
▁Ambassador	-13501
▁Eurosystem	-13502
▁Operations	-13503
▁REGULATION	-13504
▁approached	-13505
▁boundaries	-13506
▁complaints	-13507
▁contractor	-13508
▁discipline	-13509
▁industries	-13510
▁navigation	-13511
▁originally	-13512
▁psychopath	-13513
▁remarkable	-13514
▁respective	-13515
▁transition	-13516
▁volunteers	-13517
▁Environment	-13518
▁Manufacture	-13519
▁Technically	-13520
▁adjustments	-13521
▁antibiotics	-13522
▁concomitant	-13523
▁immigration	-13524
▁inspiration	-13525
▁interaction	-13526
▁magnificent	-13527
▁potentially	-13528
▁proposition	-13529
▁reconstruct	-13530
▁Organisation	-13531
▁Philadelphia	-13532
▁concentrated	-13533
▁headquarters	-13534
▁humanitarian	-13535
▁intellectual	-13536
▁interrupting	-13537
▁investigated	-13538
▁investigator	-13539
▁satisfaction	-13540
▁unbelievable	-13541
▁AUTHORISATION	-13542
▁interpretation	-13543
""	-13544
))	-13545
Ex	-13546
PG	-13547
PH	-13548
TC	-13549
Un	-13550
ju	-13551
.’;	-13552
8).	-13553
ADE	-13554
ASS	-13555
AST	-13556
ITS	-13557
Not	-13558
OLL	-13559
aki	-13560
ben	-13561
bic	-13562
cop	-13563
dig	-13564
hex	-13565
his	-13566
hou	-13567
igs	-13568
ivo	-13569
jah	-13570
lox	-13571
mad	-13572
mph	-13573
nox	-13574
pay	-13575
rec	-13576
riv	-13577
rup	-13578
sea	-13579
upp	-13580
▁05	-13581
▁2:	-13582
▁55	-13583
▁59	-13584
▁72	-13585
▁DA	-13586
▁Du	-13587
▁FE	-13588
▁Gy	-13589
▁IX	-13590
▁Ox	-13591
▁SD	-13592
▁Ya	-13593
▁cm	-13594
▁dy	-13595
0000	-13596
Come	-13597
ICAL	-13598
asis	-13599
disc	-13600
enha	-13601
ethe	-13602
game	-13603
hamm	-13604
hist	-13605
ibal	-13606
isle	-13607
last	-13608
mill	-13609
ngen	-13610
olis	-13611
rust	-13612
stat	-13613
uddy	-13614
▁13,	-13615
▁14,	-13616
▁ACP	-13617
▁ACT	-13618
▁ART	-13619
▁Cry	-13620
▁DVD	-13621
▁Due	-13622
▁Fac	-13623
▁Gem	-13624
▁Gun	-13625
▁Lem	-13626
▁Lip	-13627
▁Liv	-13628
▁Mun	-13629
▁NAS	-13630
▁Nad	-13631
▁Nap	-13632
▁POS	-13633
▁PRC	-13634
▁REL	-13635
▁Raf	-13636
▁Ref	-13637
▁Sie	-13638
▁Tot	-13639
▁Und	-13640
▁VER	-13641
▁Vis	-13642
▁[3]	-13643
▁coy	-13644
▁dip	-13645
▁fax	-13646
▁gem	-13647
▁kin	-13648
▁ner	-13649
▁pla	-13650
▁vap	-13651
allas	-13652
amble	-13653
anded	-13654
aning	-13655
ariat	-13656
atics	-13657
bling	-13658
bound	-13659
brush	-13660
chant	-13661
human	-13662
ierra	-13663
illes	-13664
isons	-13665
liers	-13666
mares	-13667
obile	-13668
ocaly	-13669
ocate	-13670
ounge	-13671
proof	-13672
stall	-13673
woman	-13674
▁1990	-13675
▁1999	-13676
▁Anti	-13677
▁Base	-13678
▁Bree	-13679
▁Buff	-13680
▁Copy	-13681
▁Cord	-13682
▁Dawn	-13683
▁Erin	-13684
▁Exam	-13685
▁Fact	-13686
▁Gate	-13687
▁Jeez	-13688
▁Lana	-13689
▁Maur	-13690
▁Nina	-13691
▁Omar	-13692
▁SPEC	-13693
▁Self	-13694
▁Sire	-13695
▁Snow	-13696
▁Subt	-13697
▁Tiff	-13698
▁WHEN	-13699
▁Wild	-13700
▁Wish	-13701
▁Xena	-13702
▁Yale	-13703
▁arom	-13704
▁arse	-13705
▁bent	-13706
▁bush	-13707
▁gown	-13708
▁hath	-13709
▁inev	-13710
▁lamb	-13711
▁latt	-13712
▁mice	-13713
▁myth	-13714
▁neat	-13715
▁papa	-13716
▁pond	-13717
▁pose	-13718
▁prey	-13719
▁quid	-13720
▁rage	-13721
▁ramp	-13722
▁rend	-13723
▁ribs	-13724
▁surf	-13725
▁unle	-13726
▁urge	-13727
astics	-13728
eoples	-13729
iliary	-13730
loaded	-13731
people	-13732
rition	-13733
umbled	-13734
writer	-13735
▁ADOPT	-13736
▁Adams	-13737
▁Apart	-13738
▁Avery	-13739
▁Burns	-13740
▁Clara	-13741
▁Crane	-13742
▁Crime	-13743
▁Daily	-13744
▁Diane	-13745
▁Exper	-13746
▁Falls	-13747
▁Funds	-13748
▁GOING	-13749
▁Janet	-13750
▁Piper	-13751
▁Rocky	-13752
▁Sugar	-13753
▁adren	-13754
▁ankle	-13755
▁arrow	-13756
▁blink	-13757
▁breed	-13758
▁clues	-13759
▁displ	-13760
▁dwell	-13761
▁elite	-13762
▁excit	-13763
▁immun	-13764
▁merry	-13765
▁munic	-13766
▁petty	-13767
▁picks	-13768
▁posts	-13769
▁recyc	-13770
▁renov	-13771
▁sakes	-13772
▁scars	-13773
▁scent	-13774
▁shack	-13775
▁shave	-13776
▁skate	-13777
▁skies	-13778
▁skirt	-13779
▁spies	-13780
▁spoil	-13781
▁squee	-13782
▁stere	-13783
▁sting	-13784
▁subsc	-13785
▁tales	-13786
▁tanks	-13787
▁topic	-13788
▁towel	-13789
▁veins	-13790
▁venge	-13791
▁waist	-13792
▁werew	-13793
▁widow	-13794
▁width	-13795
ecoming	-13796
enstein	-13797
eredith	-13798
feeding	-13799
heading	-13800
hearted	-13801
ideline	-13802
ipients	-13803
ivation	-13804
ometric	-13805
ourable	-13806
ulative	-13807
▁Calvin	-13808
▁Couple	-13809
▁Denise	-13810
▁Figure	-13811
▁Former	-13812
▁Foster	-13813
▁Keller	-13814
▁Lionel	-13815
▁Murphy	-13816
▁Richie	-13817
▁Rodney	-13818
▁Sector	-13819
▁Sodium	-13820
▁Sookie	-13821
▁Turner	-13822
▁accuse	-13823
▁allies	-13824
▁backed	-13825
▁balcon	-13826
▁ballet	-13827
▁behave	-13828
▁bracel	-13829
▁bucket	-13830
▁chains	-13831
▁consec	-13832
▁contem	-13833
▁corrid	-13834
▁decomp	-13835
▁dreamt	-13836
▁equity	-13837
▁flames	-13838
▁framed	-13839
▁grants	-13840
▁hammer	-13841
▁hockey	-13842
▁inches	-13843
▁intent	-13844
▁ladder	-13845
▁matrix	-13846
▁native	-13847
▁potato	-13848
▁potent	-13849
▁praise	-13850
▁puzzle	-13851
▁radius	-13852
▁refers	-13853
▁render	-13854
▁rented	-13855
▁sensor	-13856
▁shrimp	-13857
▁smoked	-13858
▁summon	-13859
▁theirs	-13860
▁vacuum	-13861
▁valley	-13862
▁verify	-13863
hattered	-13864
irements	-13865
▁Connect	-13866
▁Freedom	-13867
▁Indians	-13868
▁Insulin	-13869
▁Jeffrey	-13870
▁Marines	-13871
▁Opinion	-13872
▁Release	-13873
▁Suppose	-13874
▁alleged	-13875
▁anxiety	-13876
▁awarded	-13877
▁blanket	-13878
▁boiling	-13879
▁breasts	-13880
▁camping	-13881
▁earthqu	-13882
▁emperor	-13883
▁failing	-13884
▁graphic	-13885
▁gunshot	-13886
▁haunted	-13887
▁heavily	-13888
▁hunters	-13889
▁implant	-13890
▁impulse	-13891
▁madness	-13892
▁masters	-13893
▁mineral	-13894
▁nations	-13895
▁naughty	-13896
▁neutral	-13897
▁nursing	-13898
▁physics	-13899
▁presume	-13900
▁radical	-13901
▁romance	-13902
▁sausage	-13903
▁servers	-13904
▁strings	-13905
▁theatre	-13906
▁thunder	-13907
▁tractor	-13908
▁twisted	-13909
▁Airlines	-13910
▁Almighty	-13911
▁Schengen	-13912
▁abducted	-13913
▁adorable	-13914
▁bacteria	-13915
▁chickens	-13916
▁collabor	-13917
▁constitu	-13918
▁delicate	-13919
▁diameter	-13920
▁distingu	-13921
▁distress	-13922
▁electron	-13923
▁employed	-13924
▁episodes	-13925
▁excreted	-13926
▁finances	-13927
▁grounded	-13928
▁guardian	-13929
▁immortal	-13930
▁infinite	-13931
▁invested	-13932
▁magnetic	-13933
▁matching	-13934
▁mentally	-13935
▁occupied	-13936
▁overcome	-13937
▁password	-13938
▁precinct	-13939
▁profound	-13940
▁stripper	-13941
▁sunlight	-13942
▁troubled	-13943
▁Accession	-13944
▁PACKAGING	-13945
▁activated	-13946
▁anonymous	-13947
▁assaulted	-13948
▁attempted	-13949
▁authentic	-13950
▁certified	-13951
▁defending	-13952
▁dependent	-13953
▁detection	-13954
▁followers	-13955
▁governing	-13956
▁identical	-13957
▁improving	-13958
▁operative	-13959
▁ownership	-13960
▁packaging	-13961
▁publicity	-13962
▁surprises	-13963
▁suspicion	-13964
▁Additional	-13965
▁Assessment	-13966
▁COMMISSION	-13967
▁Revolution	-13968
▁absorption	-13969
▁casualties	-13970
▁completion	-13971
▁corruption	-13972
▁derogation	-13973
▁extraction	-13974
▁forgetting	-13975
▁kilometers	-13976
▁membership	-13977
▁nightmares	-13978
▁occupation	-13979
▁programmed	-13980
▁reductions	-13981
▁sandwiches	-13982
▁definitions	-13983
▁discussions	-13984
▁distraction	-13985
▁experiments	-13986
▁girlfriends	-13987
▁programming	-13988
▁reservations	-13989
▁conversations	-13990
▁entertainment	-13991
▁psychological	-13992
▁Administrative	-13993
▁congratulations	-13994
-(	-13995
28	-13996
2:	-13997
77	-13998
88	-13999
Be	-14000
DA	-14001
DE	-14002
IZ	-14003
Ps	-14004
SH	-14005
UE	-14006
ku	-14007
tw	-14008
(19	-14009
-10	-14010
20.	-14011
Can	-14012
INT	-14013
MAN	-14014
ONG	-14015
bin	-14016
cup	-14017
del	-14018
dri	-14019
egr	-14020
eks	-14021
hee	-14022
lit	-14023
lon	-14024
oft	-14025
ogy	-14026
oys	-14027
rah	-14028
rez	-14029
rov	-14030
ser	-14031
yer	-14032
▁53	-14033
▁54	-14034
▁Hm	-14035
▁LE	-14036
▁ML	-14037
▁PH	-14038
▁SW	-14039
▁Vo	-14040
▁nr	-14041
▁nu	-14042
...!	-14043
acin	-14044
acre	-14045
anca	-14046
ardi	-14047
ashi	-14048
atar	-14049
atom	-14050
bows	-14051
core	-14052
ello	-14053
enix	-14054
etal	-14055
etsy	-14056
fits	-14057
glas	-14058
hoea	-14059
icut	-14060
ilia	-14061
isse	-14062
lene	-14063
lies	-14064
mble	-14065
mind	-14066
nuts	-14067
orus	-14068
ovan	-14069
roly	-14070
take	-14071
test	-14072
user	-14073
wall	-14074
▁10%	-14075
▁90%	-14076
▁ACC	-14077
▁Aah	-14078
▁Bit	-14079
▁Bou	-14080
▁Bub	-14081
▁Cel	-14082
▁EXP	-14083
▁Esc	-14084
▁Exp	-14085
▁Kaz	-14086
▁Kha	-14087
▁McN	-14088
▁Pai	-14089
▁Rap	-14090
▁Rio	-14091
▁Sac	-14092
▁Sel	-14093
▁Sin	-14094
▁VII	-14095
▁Wha	-14096
▁cla	-14097
▁cri	-14098
▁dop	-14099
▁ell	-14100
▁ery	-14101
▁lid	-14102
▁nan	-14103
▁pel	-14104
▁spp	-14105
2004,	-14106
Brien	-14107
Where	-14108
andra	-14109
anity	-14110
ansom	-14111
aphne	-14112
avent	-14113
azide	-14114
balls	-14115
block	-14116
chair	-14117
eness	-14118
eties	-14119
harma	-14120
heast	-14121
ivate	-14122
matic	-14123
mbuds	-14124
overs	-14125
which	-14126
▁Balt	-14127
▁Bent	-14128
▁Bond	-14129
▁COMP	-14130
▁Chap	-14131
▁Cook	-14132
▁Craw	-14133
▁Film	-14134
▁Hugo	-14135
▁Jill	-14136
▁Joel	-14137
▁Lola	-14138
▁Lore	-14139
▁Meat	-14140
▁Nash	-14141
▁Nazi	-14142
▁Nord	-14143
▁Ruby	-14144
▁SOME	-14145
▁Shel	-14146
▁Sold	-14147
▁Sort	-14148
▁Stri	-14149
▁TELL	-14150
▁View	-14151
▁Wald	-14152
▁Walt	-14153
▁aged	-14154
▁arth	-14155
▁beep	-14156
▁chim	-14157
▁clan	-14158
▁coke	-14159
▁cunt	-14160
▁dism	-14161
▁duly	-14162
▁emer	-14163
▁fees	-14164
▁fier	-14165
▁folk	-14166
▁gren	-14167
▁grip	-14168
▁limb	-14169
▁lure	-14170
▁mmol	-14171
▁moms	-14172
▁mono	-14173
▁pace	-14174
▁pale	-14175
▁pint	-14176
▁pulp	-14177
▁quad	-14178
▁rook	-14179
▁soap	-14180
▁sync	-14181
▁whip	-14182
▁york	-14183
abouts	-14184
aining	-14185
aments	-14186
celona	-14187
endent	-14188
infect	-14189
irting	-14190
issors	-14191
levard	-14192
monium	-14193
ocated	-14194
razole	-14195
ricane	-14196
taking	-14197
ussion	-14198
▁2001/	-14199
▁2007,	-14200
▁Apple	-14201
▁Caleb	-14202
▁Creat	-14203
▁Crist	-14204
▁Eagle	-14205
▁Edgar	-14206
▁Field	-14207
▁Finch	-14208
▁Hence	-14209
▁INTER	-14210
▁Jules	-14211
▁Knock	-14212
▁Level	-14213
▁Maced	-14214
▁Metro	-14215
▁Milan	-14216
▁Navig	-14217
▁Patty	-14218
▁Petty	-14219
▁Sarge	-14220
▁Sasha	-14221
▁Serge	-14222
▁Stick	-14223
▁WHERE	-14224
▁WOULD	-14225
▁Whole	-14226
▁Works	-14227
▁Yours	-14228
▁abund	-14229
▁bells	-14230
▁blunt	-14231
▁boobs	-14232
▁booth	-14233
▁clerk	-14234
▁diarr	-14235
▁docks	-14236
▁ducks	-14237
▁dummy	-14238
▁eager	-14239
▁entre	-14240
▁exams	-14241
▁grasp	-14242
▁grind	-14243
▁indul	-14244
▁macro	-14245
▁mines	-14246
▁mobil	-14247
▁niece	-14248
▁pause	-14249
▁probe	-14250
▁ranch	-14251
▁reimb	-14252
▁sabot	-14253
▁saint	-14254
▁spine	-14255
▁stalk	-14256
▁tires	-14257
▁valve	-14258
▁wiped	-14259
▁wrist	-14260
caution	-14261
instein	-14262
itating	-14263
▁Brooke	-14264
▁Copper	-14265
▁Danish	-14266
▁Dinner	-14267
▁Garcia	-14268
▁Gibson	-14269
▁Gideon	-14270
▁Ground	-14271
▁Luther	-14272
▁Method	-14273
▁Mostly	-14274
▁Murder	-14275
▁Norman	-14276
▁Planet	-14277
▁Regist	-14278
▁Repeat	-14279
▁Script	-14280
▁Strong	-14281
▁Stupid	-14282
▁Trevor	-14283
▁aggreg	-14284
▁agrees	-14285
▁amazed	-14286
▁banned	-14287
▁chairs	-14288
▁cherry	-14289
▁coated	-14290
▁convey	-14291
▁cruise	-14292
▁dagger	-14293
▁dishon	-14294
▁errand	-14295
▁extrem	-14296
▁fantas	-14297
▁filing	-14298
▁freely	-14299
▁gently	-14300
▁habits	-14301
▁impose	-14302
▁injust	-14303
▁kindly	-14304
▁lasted	-14305
▁lounge	-14306
▁maniac	-14307
▁marvel	-14308
▁metals	-14309
▁mining	-14310
▁pepper	-14311
▁petrol	-14312
▁pirate	-14313
▁pledge	-14314
▁resort	-14315
▁scares	-14316
▁shifts	-14317
▁shitty	-14318
▁snakes	-14319
▁spared	-14320
▁spider	-14321
▁summit	-14322
▁sunset	-14323
▁trucks	-14324
▁trusts	-14325
approval	-14326
ensitive	-14327
esirable	-14328
▁Academy	-14329
▁Brandon	-14330
▁Current	-14331
▁Depends	-14332
▁Diamond	-14333
▁Minutes	-14334
▁Schmidt	-14335
▁Society	-14336
▁Strange	-14337
▁Subject	-14338
▁Teacher	-14339
▁academy	-14340
▁adolesc	-14341
▁bedtime	-14342
▁cabinet	-14343
▁catches	-14344
▁centres	-14345
▁chatter	-14346
▁contrad	-14347
▁coroner	-14348
▁eastern	-14349
▁enlarge	-14350
▁ensures	-14351
▁entitle	-14352
▁entries	-14353
▁entrust	-14354
▁expense	-14355
▁freakin	-14356
▁freezer	-14357
▁gallery	-14358
▁haircut	-14359
▁ignored	-14360
▁knitted	-14361
▁liaison	-14362
▁lottery	-14363
▁monkeys	-14364
▁needing	-14365
▁nominal	-14366
▁reactor	-14367
▁sadness	-14368
▁smashed	-14369
▁stuffed	-14370
▁symbols	-14371
▁venture	-14372
▁Anderson	-14373
▁Campbell	-14374
▁Florence	-14375
▁Franklin	-14376
▁Hamilton	-14377
▁Lawrence	-14378
▁Meredith	-14379
▁PRODUCTS	-14380
▁Southern	-14381
▁Starting	-14382
▁Straight	-14383
▁Wherever	-14384
▁aviation	-14385
▁bachelor	-14386
▁barbecue	-14387
▁barriers	-14388
▁climbing	-14389
▁cohesion	-14390
▁courtesy	-14391
▁daylight	-14392
▁defeated	-14393
▁deposits	-14394
▁dispatch	-14395
▁enhanced	-14396
▁examples	-14397
▁exploded	-14398
▁fingerna	-14399
▁forecast	-14400
▁holdings	-14401
▁hostages	-14402
▁ignorant	-14403
▁insisted	-14404
▁involves	-14405
▁lighting	-14406
▁mattress	-14407
▁monetary	-14408
▁ordering	-14409
▁refugees	-14410
▁reversed	-14411
▁reviewed	-14412
▁speeches	-14413
▁sunshine	-14414
▁swinging	-14415
▁teenager	-14416
▁thankful	-14417
▁tomatoes	-14418
▁vanished	-14419
▁violated	-14420
iterranean	-14421
▁Different	-14422
▁Hungarian	-14423
▁Objective	-14424
▁Paragraph	-14425
▁Procedure	-14426
▁affection	-14427
▁astronaut	-14428
▁briefcase	-14429
▁cartridge	-14430
▁forensics	-14431
▁innocence	-14432
▁integrity	-14433
▁intermedi	-14434
▁pneumonia	-14435
▁reinforce	-14436
▁relevance	-14437
▁shattered	-14438
▁spaceship	-14439
▁suppliers	-14440
▁swallowed	-14441
▁Federation	-14442
▁complement	-14443
▁containers	-14444
▁eliminated	-14445
▁enterprise	-14446
▁eyewitness	-14447
▁initiation	-14448
▁innovative	-14449
▁interviews	-14450
▁politician	-14451
▁separation	-14452
▁strategies	-14453
▁supervisor	-14454
▁thoroughly	-14455
▁toothbrush	-14456
▁tournament	-14457
▁underlying	-14458
▁undertaken	-14459
▁Agriculture	-14460
▁Cooperation	-14461
▁Fortunately	-14462
▁accessories	-14463
▁coordinated	-14464
▁departments	-14465
▁emotionally	-14466
▁indications	-14467
▁intravenous	-14468
▁introducing	-14469
▁Nevertheless	-14470
▁associations	-14471
▁congratulate	-14472
▁considerably	-14473
▁constitution	-14474
▁expectations	-14475
▁veterinarian	-14476
▁contamination	-14477
▁disappearance	-14478
▁granddaughter	-14479
▁institutional	-14480
▁underestimate	-14481
▁understandable	-14482
0)	-14483
27	-14484
61	-14485
76	-14486
At	-14487
CP	-14488
FL	-14489
Gu	-14490
OB	-14491
Qu	-14492
aa	-14493
gi	-14494
hh	-14495
ml	-14496
ql	-14497
wh	-14498
yo	-14499
yy	-14500
===	-14501
FER	-14502
Get	-14503
IME	-14504
OTT	-14505
adi	-14506
aku	-14507
aud	-14508
def	-14509
dim	-14510
hey	-14511
iki	-14512
obs	-14513
psy	-14514
sql	-14515
sur	-14516
til	-14517
tub	-14518
urb	-14519
zzo	-14520
▁$6	-14521
▁(3	-14522
▁02	-14523
▁51	-14524
▁78	-14525
▁93	-14526
▁BP	-14527
▁EP	-14528
▁GM	-14529
▁Ku	-14530
▁Si	-14531
▁Vi	-14532
▁ou	-14533
ABLE	-14534
ANCE	-14535
IMUM	-14536
ISTR	-14537
Just	-14538
aden	-14539
agli	-14540
arer	-14541
arre	-14542
aska	-14543
bean	-14544
cium	-14545
coll	-14546
date	-14547
eton	-14548
home	-14549
ilyn	-14550
iors	-14551
ivec	-14552
offs	-14553
omon	-14554
otes	-14555
othi	-14556
pool	-14557
rade	-14558
rank	-14559
roso	-14560
turn	-14561
uana	-14562
ucas	-14563
ulty	-14564
undy	-14565
zona	-14566
▁0.5	-14567
▁11.	-14568
▁15,	-14569
▁24/	-14570
▁30%	-14571
▁Aus	-14572
▁Bey	-14573
▁Bin	-14574
▁CTU	-14575
▁DIR	-14576
▁Fal	-14577
▁Hog	-14578
▁Hur	-14579
▁Imm	-14580
▁Inv	-14581
▁Jav	-14582
▁Jup	-14583
▁Kit	-14584
▁Kra	-14585
▁Lil	-14586
▁MET	-14587
▁Nar	-14588
▁Nom	-14589
▁Pil	-14590
▁Pos	-14591
▁Ree	-14592
▁SAY	-14593
▁Sis	-14594
▁Spl	-14595
▁Sup	-14596
▁Tol	-14597
▁Vik	-14598
▁Wra	-14599
▁Yup	-14600
▁ace	-14601
▁biz	-14602
▁fox	-14603
▁gau	-14604
▁jan	-14605
▁jaw	-14606
▁jog	-14607
▁lav	-14608
▁sie	-14609
▁swo	-14610
▁vel	-14611
▁voc	-14612
▁vow	-14613
(192,	-14614
backs	-14615
ceans	-14616
check	-14617
cient	-14618
ensin	-14619
every	-14620
gence	-14621
gered	-14622
glass	-14623
group	-14624
hever	-14625
ienna	-14626
ifact	-14627
immer	-14628
itage	-14629
ludes	-14630
mbers	-14631
oland	-14632
oning	-14633
ortic	-14634
osaur	-14635
prene	-14636
ribes	-14637
ritis	-14638
▁$200	-14639
▁1994	-14640
▁Ally	-14641
▁Babe	-14642
▁Body	-14643
▁Borg	-14644
▁CONT	-14645
▁Cand	-14646
▁Cell	-14647
▁Cind	-14648
▁Decl	-14649
▁Duck	-14650
▁Fear	-14651
▁Hind	-14652
▁Iike	-14653
▁Kend	-14654
▁Lead	-14655
▁Merc	-14656
▁Oral	-14657
▁Page	-14658
▁Palm	-14659
▁Path	-14660
▁Quit	-14661
▁Resp	-14662
▁Salv	-14663
▁Tall	-14664
▁Type	-14665
▁Zach	-14666
▁adds	-14667
▁aims	-14668
▁bund	-14669
▁cane	-14670
▁crem	-14671
▁cycl	-14672
▁deed	-14673
▁empt	-14674
▁extr	-14675
▁eyeb	-14676
▁feds	-14677
▁glue	-14678
▁hats	-14679
▁hust	-14680
▁icon	-14681
▁inch	-14682
▁mans	-14683
▁mock	-14684
▁neur	-14685
▁pear	-14686
▁peas	-14687
▁pony	-14688
▁scal	-14689
▁scam	-14690
▁span	-14691
▁waff	-14692
▁wool	-14693
access	-14694
ansion	-14695
icture	-14696
nesium	-14697
pathic	-14698
please	-14699
sucker	-14700
thropo	-14701
urrent	-14702
▁2000.	-14703
▁2005/	-14704
▁2009,	-14705
▁2011,	-14706
▁Bates	-14707
▁Bayer	-14708
▁Becky	-14709
▁Betsy	-14710
▁Blair	-14711
▁Delta	-14712
▁FIRST	-14713
▁Gimme	-14714
▁Naomi	-14715
▁Nolan	-14716
▁Paige	-14717
▁Prior	-14718
▁Romul	-14719
▁Speed	-14720
▁Spock	-14721
▁Starb	-14722
▁Storm	-14723
▁Using	-14724
▁Weren	-14725
▁Wheel	-14726
▁Write	-14727
▁Wrong	-14728
▁Wyatt	-14729
▁beard	-14730
▁bully	-14731
▁buses	-14732
▁buyer	-14733
▁cater	-14734
▁cents	-14735
▁cling	-14736
▁colon	-14737
▁corps	-14738
▁cured	-14739
▁embry	-14740
▁fails	-14741
▁fewer	-14742
▁float	-14743
▁goose	-14744
▁hills	-14745
▁kicks	-14746
▁nanny	-14747
▁nitro	-14748
▁overs	-14749
▁paths	-14750
▁perce	-14751
▁reads	-14752
▁reply	-14753
▁revol	-14754
▁scout	-14755
▁sells	-14756
▁shaft	-14757
▁squir	-14758
▁steep	-14759
▁tutor	-14760
▁twent	-14761
▁whale	-14762
▁wires	-14763
atories	-14764
aventis	-14765
enhagen	-14766
mitting	-14767
onsible	-14768
parents	-14769
▁Alexis	-14770
▁Apollo	-14771
▁Argent	-14772
▁Barbie	-14773
▁Connie	-14774
▁Daphne	-14775
▁Debbie	-14776
▁Excell	-14777
▁Geneva	-14778
▁Glivec	-14779
▁INFORM	-14780
▁Korean	-14781
▁Kosovo	-14782
▁Latvia	-14783
▁Marion	-14784
▁Museum	-14785
▁Nation	-14786
▁Palace	-14787
▁Recomm	-14788
▁Regina	-14789
▁Remove	-14790
▁Scotty	-14791
▁Shelly	-14792
▁Stevie	-14793
▁absurd	-14794
▁asylum	-14795
▁bureau	-14796
▁burial	-14797
▁cellar	-14798
▁contra	-14799
▁cooler	-14800
▁dining	-14801
▁divine	-14802
▁donkey	-14803
▁douche	-14804
▁equals	-14805
▁erased	-14806
▁ethics	-14807
▁facial	-14808
▁felony	-14809
▁fiancé	-14810
▁greedy	-14811
▁heated	-14812
▁hollow	-14813
▁hybrid	-14814
▁hypert	-14815
▁infect	-14816
▁infilt	-14817
▁insert	-14818
▁jammed	-14819
▁lethal	-14820
▁linear	-14821
▁lowest	-14822
▁marrow	-14823
▁meteor	-14824
▁neglig	-14825
▁nickel	-14826
▁overhe	-14827
▁resemb	-14828
▁rhythm	-14829
▁rivers	-14830
▁routes	-14831
▁sanofi	-14832
▁scored	-14833
▁sorted	-14834
▁statue	-14835
▁turtle	-14836
▁united	-14837
▁unlock	-14838
▁weaken	-14839
▁zombie	-14840
cription	-14841
ensation	-14842
hichever	-14843
mbudsman	-14844
▁ADOPTED	-14845
▁Airport	-14846
▁Camille	-14847
▁Contact	-14848
▁Correct	-14849
▁Douglas	-14850
▁Eleanor	-14851
▁Heather	-14852
▁Leaving	-14853
▁Natalie	-14854
▁Outside	-14855
▁Patient	-14856
▁Philipp	-14857
▁Simmons	-14858
▁Stevens	-14859
▁Weather	-14860
▁antagon	-14861
▁blister	-14862
▁booking	-14863
▁bruises	-14864
▁buttons	-14865
▁climbed	-14866
▁courses	-14867
▁cousins	-14868
▁deepest	-14869
▁default	-14870
▁desires	-14871
▁disrupt	-14872
▁exhibit	-14873
▁fellows	-14874
▁fitting	-14875
▁harmful	-14876
▁inmates	-14877
▁largely	-14878
▁mandate	-14879
▁opposed	-14880
▁percept	-14881
▁pressed	-14882
▁priests	-14883
▁punched	-14884
▁reaches	-14885
▁revised	-14886
▁ringing	-14887
▁robbing	-14888
▁tracked	-14889
▁tribute	-14890
▁worries	-14891
istically	-14892
▁Broadway	-14893
▁Corporal	-14894
▁Military	-14895
▁Original	-14896
▁Personal	-14897
▁Scotland	-14898
▁Slovenia	-14899
▁altitude	-14900
▁analysed	-14901
▁apparent	-14902
▁artifact	-14903
▁assassin	-14904
▁biscuits	-14905
▁bracelet	-14906
▁cemetery	-14907
▁charging	-14908
▁composed	-14909
▁congress	-14910
▁cultures	-14911
▁deceased	-14912
▁defender	-14913
▁demanded	-14914
▁dramatic	-14915
▁fighters	-14916
▁fountain	-14917
▁indirect	-14918
▁insulted	-14919
▁maturity	-14920
▁missiles	-14921
▁morphine	-14922
▁outbreak	-14923
▁programs	-14924
▁provider	-14925
▁regarded	-14926
▁resolved	-14927
▁solitary	-14928
▁surgical	-14929
▁swelling	-14930
▁unauthor	-14931
▁weighing	-14932
▁yearbook	-14933
▁Attention	-14934
▁Barcelona	-14935
▁Certainly	-14936
▁Excellent	-14937
▁Lithuania	-14938
▁Technical	-14939
▁admission	-14940
▁aluminium	-14941
▁arthritis	-14942
▁certainty	-14943
▁countless	-14944
▁courtroom	-14945
▁disasters	-14946
▁displayed	-14947
▁encounter	-14948
▁executive	-14949
▁extending	-14950
▁fireworks	-14951
▁incentive	-14952
▁influenza	-14953
▁liquidity	-14954
▁mandatory	-14955
▁offensive	-14956
▁preferred	-14957
▁probation	-14958
▁recruited	-14959
▁spreading	-14960
▁succeeded	-14961
▁vegetable	-14962
▁wandering	-14963
▁Copenhagen	-14964
▁Employment	-14965
▁Technology	-14966
▁accomplice	-14967
▁administer	-14968
▁associates	-14969
▁authorized	-14970
▁competence	-14971
▁conducting	-14972
▁encouraged	-14973
▁entreprene	-14974
▁excitement	-14975
▁expedition	-14976
▁motherfuck	-14977
▁occasional	-14978
▁passionate	-14979
▁precaution	-14980
▁profitable	-14981
▁reflection	-14982
▁requesting	-14983
▁substitute	-14984
▁ultimately	-14985
▁whatsoever	-14986
▁Connecticut	-14987
▁adolescents	-14988
▁authorising	-14989
▁conjunction	-14990
▁constitutes	-14991
▁correlation	-14992
▁governments	-14993
▁politicians	-14994
▁radioactive	-14995
▁respiratory	-14996
▁scholarship	-14997
▁suggestions	-14998
▁Constitution	-14999
▁Intelligence	-15000
▁Requirements	-15001
▁communicated	-15002
▁experiencing	-15003
▁interference	-15004
▁observations	-15005
▁preservation	-15006
▁unemployment	-15007
▁beneficiaries	-15008
▁confidentiality	-15009
▁pharmacokinetic	-15010
'!	-15011
/5	-15012
59	-15013
83	-15014
EP	-15015
HN	-15016
ME	-15017
MW	-15018
Mr	-15019
Ne	-15020
OV	-15021
SD	-15022
UF	-15023
VA	-15024
WN	-15025
ih	-15026
sn	-15027
ti	-15028
zi	-15029
(6)	-15030
.19	-15031
KET	-15032
MED	-15033
ORE	-15034
akh	-15035
aug	-15036
bat	-15037
dle	-15038
ela	-15039
hun	-15040
ifi	-15041
imo	-15042
kas	-15043
lav	-15044
mom	-15045
mun	-15046
neg	-15047
oko	-15048
ono	-15049
rex	-15050
sub	-15051
tha	-15052
urg	-15053
xim	-15054
▁$4	-15055
▁'9	-15056
▁("	-15057
▁3:	-15058
▁5-	-15059
▁52	-15060
▁73	-15061
▁83	-15062
▁84	-15063
▁98	-15064
▁ED	-15065
▁HC	-15066
▁IA	-15067
▁NY	-15068
▁iP	-15069
▁ul	-15070
(2).	-15071
.10.	-15072
:200	-15073
ATER	-15074
URES	-15075
VING	-15076
atis	-15077
cott	-15078
ders	-15079
ench	-15080
encl	-15081
etra	-15082
fest	-15083
fuck	-15084
hang	-15085
iann	-15086
icia	-15087
idae	-15088
imet	-15089
inge	-15090
kill	-15091
laws	-15092
loom	-15093
mone	-15094
nett	-15095
olia	-15096
olic	-15097
oria	-15098
qual	-15099
reci	-15100
rene	-15101
show	-15102
ucci	-15103
umbo	-15104
umpy	-15105
unct	-15106
vous	-15107
witz	-15108
zone	-15109
▁110	-15110
▁140	-15111
▁16.	-15112
▁18.	-15113
▁900	-15114
▁98/	-15115
▁Ald	-15116
▁Bed	-15117
▁Buc	-15118
▁CEN	-15119
▁Cab	-15120
▁Cad	-15121
▁Cec	-15122
▁Cro	-15123
▁DEA	-15124
▁DIS	-15125
▁Doe	-15126
▁Dol	-15127
▁Fig	-15128
▁Fly	-15129
▁Hig	-15130
▁IMP	-15131
▁Ign	-15132
▁Lud	-15133
▁Mim	-15134
▁PET	-15135
▁Pha	-15136
▁Poo	-15137
▁Sey	-15138
▁TSI	-15139
▁Tro	-15140
▁cyl	-15141
▁eru	-15142
▁hal	-15143
▁orb	-15144
▁tam	-15145
▁vib	-15146
▁wig	-15147
ATIVE	-15148
anton	-15149
arios	-15150
ateur	-15151
brain	-15152
burgh	-15153
cedes	-15154
compl	-15155
ensus	-15156
enter	-15157
idine	-15158
iland	-15159
ioned	-15160
iprof	-15161
ocols	-15162
[...]
