<pad>	0
<unk>	0
<s>	0
</s>	0
ie	-0
▁p	-1
▁w	-2
▁n	-3
▁s	-4
▁t	-5
▁z	-6
▁m	-7
st	-8
rz	-9
▁d	-10
cz	-11
sz	-12
ow	-13
▁j	-14
ra	-15
ch	-16
dz	-17
ni	-18
ię	-19
▁o	-20
ro	-21
nie	-22
ał	-23
▁na	-24
go	-25
▁k	-26
▁b	-27
am	-28
▁po	-29
ak	-30
▁nie	-31
le	-32
▁je	-33
że	-34
li	-35
rze	-36
▁i	-37
ci	-38
em	-39
an	-40
▁do	-41
▁się	-42
▁N	-43
▁to	-44
▁za	-45
ym	-46
▁c	-47
▁T	-48
..	-49
na	-50
▁P	-51
ar	-52
ne	-53
▁że	-54
▁M	-55
▁C	-56
▁W	-57
ko	-58
▁jest	-59
wi	-60
je	-61
dzi	-62
rzy	-63
ka	-64
▁u	-65
▁mo	-66
dzie	-67
▁J	-68
ła	-69
▁Nie	-70
la	-71
ny	-72
cie	-73
ego	-74
▁wy	-75
wo	-76
czy	-77
wa	-78
my	-79
nia	-80
ów	-81
re	-82
▁by	-83
dy	-84
▁prze	-85
ce	-86
▁a	-87
ta	-88
da	-89
▁A	-90
ło	-91
▁S	-92
ki	-93
ją	-94
er	-95
▁D	-96
owa	-97
eś	-98
▁mi	-99
...	-100
▁g	-101
en	-102
oś	-103
ty	-104
ob	-105
▁Z	-106
▁jak	-107
▁ch	-108
▁ro	-109
po	-110
bi	-111
ku	-112
▁To	-113
▁B	-114
ry	-115
by	-116
▁ko	-117
▁od	-118
▁cz	-119
cy	-120
▁przy	-121
owie	-122
si	-123
lu	-124
szy	-125
ej	-126
to	-127
▁ty	-128
▁O	-129
ja	-130
wie	-131
sta	-132
▁K	-133
▁wie	-134
▁ni	-135
▁co	-136
ży	-137
▁ma	-138
▁tak	-139
▁dz	-140
mi	-141
zy	-142
cze	-143
ała	-144
as	-145
no	-146
ję	-147
ad	-148
pra	-149
▁st	-150
raz	-151
▁mnie	-152
or	-153
kie	-154
▁Po	-155
▁kt	-156
te	-157
▁I	-158
▁go	-159
owi	-160
▁te	-161
bie	-162
▁Je	-163
▁pro	-164
ną	-165
ru	-166
▁ś	-167
mie	-168
tu	-169
ró	-170
▁sz	-171
▁pra	-172
▁któ	-173
▁R	-174
łu	-175
pi	-176
▁pa	-177
sze	-178
lo	-179
▁ci	-180
ój	-181
▁tym	-182
ji	-183
▁bę	-184
ałem	-185
▁Ch	-186
▁mu	-187
▁dla	-188
ły	-189
pie	-190
▁in	-191
ma	-192
aj	-193
▁tu	-194
▁f	-195
▁pod	-196
ami	-197
▁roz	-198
▁lu	-199
▁Mo	-200
ca	-201
▁G	-202
nych	-203
▁może	-204
▁tego	-205
ści	-206
du	-207
▁ale	-208
łem	-209
szyst	-210
ać	-211
▁Co	-212
lko	-213
▁mie	-214
▁dzie	-215
ek	-216
▁1	-217
▁L	-218
▁wi	-219
▁Jest	-220
owy	-221
▁Na	-222
ąd	-223
śli	-224
ga	-225
ba	-226
on	-227
uż	-228
im	-229
▁Za	-230
▁powie	-231
dę	-232
ości	-233
▁pan	-234
śmy	-235
▁ze	-236
mu	-237
ść	-238
▁ob	-239
cji	-240
nego	-241
▁mog	-242
▁będzie	-243
▁zro	-244
▁sp	-245
wy	-246
▁Ale	-247
al	-248
▁cię	-249
▁wszyst	-250
▁"	-251
any	-252
▁spo	-253
▁2	-254
▁są	-255
▁mam	-256
at	-257
dze	-258
▁mó	-259
szę	-260
ez	-261
▁zna	-262
gi	-263
obie	-264
▁ra	-265
▁tylko	-266
ało	-267
▁H	-268
uje	-269
▁Tak	-270
▁-	-271
nym	-272
▁być	-273
▁czy	-274
we	-275
▁U	-276
▁le	-277
niej	-278
▁two	-279
▁ja	-280
▁ży	-281
▁dob	-282
▁sam	-283
ować	-284
praw	-285
cho	-286
▁cie	-287
in	-288
art	-289
▁Jak	-290
niu	-291
▁wię	-292
▁dzi	-293
▁zrobi	-294
il	-295
▁my	-296
iedy	-297
ew	-298
▁Wie	-299
▁E	-300
łam	-301
▁zo	-302
dział	-303
00	-304
▁przez	-305
ane	-306
▁jesteś	-307
▁pie	-308
▁jed	-309
kt	-310
sp	-311
mo	-312
▁poz	-313
cę	-314
▁Wy	-315
liśmy	-316
▁pot	-317
▁już	-318
▁coś	-319
ana	-320
nej	-321
owo	-322
bo	-323
▁ka	-324
lę	-325
pu	-326
dzo	-327
ście	-328
nt	-329
kę	-330
▁h	-331
▁r	-332
▁(	-333
▁czas	-334
sy	-335
de	-336
▁re	-337
▁Czy	-338
▁Ni	-339
▁swo	-340
os	-341
cia	-342
▁praw	-343
▁jej	-344
nę	-345
▁bar	-346
▁był	-347
ały	-348
▁mówi	-349
su	-350
rzym	-351
▁tam	-352
▁sta	-353
▁F	-354
▁Może	-355
ość	-356
ałam	-357
cja	-358
ności	-359
▁musi	-360
fi	-361
szcze	-362
stę	-363
kow	-364
asz	-365
czą	-366
▁żeby	-367
▁naj	-368
sa	-369
łaś	-370
▁Cz	-371
▁ż	-372
▁Mu	-373
▁la	-374
▁cho	-375
bu	-376
▁było	-377
ół	-378
emu	-379
▁raz	-380
▁moje	-381
dzieć	-382
bym	-383
▁/	-384
jąc	-385
▁sobie	-386
sie	-387
rzą	-388
▁jestem	-389
▁Prze	-390
▁jego	-391
ków	-392
▁kiedy	-393
▁sie	-394
ri	-395
za	-396
▁bo	-397
amy	-398
łeś	-399
▁powi	-400
do	-401
js	-402
el	-403
pa	-404
czego	-405
▁bez	-406
rowa	-407
▁ten	-408
▁da	-409
rw	-410
▁wo	-411
zu	-412
gra	-413
▁ciebie	-414
▁Ko	-415
dź	-416
▁chce	-417
▁e	-418
▁przed	-419
ona	-420
kiem	-421
un	-422
▁robi	-423
▁Do	-424
▁nas	-425
▁li	-426
▁teraz	-427
oba	-428
▁ich	-429
ól	-430
dni	-431
ką	-432
▁jeśli	-433
▁ta	-434
owe	-435
eśli	-436
ent	-437
cza	-438
czę	-439
▁sk	-440
▁lub	-441
gl	-442
▁Jeśli	-443
▁My	-444
▁Wię	-445
cu	-446
▁ku	-447
gu	-448
▁Ja	-449
▁pani	-450
▁Bo	-451
czyć	-452
ńst	-453
▁pi	-454
▁gdy	-455
▁wszystko	-456
▁spra	-457
waż	-458
taj	-459
nię	-460
io	-461
gdy	-462
▁Ty	-463
▁który	-464
▁mogę	-465
ut	-466
pad	-467
▁sy	-468
ski	-469
▁Więc	-470
▁ją	-471
skie	-472
cje	-473
▁no	-474
▁ok	-475
▁de	-476
sza	-477
▁Pa	-478
one	-479
▁Mi	-480
zna	-481
▁rze	-482
śl	-483
ter	-484
▁zap	-485
stęp	-486
sty	-487
wia	-488
ałeś	-489
▁bardzo	-490
rę	-491
pe	-492
cha	-493
▁Dz	-494
▁Przy	-495
▁Dla	-496
owych	-497
▁pew	-498
▁zosta	-499
▁wiem	-500
▁miejs	-501
rod	-502
niem	-503
▁Mam	-504
lem	-505
▁które	-506
ada	-507
dnie	-508
cję	-509
ony	-510
dzy	-511
cią	-512
ska	-513
▁jeszcze	-514
bra	-515
łą	-516
▁sto	-517
▁chci	-518
wój	-519
▁on	-520
spo	-521
▁też	-522
um	-523
▁3	-524
ich	-525
▁By	-526
▁nic	-527
ia	-528
kła	-529
▁os	-530
▁Pro	-531
▁wsp	-532
ran	-533
sto	-534
▁samo	-535
▁Te	-536
cej	-537
▁cał	-538
wią	-539
wet	-540
om	-541
tem	-542
powie	-543
▁zam	-544
stu	-545
▁masz	-546
óż	-547
▁im	-548
▁wła	-549
ór	-550
▁tej	-551
dzić	-552
▁gdzie	-553
ary	-554
▁zak	-555
▁wz	-556
▁Ro	-557
▁domu	-558
▁któr	-559
▁potrze	-560
tni	-561
▁zost	-562
▁Jestem	-563
dą	-564
słu	-565
ąda	-566
▁zabi	-567
et	-568
lej	-569
▁Musi	-570
▁nasz	-571
▁twoje	-572
lan	-573
wać	-574
się	-575
▁Jesteś	-576
▁Ma	-577
dzę	-578
ymi	-579
owania	-580
▁Powie	-581
prawdę	-582
trzym	-583
wię	-584
gę	-585
rób	-586
▁zn	-587
czne	-588
▁sko	-589
▁była	-590
gł	-591
▁swoje	-592
sią	-593
▁dobrze	-594
gląda	-595
▁tutaj	-596
nić	-597
▁moż	-598
jący	-599
▁niż	-600
▁kon	-601
jem	-602
nik	-603
▁więc	-604
▁mój	-605
▁powin	-606
▁zrobić	-607
▁Wi	-608
▁Dob	-609
▁pomo	-610
▁takie	-611
for	-612
▁zd	-613
▁każ	-614
dzenia	-615
▁bi	-616
kaz	-617
▁pow	-618
nu	-619
wsze	-620
cznie	-621
cą	-622
▁wa	-623
▁nam	-624
▁Od	-625
uro	-626
ność	-627
ck	-628
▁nim	-629
▁lat	-630
róci	-631
prowa	-632
rzu	-633
rząd	-634
res	-635
ud	-636
tor	-637
▁we	-638
owego	-639
gie	-640
ur	-641
▁jakie	-642
owanie	-643
▁No	-644
yba	-645
ób	-646
▁tro	-647
anych	-648
▁pierw	-649
▁St	-650
rzę	-651
▁rodzi	-652
raj	-653
łowie	-654
jące	-655
▁chcę	-656
▁bra	-657
▁zoba	-658
scy	-659
leży	-660
▁wszystki	-661
ery	-662
ałaś	-663
bli	-664
dza	-665
chę	-666
▁chcesz	-667
dzą	-668
▁aby	-669
tka	-670
łaśnie	-671
▁spraw	-672
▁ludzi	-673
es	-674
▁ry	-675
rza	-676
sko	-677
▁więcej	-678
tego	-679
▁du	-680
wczy	-681
▁powiedzieć	-682
ował	-683
▁przyja	-684
▁mamy	-685
ód	-686
działem	-687
▁świ	-688
sk	-689
".	-690
▁Ż	-691
cyj	-692
mawi	-693
dziej	-694
▁działa	-695
czu	-696
▁możesz	-697
bą	-698
▁wiesz	-699
▁me	-700
pis	-701
▁odpowie	-702
▁5	-703
nika	-704
▁200	-705
▁życie	-706
▁prostu	-707
▁tych	-708
▁V	-709
▁4	-710
szą	-711
▁kto	-712
▁Ta	-713
▁prawda	-714
▁osta	-715
▁oj	-716
▁al	-717
tów	-718
▁zmie	-719
▁ce	-720
▁stra	-721
▁ba	-722
▁dro	-723
chodzi	-724
ślę	-725
▁czego	-726
▁su	-727
▁ła	-728
▁nigdy	-729
▁dłu	-730
owej	-731
▁środ	-732
co	-733
▁myśli	-734
▁Wiesz	-735
▁Ka	-736
szyscy	-737
▁Dlaczego	-738
wić	-739
▁dru	-740
▁rzeczy	-741
▁Wiem	-742
kol	-743
▁wym	-744
▁pom	-745
▁spos	-746
sł	-747
▁lo	-748
kty	-749
ans	-750
amię	-751
▁nad	-752
▁chodzi	-753
porzą	-754
ir	-755
▁Bę	-756
▁śmie	-757
czenia	-758
▁Le	-759
▁razem	-760
▁og	-761
▁stro	-762
▁pe	-763
▁Komi	-764
▁miał	-765
▁dzieci	-766
▁pu	-767
▁gł	-768
▁Mó	-769
▁dnia	-770
▁tra	-771
jemy	-772
▁nawet	-773
▁naprawdę	-774
py	-775
wiek	-776
▁Proszę	-777
piej	-778
▁Kiedy	-779
▁czę	-780
▁tobą	-781
▁będę	-782
▁dziewczy	-783
▁oraz	-784
▁Ra	-785
▁poli	-786
▁powiedział	-787
strze	-788
▁doty	-789
czo	-790
▁czym	-791
▁gra	-792
ujesz	-793
▁wyko	-794
▁fa	-795
▁produ	-796
so	-797
▁kobie	-798
kolwiek	-799
ciu	-800
▁świe	-801
▁porząd	-802
róż	-803
▁trochę	-804
dzenie	-805
▁ak	-806
byś	-807
tę	-808
▁ona	-809
iędzy	-810
nąć	-811
▁czasu	-812
▁Da	-813
▁żad	-814
▁wyda	-815
nią	-816
▁zgo	-817
▁jaki	-818
wiąz	-819
▁mną	-820
▁powo	-821
▁prob	-822
▁dy	-823
ano	-824
yta	-825
ństwa	-826
łon	-827
szed	-828
ge	-829
tk	-830
prze	-831
▁On	-832
▁jako	-833
▁Ś	-834
▁tę	-835
▁rów	-836
▁Cho	-837
▁trze	-838
▁znaj	-839
nij	-840
▁koń	-841
▁chło	-842
two	-843
▁was	-844
▁temu	-845
dać	-846
wał	-847
▁kom	-848
óź	-849
rą	-850
▁op	-851
owym	-852
▁porządku	-853
łe	-854
AR	-855
wier	-856
kry	-857
▁kont	-858
▁człowie	-859
▁szy	-860
▁potrzeb	-861
tnie	-862
▁siebie	-863
▁Wszyst	-864
zie	-865
ste	-866
is	-867
▁ust	-868
▁sposób	-869
▁zawsze	-870
▁mógł	-871
▁uży	-872
▁kil	-873
pro	-874
tycz	-875
▁Teraz	-876
▁przypad	-877
ża	-878
szka	-879
▁ktoś	-880
▁pię	-881
forma	-882
▁prac	-883
szych	-884
▁szcze	-885
ju	-886
▁wszystkie	-887
▁Euro	-888
▁Komis	-889
▁Gdzie	-890
szym	-891
star	-892
trze	-893
▁chwi	-894
ców	-895
and	-896
lep	-897
▁mieć	-898
▁pomy	-899
▁stało	-900
ową	-901
▁Lu	-902
▁Nigdy	-903
▁ser	-904
▁wróci	-905
▁Pod	-906
▁moja	-907
▁Gdy	-908
▁okre	-909
nak	-910
▁mę	-911
▁nich	-912
owane	-913
▁mojego	-914
▁Sz	-915
▁niego	-916
stra	-917
se	-918
▁um	-919
▁pana	-920
dzisz	-921
▁Tylko	-922
kro	-923
dziemy	-924
▁twój	-925
den	-926
▁można	-927
▁Chcę	-928
cj	-929
tki	-930
czenie	-931
war	-932
▁Pra	-933
ii	-934
jesz	-935
▁kogo	-936
rów	-937
▁6	-938
prasz	-939
▁ar	-940
ec	-941
tek	-942
▁albo	-943
▁szko	-944
▁będziesz	-945
▁Chci	-946
▁każd	-947
▁moim	-948
▁właśnie	-949
szu	-950
cem	-951
▁godzi	-952
▁znale	-953
dziesz	-954
▁słu	-955
▁należy	-956
stwo	-957
▁20	-958
stać	-959
▁osob	-960
▁Nic	-961
ciw	-962
▁cią	-963
▁Masz	-964
▁proszę	-965
▁chłop	-966
działa	-967
rzyć	-968
▁Chce	-969
tedy	-970
▁dziec	-971
▁ludzie	-972
pom	-973
nien	-974
▁ru	-975
uję	-976
▁możemy	-977
▁niez	-978
▁wiele	-979
czas	-980
▁sek	-981
▁informa	-982
▁roku	-983
chaj	-984
▁art	-985
▁wszystkich	-986
ńczy	-987
śle	-988
nicz	-989
rwa	-990
▁hi	-991
roz	-992
stan	-993
stawi	-994
▁mogą	-995
nd	-996
BAR	-997
▁bu	-998
szcz	-999
▁nią	-1000
▁Sp	-1001
pej	-1002
he	-1003
▁stos	-1004
▁pracy	-1005
stą	-1006
▁Mówi	-1007
▁gru	-1008
▁związ	-1009
ast	-1010
▁rozporzą	-1011
byt	-1012
▁rę	-1013
owany	-1014
dal	-1015
lie	-1016
▁Jo	-1017
▁war	-1018
kach	-1019
trz	-1020
▁Al	-1021
praszam	-1022
▁Roz	-1023
▁kim	-1024
▁Dzię	-1025
▁chciał	-1026
chać	-1027
▁taki	-1028
ly	-1029
ner	-1030
biera	-1031
▁_	-1032
lić	-1033
szło	-1034
▁stan	-1035
▁wygląda	-1036
▁śmier	-1037
▁duż	-1038
▁nr	-1039
▁mart	-1040
nieważ	-1041
▁moją	-1042
▁dlaczego	-1043
naj	-1044
▁miejsce	-1045
▁Mar	-1046
▁pre	-1047
▁pomó	-1048
peł	-1049
nymi	-1050
▁włas	-1051
▁Chyba	-1052
jących	-1053
mniej	-1054
▁mojej	-1055
▁pozwo	-1056
▁sprawie	-1057
▁jesteśmy	-1058
ałą	-1059
ktu	-1060
nii	-1061
nios	-1062
stwa	-1063
szego	-1064
kać	-1065
dów	-1066
liście	-1067
cyz	-1068
▁jedy	-1069
▁dwa	-1070
▁19	-1071
▁Re	-1072
▁Cóż	-1073
▁Muszę	-1074
▁która	-1075
der	-1076
▁przeciw	-1077
▁między	-1078
rt	-1079
▁szyb	-1080
▁wiel	-1081
ią	-1082
łysz	-1083
▁szczę	-1084
▁myśl	-1085
nek	-1086
▁stanie	-1087
laz	-1088
▁dotyczą	-1089
ol	-1090
WE	-1091
▁mają	-1092
▁tele	-1093
ng	-1094
▁si	-1095
cześ	-1096
od	-1097
▁Pan	-1098
▁face	-1099
▁waż	-1100
▁niej	-1101
▁bro	-1102
▁nau	-1103
▁bardziej	-1104
ciec	-1105
dzwo	-1106
▁Dobrze	-1107
▁równie	-1108
▁będą	-1109
▁...	-1110
▁Tu	-1111
lne	-1112
zumie	-1113
."	-1114
czej	-1115
▁jedno	-1116
nim	-1117
▁Ten	-1118
▁wspól	-1119
▁wiedzieć	-1120
▁Są	-1121
▁róż	-1122
▁Powi	-1123
▁poko	-1124
▁nadzie	-1125
▁przyj	-1126
▁musisz	-1127
▁ostatni	-1128
ali	-1129
▁jeden	-1130
tyw	-1131
wiad	-1132
▁10	-1133
▁Już	-1134
dne	-1135
staw	-1136
▁kilka	-1137
▁De	-1138
ciąg	-1139
robi	-1140
▁Two	-1141
▁Myślę	-1142
liwo	-1143
▁problem	-1144
▁panie	-1145
▁ani	-1146
▁dom	-1147
▁których	-1148
czni	-1149
▁spe	-1150
▁bezpie	-1151
200	-1152
▁wam	-1153
▁zamie	-1154
▁pyta	-1155
▁znaczy	-1156
bię	-1157
▁znaleź	-1158
▁kraj	-1159
▁Kto	-1160
▁bie	-1161
men	-1162
▁Zo	-1163
nku	-1164
ren	-1165
▁pomóc	-1166
▁zda	-1167
▁dzień	-1168
kąd	-1169
▁dobry	-1170
▁Wszystko	-1171
▁dziś	-1172
th	-1173
gle	-1174
▁spotka	-1175
▁ga	-1176
kład	-1177
mawiać	-1178
▁muszę	-1179
łonkow	-1180
lar	-1181
cić	-1182
▁twoja	-1183
▁również	-1184
pły	-1185
▁Myśl	-1186
▁prób	-1187
▁or	-1188
tych	-1189
▁pamię	-1190
nać	-1191
▁8	-1192
▁inte	-1193
▁wszyscy	-1194
szt	-1195
▁sł	-1196
▁kolej	-1197
żyć	-1198
▁usta	-1199
▁wal	-1200
▁sprze	-1201
▁cały	-1202
żeli	-1203
▁mów	-1204
wó	-1205
▁rozu	-1206
▁9	-1207
▁lata	-1208
▁Bar	-1209
▁wra	-1210
czywi	-1211
▁gło	-1212
ałe	-1213
▁Hej	-1214
▁życia	-1215
▁właści	-1216
▁wyj	-1217
▁lepiej	-1218
czny	-1219
▁zbyt	-1220
▁proce	-1221
glę	-1222
skiej	-1223
▁zw	-1224
leż	-1225
▁Mogę	-1226
▁najlep	-1227
chu	-1228
▁par	-1229
▁Kt	-1230
owią	-1231
▁świat	-1232
now	-1233
ale	-1234
▁Li	-1235
▁wol	-1236
▁decyz	-1237
▁robić	-1238
).	-1239
▁cze	-1240
▁miło	-1241
▁umie	-1242
▁szczeg	-1243
▁pój	-1244
▁Dobra	-1245
▁chyba	-1246
żej	-1247
jęcia	-1248
ze	-1249
▁póź	-1250
kój	-1251
▁dni	-1252
fa	-1253
nienia	-1254
dnia	-1255
▁naz	-1256
kami	-1257
zywa	-1258
▁kar	-1259
▁koch	-1260
▁długo	-1261
▁Sam	-1262
▁dowie	-1263
▁Europej	-1264
bę	-1265
czym	-1266
▁kie	-1267
ezpie	-1268
▁powodu	-1269
▁7	-1270
kar	-1271
▁dużo	-1272
lam	-1273
szedł	-1274
▁będziemy	-1275
aka	-1276
▁iść	-1277
▁były	-1278
▁rozumie	-1279
▁Cie	-1280
▁którzy	-1281
ha	-1282
stępu	-1283
▁uważ	-1284
mę	-1285
▁Mój	-1286
▁kontro	-1287
▁jakieś	-1288
nam	-1289
▁zawie	-1290
▁tą	-1291
▁daw	-1292
ciąż	-1293
kuję	-1294
▁głu	-1295
pera	-1296
▁mło	-1297
chy	-1298
▁zach	-1299
▁Nawet	-1300
ntów	-1301
▁potem	-1302
per	-1303
▁tru	-1304
kra	-1305
▁przyjacie	-1306
▁zobaczyć	-1307
▁Przepraszam	-1308
son	-1309
skich	-1310
▁bada	-1311
tku	-1312
ństwo	-1313
▁Musimy	-1314
▁sku	-1315
buję	-1316
szej	-1317
▁Daj	-1318
oważ	-1319
▁tem	-1320
▁Dzie	-1321
▁wtedy	-1322
ke	-1323
stem	-1324
dem	-1325
aki	-1326
stanie	-1327
▁mieszka	-1328
▁konie	-1329
▁zło	-1330
tam	-1331
▁kró	-1332
▁nadzieję	-1333
▁Poz	-1334
▁prawdzi	-1335
ve	-1336
▁zaj	-1337
cznych	-1338
▁kla	-1339
▁Mamy	-1340
siaj	-1341
erw	-1342
daw	-1343
▁pozo	-1344
▁prowa	-1345
▁Możesz	-1346
▁We	-1347
▁zab	-1348
▁Naj	-1349
ral	-1350
chro	-1351
▁Ona	-1352
▁tyle	-1353
nął	-1354
stor	-1355
▁pacje	-1356
row	-1357
▁innych	-1358
ti	-1359
▁sob	-1360
▁swoją	-1361
▁ozna	-1362
▁Ci	-1363
▁ho	-1364
▁zie	-1365
▁plan	-1366
▁zostać	-1367
gło	-1368
ing	-1369
▁oni	-1370
▁jakiś	-1371
▁twoim	-1372
▁dzieje	-1373
▁ź	-1374
oby	-1375
▁zmi	-1376
▁wcześ	-1377
▁ek	-1378
▁dziw	-1379
▁którym	-1380
liwe	-1381
stro	-1382
us	-1383
▁mor	-1384
▁kogoś	-1385
gan	-1386
▁star	-1387
▁podej	-1388
▁tobie	-1389
▁więk	-1390
▁pewno	-1391
▁Chcesz	-1392
▁In	-1393
ścia	-1394
cych	-1395
▁kole	-1396
▁tygo	-1397
▁kr	-1398
więk	-1399
▁lubi	-1400
sić	-1401
▁cięż	-1402
lni	-1403
▁przej	-1404
▁oko	-1405
▁peł	-1406
▁celu	-1407
▁dalej	-1408
▁*	-1409
▁trzy	-1410
któ	-1411
▁miała	-1412
tą	-1413
▁Jed	-1414
▁ofi	-1415
▁zast	-1416
kaj	-1417
rek	-1418
▁Powiedz	-1419
sku	-1420
skiego	-1421
▁Panie	-1422
raż	-1423
▁Że	-1424
sła	-1425
▁nami	-1426
▁przypadku	-1427
brać	-1428
wania	-1429
▁Niech	-1430
ara	-1431
▁got	-1432
niesie	-1433
▁współ	-1434
dził	-1435
▁sze	-1436
gro	-1437
adom	-1438
▁męż	-1439
▁pun	-1440
▁uwa	-1441
▁okreś	-1442
hi	-1443
▁for	-1444
▁robo	-1445
▁zanim	-1446
gen	-1447
ul	-1448
▁pas	-1449
▁którego	-1450
czywiście	-1451
▁uwie	-1452
▁Musisz	-1453
dow	-1454
wyk	-1455
▁se	-1456
man	-1457
▁pomocy	-1458
▁powinien	-1459
▁au	-1460
▁także	-1461
▁uro	-1462
żenie	-1463
▁Myśli	-1464
ler	-1465
▁trzym	-1466
nił	-1467
▁został	-1468
gląd	-1469
▁min	-1470
▁pła	-1471
▁poja	-1472
▁szu	-1473
▁dlatego	-1474
▁przyjaci	-1475
IE	-1476
anego	-1477
▁nocy	-1478
▁mia	-1479
▁takiego	-1480
▁stąd	-1481
ąt	-1482
ard	-1483
▁wiecz	-1484
▁ł	-1485
▁dzię	-1486
pita	-1487
▁doda	-1488
ród	-1489
liby	-1490
▁Rob	-1491
▁rzecz	-1492
▁dobra	-1493
▁Zna	-1494
▁następ	-1495
oru	-1496
▁dobre	-1497
▁Wszyscy	-1498
▁twojej	-1499
▁znaleźć	-1500
stnie	-1501
▁zrobił	-1502
ników	-1503
▁robisz	-1504
tra	-1505
▁żebyś	-1506
▁wystar	-1507
zn	-1508
pić	-1509
▁Fran	-1510
▁Czemu	-1511
▁ucie	-1512
▁kocha	-1513
działam	-1514
▁Zawsze	-1515
▁twoją	-1516
fer	-1517
▁minut	-1518
▁telef	-1519
▁miejscu	-1520
▁#	-1521
gani	-1522
fe	-1523
▁Y	-1524
be	-1525
ura	-1526
▁ojciec	-1527
nisz	-1528
▁pierwszy	-1529
tua	-1530
▁bli	-1531
aną	-1532
ment	-1533
▁„	-1534
▁zaba	-1535
rew	-1536
woz	-1537
▁histor	-1538
▁Komisji	-1539
dob	-1540
lnie	-1541
▁przyjaciół	-1542
▁fil	-1543
▁jednak	-1544
dłu	-1545
▁sobą	-1546
▁Wygląda	-1547
óki	-1548
▁sza	-1549
/200	-1550
▁zako	-1551
▁zami	-1552
▁pienią	-1553
▁poda	-1554
▁myślisz	-1555
dar	-1556
utro	-1557
inans	-1558
wu	-1559
czył	-1560
▁musimy	-1561
świad	-1562
▁pięk	-1563
▁odpowiedzi	-1564
bior	-1565
▁dzisiaj	-1566
▁aż	-1567
▁Dzi	-1568
got	-1569
tel	-1570
▁Nikt	-1571
ani	-1572
▁bym	-1573
▁cy	-1574
kowi	-1575
▁cel	-1576
▁której	-1577
▁.	-1578
tar	-1579
czna	-1580
▁byłem	-1581
ene	-1582
▁wcześniej	-1583
▁czu	-1584
▁zła	-1585
żenia	-1586
ho	-1587
▁15	-1588
▁An	-1589
▁brz	-1590
▁mał	-1591
▁razie	-1592
▁wszystkim	-1593
pat	-1594
szczę	-1595
▁taka	-1596
▁mężczy	-1597
▁,	-1598
▁zau	-1599
owu	-1600
▁an	-1601
▁wasz	-1602
▁progra	-1603
▁potra	-1604
▁zamk	-1605
▁poroz	-1606
pre	-1607
▁Pie	-1608
▁Słu	-1609
▁num	-1610
▁mówić	-1611
▁lep	-1612
twa	-1613
logi	-1614
rywa	-1615
▁Spo	-1616
▁niniej	-1617
▁którą	-1618
▁powinni	-1619
vi	-1620
sił	-1621
▁gó	-1622
▁Coś	-1623
ton	-1624
▁Każ	-1625
▁części	-1626
▁pieniądze	-1627
tne	-1628
onych	-1629
▁nikt	-1630
gą	-1631
pię	-1632
▁samocho	-1633
▁zadzwo	-1634
jąć	-1635
▁skończy	-1636
ądź	-1637
▁wart	-1638
▁moich	-1639
di	-1640
ąc	-1641
ers	-1642
owałem	-1643
▁zde	-1644
▁Sta	-1645
▁twa	-1646
jęcie	-1647
▁zgodnie	-1648
▁ot	-1649
▁Wsp	-1650
▁pół	-1651
▁Boże	-1652
▁Potrze	-1653
▁twojego	-1654
ójrz	-1655
▁otrzym	-1656
▁klu	-1657
▁wska	-1658
▁dziecko	-1659
▁oznacza	-1660
puści	-1661
▁nadal	-1662
▁Właśnie	-1663
aku	-1664
tora	-1665
▁zas	-1666
rzenia	-1667
▁Ar	-1668
▁określo	-1669
▁ad	-1670
▁zapom	-1671
▁drugie	-1672
▁Dlatego	-1673
▁Naprawdę	-1674
▁sio	-1675
▁Pani	-1676
▁ud	-1677
▁ode	-1678
▁nasze	-1679
▁rację	-1680
▁szybko	-1681
▁znalaz	-1682
cznej	-1683
▁Par	-1684
stru	-1685
▁?	-1686
owę	-1687
▁noc	-1688
▁syn	-1689
▁pier	-1690
▁podczas	-1691
cją	-1692
▁Ok	-1693
▁cór	-1694
pę	-1695
ach	-1696
▁czegoś	-1697
▁wej	-1698
▁wyja	-1699
liz	-1700
▁innego	-1701
▁am	-1702
nicy	-1703
▁kra	-1704
▁myślę	-1705
▁rozporządzenia	-1706
▁dost	-1707
▁Ktoś	-1708
▁mogła	-1709
▁zmieni	-1710
cież	-1711
ok	-1712
wz	-1713
nad	-1714
ster	-1715
wóch	-1716
▁morder	-1717
▁sprawa	-1718
▁Myślisz	-1719
▁miejsca	-1720
bezpie	-1721
▁kiedyś	-1722
▁zawiera	-1723
amie	-1724
owała	-1725
▁obie	-1726
▁Ob	-1727
ństw	-1728
wę	-1729
zd	-1730
▁12	-1731
▁uda	-1732
cznego	-1733
▁finans	-1734
▁sło	-1735
▁skła	-1736
▁końcu	-1737
liwości	-1738
▁zapew	-1739
▁swojego	-1740
ot	-1741
▁Pew	-1742
▁jaką	-1743
▁miesią	-1744
▁wiadom	-1745
ou	-1746
▁ochro	-1747
▁wykorzy	-1748
▁Jesteśmy	-1749
oł	-1750
kich	-1751
▁sprawy	-1752
▁trzeba	-1753
▁inne	-1754
▁ile	-1755
▁wprowa	-1756
▁!	-1757
tery	-1758
▁zabić	-1759
▁oce	-1760
▁mówisz	-1761
rat	-1762
▁sen	-1763
▁takim	-1764
kładnie	-1765
▁czasie	-1766
▁zatrzym	-1767
▁Pe	-1768
ałbym	-1769
▁Moja	-1770
▁ponieważ	-1771
▁razy	-1772
▁pomoc	-1773
▁stary	-1774
▁wciąż	-1775
▁później	-1776
mar	-1777
▁poważ	-1778
▁załą	-1779
▁sytua	-1780
▁szczegól	-1781
rzeć	-1782
owana	-1783
▁mniej	-1784
▁–	-1785
nni	-1786
jech	-1787
▁poś	-1788
▁tran	-1789
mal	-1790
czki	-1791
wali	-1792
czone	-1793
▁dowo	-1794
▁wyso	-1795
▁strony	-1796
▁%	-1797
▁zat	-1798
▁wyma	-1799
▁począ	-1800
eść	-1801
rem	-1802
▁Był	-1803
▁wnios	-1804
sów	-1805
jącego	-1806
▁istnie	-1807
▁l	-1808
▁mili	-1809
▁[	-1810
▁Mie	-1811
▁Czas	-1812
▁zwie	-1813
żę	-1814
anym	-1815
▁Ba	-1816
wego	-1817
▁wyb	-1818
▁dwóch	-1819
▁numer	-1820
mp	-1821
łę	-1822
▁Sko	-1823
▁dia	-1824
▁imię	-1825
▁drz	-1826
▁sły	-1827
▁wspo	-1828
▁system	-1829
wą	-1830
les	-1831
wam	-1832
anej	-1833
nienie	-1834
▁wypad	-1835
tny	-1836
▁jas	-1837
▁zostanie	-1838
▁sprawę	-1839
▁Am	-1840
stań	-1841
▁bud	-1842
▁be	-1843
tach	-1844
▁leka	-1845
▁okaz	-1846
▁pla	-1847
▁poza	-1848
sti	-1849
kiego	-1850
wanie	-1851
▁członkow	-1852
chód	-1853
skim	-1854
lenia	-1855
▁telefon	-1856
▁kry	-1857
działeś	-1858
▁swoich	-1859
wien	-1860
▁fir	-1861
óle	-1862
ałat	-1863
▁Joh	-1864
▁niko	-1865
▁temat	-1866
kon	-1867
tkow	-1868
sięcy	-1869
▁pienię	-1870
chi	-1871
▁świad	-1872
▁mar	-1873
▁jakby	-1874
fie	-1875
ley	-1876
min	-1877
▁Pat	-1878
▁ban	-1879
rekty	-1880
▁Dzięki	-1881
nawi	-1882
▁Jego	-1883
▁swój	-1884
▁żyje	-1885
lenie	-1886
▁Będę	-1887
nością	-1888
▁gdyby	-1889
bar	-1890
kim	-1891
▁krwi	-1892
stawie	-1893
dno	-1894
sły	-1895
wól	-1896
dzaj	-1897
▁nimi	-1898
▁Pamię	-1899
),	-1900
zo	-1901
▁wpły	-1902
▁wyłą	-1903
gar	-1904
▁em	-1905
▁fi	-1906
▁ksią	-1907
▁ojca	-1908
▁miałem	-1909
▁podob	-1910
▁Słuchaj	-1911
▁Skąd	-1912
▁gospo	-1913
ono	-1914
pit	-1915
stw	-1916
łym	-1917
▁oczy	-1918
kcji	-1919
▁niepo	-1920
▁żebym	-1921
let	-1922
szła	-1923
▁pły	-1924
chodzą	-1925
▁publi	-1926
▁następu	-1927
mach	-1928
▁wzią	-1929
óg	-1930
kiej	-1931
▁drzwi	-1932
▁swoim	-1933
▁proje	-1934
▁szczęśli	-1935
AN	-1936
ber	-1937
▁La	-1938
nosi	-1939
owali	-1940
▁powro	-1941
▁pewien	-1942
▁pokoju	-1943
▁swojej	-1944
▁takich	-1945
waj	-1946
▁Bi	-1947
dzieli	-1948
por	-1949
ajem	-1950
▁czar	-1951
lą	-1952
sem	-1953
szko	-1954
▁byś	-1955
▁zaczy	-1956
▁życiu	-1957
cię	-1958
rzem	-1959
siada	-1960
▁panu	-1961
gh	-1962
▁0	-1963
▁dr	-1964
▁wło	-1965
niejsze	-1966
▁chwilę	-1967
▁specja	-1968
▁świecie	-1969
▁dwie	-1970
czoraj	-1971
▁Zrobi	-1972
▁Myślałem	-1973
▁porozmawiać	-1974
akt	-1975
daje	-1976
▁201	-1977
łaści	-1978
▁opera	-1979
▁warun	-1980
▁at	-1981
▁nazywa	-1982
zi	-1983
▁Ju	-1984
▁powinna	-1985
raź	-1986
któw	-1987
póki	-1988
czności	-1989
▁ję	-1990
▁sama	-1991
▁szans	-1992
▁Jeżeli	-1993
szyć	-1994
miast	-1995
zacji	-1996
▁każdy	-1997
▁naszej	-1998
▁Dziękuję	-1999
▁Oczywiście	-2000
dol	-2001
tać	-2002
fika	-2003
wodni	-2004
▁znowu	-2005
▁ki	-2006
▁sil	-2007
▁przeciwko	-2008
▁ter	-2009
▁kłam	-2010
▁poprze	-2011
len	-2012
mina	-2013
orem	-2014
tasz	-2015
▁Bra	-2016
▁woj	-2017
kować	-2018
▁jedną	-2019
me	-2020
▁30	-2021
łopo	-2022
▁zapro	-2023
niene	-2024
▁pozio	-2025
▁naszych	-2026
IA	-2027
nic	-2028
▁pl	-2029
▁so	-2030
▁fun	-2031
▁głów	-2032
wił	-2033
▁Me	-2034
▁nor	-2035
▁zasa	-2036
dny	-2037
▁dok	-2038
▁moc	-2039
▁ryzy	-2040
▁człowiek	-2041
gad	-2042
▁zaczą	-2043
▁każdym	-2044
jąca	-2045
▁zgi	-2046
czeństwa	-2047
ron	-2048
▁Oh	-2049
▁chciała	-2050
powi	-2051
▁tech	-2052
▁społe	-2053
lega	-2054
danie	-2055
▁Wspól	-2056
▁mówię	-2057
▁Jeszcze	-2058
gła	-2059
muje	-2060
▁Chodź	-2061
▁jutro	-2062
▁prawo	-2063
▁wyjaś	-2064
▁stanowi	-2065
ąż	-2066
tyku	-2067
nieneś	-2068
▁pomysł	-2069
ll	-2070
rót	-2071
myśl	-2072
▁ukry	-2073
▁pracę	-2074
▁dać	-2075
owaniu	-2076
▁Spójrz	-2077
▁Ponieważ	-2078
▁Twój	-2079
naczej	-2080
▁facet	-2081
▁myśle	-2082
▁pokaz	-2083
działaś	-2084
najmniej	-2085
▁dotyczące	-2086
▁dobr	-2087
▁mały	-2088
▁Be	-2089
śmie	-2090
piero	-2091
▁dzwo	-2092
▁została	-2093
▁powiedziała	-2094
▁Ri	-2095
▁wsze	-2096
uj	-2097
ską	-2098
pierw	-2099
▁Uważ	-2100
▁całą	-2101
▁wzglę	-2102
▁byli	-2103
▁obec	-2104
▁pora	-2105
dziłem	-2106
▁spokój	-2107
",	-2108
rzyw	-2109
▁Tra	-2110
▁komu	-2111
strzym	-2112
▁Komisja	-2113
▁Su	-2114
▁pat	-2115
czymy	-2116
▁opie	-2117
czając	-2118
mów	-2119
entu	-2120
▁Gra	-2121
rzysz	-2122
▁rozpo	-2123
▁obowią	-2124
▁przeprowa	-2125
cił	-2126
▁źle	-2127
▁pozy	-2128
▁zain	-2129
▁ogóle	-2130
▁Bardzo	-2131
▁Ludzie	-2132
▁Pewnie	-2133
▁prawie	-2134
pew	-2135
▁stwo	-2136
▁zało	-2137
▁strze	-2138
▁proble	-2139
▁śmierci	-2140
▁żadnych	-2141
nta	-2142
▁ws	-2143
▁Przez	-2144
▁gdzieś	-2145
▁zastos	-2146
▁dokładnie	-2147
▁Sh	-2148
▁zdr	-2149
czysz	-2150
resie	-2151
▁Albo	-2152
▁rodzaj	-2153
▁gospodar	-2154
"?	-2155
▁zad	-2156
▁szpita	-2157
ger	-2158
▁Se	-2159
▁sa	-2160
kuje	-2161
▁zew	-2162
nny	-2163
tt	-2164
lony	-2165
łego	-2166
torze	-2167
▁klie	-2168
puszcz	-2169
▁musiał	-2170
onym	-2171
▁sprzeda	-2172
▁widziałem	-2173
oną	-2174
lnych	-2175
▁informacje	-2176
▁He	-2177
dzię	-2178
rzenie	-2179
▁chole	-2180
leko	-2181
▁Cię	-2182
▁Har	-2183
▁informacji	-2184
ić	-2185
▁niczego	-2186
▁odpowiedni	-2187
dli	-2188
nątrz	-2189
▁Zoba	-2190
gii	-2191
▁Możemy	-2192
▁potrafi	-2193
▁odniesie	-2194
wym	-2195
prawi	-2196
▁doku	-2197
▁osób	-2198
▁dzięki	-2199
▁pieniędzy	-2200
bywa	-2201
rzył	-2202
▁współpra	-2203
▁Ł	-2204
▁języ	-2205
▁kłopo	-2206
▁jednym	-2207
▁koniec	-2208
▁naszym	-2209
żd	-2210
▁mama	-2211
▁jednego	-2212
czony	-2213
▁przygot	-2214
nki	-2215
czka	-2216
▁ważne	-2217
▁chwili	-2218
▁utrzym	-2219
nieść	-2220
▁wina	-2221
▁znam	-2222
▁prawa	-2223
▁powinniśmy	-2224
dopo	-2225
▁widzę	-2226
▁powiem	-2227
▁przyszło	-2228
szcza	-2229
libyśmy	-2230
not	-2231
duje	-2232
▁Char	-2233
▁wspani	-2234
lny	-2235
tori	-2236
west	-2237
▁spę	-2238
wzglę	-2239
▁inny	-2240
▁państwa	-2241
▁18	-2242
▁So	-2243
▁Wil	-2244
stąpi	-2245
▁słysz	-2246
bro	-2247
▁czuję	-2248
bardziej	-2249
▁jakiego	-2250
▁każdego	-2251
rtu	-2252
ver	-2253
▁Sa	-2254
▁pacjentów	-2255
▁godzin	-2256
▁cu	-2257
arów	-2258
gent	-2259
jcie	-2260
▁skar	-2261
▁część	-2262
isz	-2263
prz	-2264
▁part	-2265
▁wielu	-2266
▁powiedz	-2267
▁widzieć	-2268
▁Ha	-2269
czną	-2270
wych	-2271
▁czemu	-2272
▁dyrekty	-2273
dio	-2274
▁ude	-2275
▁wąt	-2276
giem	-2277
▁Bóg	-2278
▁kas	-2279
cznym	-2280
▁zabój	-2281
rop	-2282
niki	-2283
▁wiemy	-2284
▁pozwoli	-2285
000	-2286
akie	-2287
▁ele	-2288
▁zwyk	-2289
mieniu	-2290
▁wygra	-2291
▁pewnie	-2292
▁przezna	-2293
▁chciałem	-2294
tna	-2295
czkę	-2296
tera	-2297
▁opi	-2298
teres	-2299
szenie	-2300
▁wrócić	-2301
łó	-2302
nes	-2303
nna	-2304
▁Kim	-2305
▁mat	-2306
▁broń	-2307
▁ener	-2308
▁kosz	-2309
▁spoko	-2310
▁Będzie	-2311
▁danych	-2312
róbu	-2313
▁Rady	-2314
▁wydaje	-2315
▁samochód	-2316
żu	-2317
▁Sy	-2318
▁Ste	-2319
▁obej	-2320
▁stara	-2321
▁sprawoz	-2322
▁'	-2323
lin	-2324
▁dość	-2325
▁niektó	-2326
rom	-2327
▁łóż	-2328
▁wraca	-2329
▁potrzebuje	-2330
▁przedstawi	-2331
▁one	-2332
▁uli	-2333
▁Słysz	-2334
▁przedsię	-2335
▁y	-2336
wiam	-2337
mawia	-2338
▁wyją	-2339
▁zapła	-2340
▁całkowi	-2341
alne	-2342
▁Praw	-2343
▁osią	-2344
▁więzie	-2345
▁powinno	-2346
tym	-2347
land	-2348
▁godziny	-2349
tychmiast	-2350
sam	-2351
wen	-2352
▁śle	-2353
▁ludz	-2354
▁korzy	-2355
▁kurwa	-2356
▁decyzji	-2357
ff	-2358
tom	-2359
stał	-2360
wart	-2361
▁kre	-2362
dzimy	-2363
▁słowa	-2364
▁możliwe	-2365
▁rodziny	-2366
ału	-2367
▁Pi	-2368
▁cier	-2369
▁inter	-2370
▁przewi	-2371
▁wartości	-2372
▁11	-2373
▁Ży	-2374
▁zwo	-2375
redni	-2376
▁załat	-2377
▁zrozumie	-2378
▁Ge	-2379
▁UE	-2380
nione	-2381
▁księ	-2382
▁Twoja	-2383
dam	-2384
lub	-2385
▁ści	-2386
bierz	-2387
▁żona	-2388
▁napis	-2389
▁uwagę	-2390
▁Właści	-2391
▁jeżeli	-2392
anie	-2393
▁Bez	-2394
▁rzu	-2395
▁the	-2396
szenia	-2397
▁procedu	-2398
▁wiedział	-2399
cep	-2400
teri	-2401
▁Wal	-2402
▁Członkow	-2403
wal	-2404
wór	-2405
▁Kon	-2406
▁dostać	-2407
▁człowieka	-2408
kam	-2409
▁II	-2410
cyjne	-2411
▁Lepiej	-2412
▁podoba	-2413
▁inaczej	-2414
▁stronie	-2415
▁rozmawiać	-2416
▁Zam	-2417
▁całe	-2418
owanych	-2419
▁dopóki	-2420
▁kobiety	-2421
▁wczoraj	-2422
żą	-2423
tuje	-2424
▁poma	-2425
▁rano	-2426
▁pań	-2427
▁chcą	-2428
▁ogra	-2429
▁sztu	-2430
owarzy	-2431
▁nazwi	-2432
▁uwzglę	-2433
▁zakresie	-2434
▁dziewczyna	-2435
▁zu	-2436
dług	-2437
tyczne	-2438
▁zabaw	-2439
▁Chodzi	-2440
▁strasz	-2441
tej	-2442
lone	-2443
▁Tam	-2444
▁obu	-2445
▁diab	-2446
dować	-2447
nętrz	-2448
▁usłu	-2449
▁ciągu	-2450
▁czeka	-2451
▁wymie	-2452
dopodob	-2453
▁związku	-2454
moż	-2455
pła	-2456
▁Car	-2457
▁psy	-2458
ńczyć	-2459
▁auto	-2460
słuchaj	-2461
▁naszego	-2462
▁działania	-2463
czaj	-2464
▁euro	-2465
▁poje	-2466
▁przysz	-2467
▁pytanie	-2468
▁Ze	-2469
ania	-2470
nica	-2471
cenia	-2472
▁dostęp	-2473
nem	-2474
▁obro	-2475
▁dosta	-2476
▁Przykro	-2477
▁niebezpie	-2478
▁are	-2479
▁kli	-2480
▁kur	-2481
piera	-2482
▁Każdy	-2483
▁Spraw	-2484
▁książ	-2485
▁zostało	-2486
▁najbardziej	-2487
▁Jas	-2488
▁stud	-2489
▁lubię	-2490
.1	-2491
ant	-2492
lubi	-2493
nach	-2494
▁Oni	-2495
▁chro	-2496
▁uczu	-2497
▁elekt	-2498
▁zmienia	-2499
▁miesięcy	-2500
▁powrotem	-2501
lot	-2502
stytu	-2503
▁ziemi	-2504
▁szkoły	-2505
▁obs	-2506
niami	-2507
▁Amery	-2508
▁Jednak	-2509
▁pracow	-2510
▁przyzna	-2511
jmy	-2512
▁14	-2513
▁tłu	-2514
▁głupi	-2515
▁zaraz	-2516
dna	-2517
dania	-2518
▁rozm	-2519
▁muszą	-2520
▁odpowiedzial	-2521
▁Mat	-2522
▁isto	-2523
▁licz	-2524
▁zaję	-2525
▁głowy	-2526
▁jedna	-2527
▁matka	-2528
▁niech	-2529
▁Należy	-2530
ado	-2531
cemy	-2532
▁lek	-2533
▁okoli	-2534
▁zabra	-2535
▁posiada	-2536
▁kochanie	-2537
▁przedsiębior	-2538
▁Gdyby	-2539
▁drodze	-2540
▁potrzebuję	-2541
rac	-2542
kcie	-2543
niesz	-2544
▁bądź	-2545
▁innym	-2546
▁il	-2547
▁Mów	-2548
▁nowe	-2549
▁świa	-2550
▁osiąg	-2551
▁poznać	-2552
▁powinny	-2553
20	-2554
▁50	-2555
rach	-2556
▁Och	-2557
▁organi	-2558
▁badania	-2559
lor	-2560
▁Twoje	-2561
▁całkiem	-2562
▁jesteście	-2563
ld	-2564
gry	-2565
▁16	-2566
▁Lo	-2567
▁poł	-2568
▁rok	-2569
▁ponad	-2570
▁udział	-2571
▁kobieta	-2572
▁zainteres	-2573
sh	-2574
kowe	-2575
cjona	-2576
▁otwo	-2577
▁dow	-2578
dziła	-2579
czycie	-2580
▁jakim	-2581
▁wspom	-2582
▁przemy	-2583
ST	-2584
▁Ga	-2585
▁przykład	-2586
▁Wa	-2587
aków	-2588
wala	-2589
▁Ros	-2590
▁Jaki	-2591
▁czymś	-2592
▁polity	-2593
▁rozumiem	-2594
▁13	-2595
▁wę	-2596
▁jaka	-2597
▁kraju	-2598
▁mówią	-2599
▁miasta	-2600
hat	-2601
▁Bu	-2602
▁Wo	-2603
dniu	-2604
▁gów	-2605
▁odzy	-2606
▁znów	-2607
czniku	-2608
▁zaczę	-2609
▁nikogo	-2610
▁śmierć	-2611
▁ide	-2612
▁głos	-2613
▁szan	-2614
▁Jakie	-2615
▁macie	-2616
wej	-2617
▁Osta	-2618
▁zale	-2619
▁byłam	-2620
rok	-2621
▁Ku	-2622
dniej	-2623
▁cent	-2624
▁resz	-2625
▁idzie	-2626
▁trafi	-2627
▁środków	-2628
it	-2629
▁py	-2630
dzono	-2631
▁Unii	-2632
▁regu	-2633
▁kwest	-2634
▁daj	-2635
▁poka	-2636
▁wskaz	-2637
dł	-2638
ph	-2639
cham	-2640
strzy	-2641
▁czyn	-2642
dzeniu	-2643
▁wiadomość	-2644
zji	-2645
cami	-2646
cuję	-2647
▁móz	-2648
jącym	-2649
▁parę	-2650
▁posta	-2651
▁ciągle	-2652
▁zrobię	-2653
▁zamierz	-2654
▁natychmiast	-2655
▁X	-2656
ret	-2657
▁łą	-2658
▁sła	-2659
▁pole	-2660
▁zabił	-2661
▁zostały	-2662
łów	-2663
▁Jack	-2664
▁odej	-2665
▁prez	-2666
▁urzą	-2667
powiada	-2668
▁często	-2669
gn	-2670
ang	-2671
mię	-2672
źni	-2673
▁ne	-2674
▁Tom	-2675
▁lit	-2676
▁stać	-2677
▁cholery	-2678
▁żadnego	-2679
▁powstrzym	-2680
gam	-2681
rabi	-2682
▁gro	-2683
▁wszel	-2684
▁zabrać	-2685
▁interes	-2686
CH	-2687
▁Ho	-2688
▁Ru	-2689
pisy	-2690
onego	-2691
▁zdoby	-2692
▁twoich	-2693
▁zostawi	-2694
▁Ca	-2695
kości	-2696
▁eksp	-2697
▁pewna	-2698
▁kiedykolwiek	-2699
fek	-2700
net	-2701
siad	-2702
▁cud	-2703
▁Boga	-2704
▁pięć	-2705
▁rozmawi	-2706
▁Chciałbym	-2707
grze	-2708
▁zga	-2709
▁doko	-2710
▁komp	-2711
▁taką	-2712
▁Byłem	-2713
▁osobi	-2714
▁serce	-2715
▁ramach	-2716
OW	-2717
ill	-2718
kań	-2719
ten	-2720
ciem	-2721
nęła	-2722
▁John	-2723
▁speł	-2724
▁syna	-2725
▁wyob	-2726
szedłem	-2727
▁powiesz	-2728
che	-2729
resu	-2730
▁kam	-2731
▁sub	-2732
▁wez	-2733
▁zapa	-2734
liwość	-2735
owałam	-2736
▁sądzę	-2737
▁zakła	-2738
zio	-2739
▁Ile	-2740
▁żyć	-2741
▁Wtedy	-2742
▁25	-2743
▁wew	-2744
▁kimś	-2745
czyłem	-2746
wyczaj	-2747
▁brzmi	-2748
▁kilku	-2749
▁mieli	-2750
▁byłoby	-2751
▁pomyśl	-2752
▁obowiąz	-2753
żył	-2754
ciej	-2755
▁Moje	-2756
▁wieku	-2757
▁zwięk	-2758
▁kocham	-2759
▁Wspólno	-2760
ks	-2761
gów	-2762
imi	-2763
▁17	-2764
rych	-2765
wane	-2766
▁mąż	-2767
jącej	-2768
▁Trze	-2769
▁zdecy	-2770
▁postęp	-2771
▁Wszystkie	-2772
cent	-2773
▁199	-2774
▁dam	-2775
dzień	-2776
▁drogi	-2777
▁spotk	-2778
▁państw	-2779
▁środku	-2780
▁doświad	-2781
rie	-2782
▁połą	-2783
▁twarz	-2784
▁jedynie	-2785
UR	-2786
spek	-2787
▁Moż	-2788
▁krę	-2789
▁brat	-2790
▁Przed	-2791
▁byłeś	-2792
▁lotni	-2793
▁mówił	-2794
▁serca	-2795
▁bezpieczeństwa	-2796
qu	-2797
twie	-2798
▁Idź	-2799
▁nowy	-2800
▁końca	-2801
▁niewi	-2802
▁diabła	-2803
▁stwier	-2804
owaliśmy	-2805
▁Powiedział	-2806
ble	-2807
gać	-2808
chem	-2809
prez	-2810
▁dum	-2811
cznik	-2812
publi	-2813
▁Trzym	-2814
▁choro	-2815
▁straci	-2816
▁środki	-2817
aru	-2818
▁kola	-2819
▁oskar	-2820
▁szczęście	-2821
ss	-2822
▁cen	-2823
▁ocze	-2824
rządza	-2825
nów	-2826
▁ciało	-2827
▁Państwa	-2828
▁zaczyna	-2829
CZ	-2830
▁Di	-2831
▁Żad	-2832
▁gada	-2833
▁komi	-2834
▁para	-2835
▁wody	-2836
▁rzeczywi	-2837
porządzenie	-2838
ya	-2839
pada	-2840
▁Miło	-2841
▁ucze	-2842
▁prywa	-2843
▁odniesieniu	-2844
emo	-2845
przy	-2846
tacji	-2847
▁mocy	-2848
▁zmiany	-2849
ord	-2850
▁Fa	-2851
▁mię	-2852
▁gene	-2853
▁pomoże	-2854
▁wygląd	-2855
▁Właściwie	-2856
▁Europejskiej	-2857
nka	-2858
czek	-2859
onów	-2860
▁Jeden	-2861
wodniczą	-2862
▁drugiej	-2863
anu	-2864
▁Vi	-2865
▁wro	-2866
▁otwar	-2867
▁nowego	-2868
▁zamknię	-2869
cego	-2870
▁tymi	-2871
▁kawał	-2872
▁naszą	-2873
▁panią	-2874
▁ponow	-2875
▁blisko	-2876
lnej	-2877
stry	-2878
▁włą	-2879
▁zmu	-2880
▁człon	-2881
▁wykona	-2882
▁podstaw	-2883
▁chciałbym	-2884
▁Chi	-2885
▁uzy	-2886
▁wpad	-2887
▁mogli	-2888
▁materi	-2889
▁nienawi	-2890
▁zrobiłem	-2891
▁powinieneś	-2892
jącą	-2893
nnie	-2894
▁zje	-2895
▁grze	-2896
▁zesz	-2897
▁miesz	-2898
rozumie	-2899
▁jednej	-2900
rami	-2901
▁Sie	-2902
▁budy	-2903
▁popro	-2904
▁obchodzi	-2905
▁ostatnio	-2906
NA	-2907
óz	-2908
▁Ne	-2909
▁gli	-2910
czona	-2911
▁Poza	-2912
▁muzy	-2913
▁znik	-2914
▁rozwią	-2915
▁dopiero	-2916
▁pomiędzy	-2917
kół	-2918
▁Cze	-2919
▁zły	-2920
▁samym	-2921
▁przeko	-2922
aks	-2923
▁100	-2924
▁Mart	-2925
▁meto	-2926
▁natu	-2927
▁ofer	-2928
▁ręce	-2929
▁wybra	-2930
▁zasłu	-2931
▁wiedzą	-2932
anę	-2933
▁Go	-2934
skać	-2935
▁far	-2936
obec	-2937
tnia	-2938
wała	-2939
▁obo	-2940
▁śla	-2941
czonych	-2942
▁prawdę	-2943
▁pojęcia	-2944
łąd	-2945
▁24	-2946
niku	-2947
stów	-2948
zumi	-2949
▁skąd	-2950
▁zgło	-2951
▁świę	-2952
tności	-2953
▁rozwo	-2954
▁wspólnego	-2955
lnego	-2956
▁hand	-2957
▁Pierw	-2958
▁ciała	-2959
cyjnych	-2960
▁Parlam	-2961
▁cztery	-2962
▁Rozumie	-2963
cał	-2964
mio	-2965
patrz	-2966
szcie	-2967
tkiem	-2968
▁film	-2969
▁zawo	-2970
▁początku	-2971
▁pracować	-2972
▁powiedziałem	-2973
▁mg	-2974
wiat	-2975
stemu	-2976
▁poga	-2977
▁tata	-2978
▁nasza	-2979
▁robię	-2980
▁miłość	-2981
▁myśleć	-2982
▁większ	-2983
▁mieście	-2984
kta	-2985
▁Bru	-2986
▁zja	-2987
▁stop	-2988
czekać	-2989
nikiem	-2990
▁kapit	-2991
▁zewnątrz	-2992
cka	-2993
nne	-2994
▁Du	-2995
ształ	-2996
▁szef	-2997
pać	-2998
anta	-2999
▁Zie	-3000
▁leku	-3001
▁prezy	-3002
▁stosu	-3003
▁Pozwól	-3004
▁dostar	-3005
▁wymaga	-3006
▁potrzebu	-3007
▁Rozporządzenie	-3008
▁całym	-3009
▁rynku	-3010
▁mogłem	-3011
▁samego	-3012
▁szkole	-3013
▁kontroli	-3014
noc	-3015
rum	-3016
▁Oj	-3017
▁zasad	-3018
owaniem	-3019
▁zrobiłeś	-3020
▁stosowania	-3021
cer	-3022
tro	-3023
dzam	-3024
raca	-3025
ścić	-3026
▁sir	-3027
▁złe	-3028
▁uzna	-3029
chanie	-3030
czeniu	-3031
▁chcie	-3032
▁osoby	-3033
▁wyjść	-3034
▁wziąć	-3035
▁chciałam	-3036
kan	-3037
▁Si	-3038
ciaż	-3039
jeżd	-3040
▁Dan	-3041
▁ska	-3042
▁loka	-3043
▁wyba	-3044
▁wzro	-3045
▁zmar	-3046
mienie	-3047
▁towarzy	-3048
end	-3049
▁Mc	-3050
▁kwa	-3051
▁2005	-3052
▁Było	-3053
▁Wiel	-3054
▁poczu	-3055
▁udało	-3056
▁znisz	-3057
▁trzech	-3058
▁najwięk	-3059
▁Myślałam	-3060
▁istnieje	-3061
▁myślałem	-3062
▁uwierzyć	-3063
▁ge	-3064
▁ło	-3065
para	-3066
▁oba	-3067
▁żoł	-3068
▁choler	-3069
▁innymi	-3070
▁pierwsze	-3071
EW	-3072
Nie	-3073
▁odw	-3074
▁Zabi	-3075
▁czek	-3076
▁krew	-3077
torium	-3078
▁broni	-3079
▁punkt	-3080
▁człowiekiem	-3081
daj	-3082
sji	-3083
▁El	-3084
cale	-3085
▁Sto	-3086
▁wyd	-3087
owano	-3088
▁dane	-3089
▁Ciebie	-3090
▁świata	-3091
noś	-3092
pią	-3093
▁Ry	-3094
▁gry	-3095
▁ple	-3096
czych	-3097
rócić	-3098
▁ubra	-3099
▁uczy	-3100
▁dolar	-3101
▁maszy	-3102
dzeniem	-3103
▁mówiłem	-3104
▁potwier	-3105
dopodobnie	-3106
▁wieczorem	-3107
RA	-3108
▁tre	-3109
▁zatru	-3110
▁miłości	-3111
▁wchodzi	-3112
emi	-3113
▁Ed	-3114
▁dał	-3115
▁tył	-3116
▁umar	-3117
▁urat	-3118
▁klasy	-3119
▁obraz	-3120
▁przykro	-3121
zależ	-3122
▁spoj	-3123
bierze	-3124
▁Pomyśl	-3125
▁miałam	-3126
▁spotkać	-3127
czeń	-3128
rzał	-3129
▁Gre	-3130
▁Tro	-3131
▁spa	-3132
▁sty	-3133
▁weź	-3134
mienia	-3135
▁kości	-3136
▁wiedziałem	-3137
prac	-3138
▁Ben	-3139
tekty	-3140
tować	-3141
▁mowa	-3142
▁seku	-3143
obowią	-3144
pełnie	-3145
czająco	-3146
▁zastrze	-3147
▁zmienić	-3148
▁Będziesz	-3149
▁dziewczyny	-3150
▁wszystkiego	-3151
dzone	-3152
zania	-3153
▁Była	-3154
▁gorą	-3155
nięcia	-3156
▁najmniej	-3157
▁produktów	-3158
▁zy	-3159
krót	-3160
▁Joe	-3161
▁dwo	-3162
▁usu	-3163
▁Stra	-3164
lności	-3165
▁spowo	-3166
▁widzi	-3167
▁przyję	-3168
va	-3169
jaw	-3170
krę	-3171
psu	-3172
ują	-3173
▁faj	-3174
▁pal	-3175
▁Nadal	-3176
▁kobiet	-3177
▁ochrony	-3178
fać	-3179
kin	-3180
kom	-3181
pozy	-3182
▁nar	-3183
▁prag	-3184
▁zdol	-3185
▁martw	-3186
▁odkry	-3187
▁szuka	-3188
▁występ	-3189
▁przepis	-3190
mó	-3191
ine	-3192
zdu	-3193
zwo	-3194
lona	-3195
▁błąd	-3196
▁krzy	-3197
▁słowo	-3198
▁Th	-3199
waży	-3200
ytać	-3201
▁chi	-3202
owymi	-3203
▁praca	-3204
▁daleko	-3205
▁każdej	-3206
▁stronę	-3207
▁zabija	-3208
▁zależy	-3209
▁względu	-3210
▁Będziemy	-3211
▁cokolwiek	-3212
▁powiedziałeś	-3213
▁rozporządzenie	-3214
nerw	-3215
niec	-3216
tków	-3217
▁ana	-3218
tykuł	-3219
▁Mógł	-3220
▁Czego	-3221
▁papie	-3222
▁umiera	-3223
▁widział	-3224
lik	-3225
dach	-3226
cenie	-3227
▁Geor	-3228
▁lecz	-3229
▁pios	-3230
ałabym	-3231
krótce	-3232
▁budże	-3233
▁uciek	-3234
ell	-3235
▁Kró	-3236
▁obję	-3237
▁przeka	-3238
▁dolarów	-3239
▁Przecież	-3240
eli	-3241
wem	-3242
enta	-3243
▁idź	-3244
czyła	-3245
narod	-3246
trzeć	-3247
▁poru	-3248
▁służ	-3249
▁Skoro	-3250
▁środka	-3251
▁rodzaju	-3252
2.	-3253
▁fo	-3254
port	-3255
▁dwu	-3256
▁tow	-3257
▁umy	-3258
▁młod	-3259
▁konku	-3260
▁wyrzu	-3261
▁zagra	-3262
▁mówiąc	-3263
▁szansę	-3264
▁problemy	-3265
gno	-3266
gor	-3267
erwa	-3268
stości	-3269
▁należ	-3270
▁pójść	-3271
▁Zadzwo	-3272
▁wyciąg	-3273
▁systemu	-3274
▁przestęp	-3275
EN	-3276
sia	-3277
▁Pu	-3278
feren	-3279
▁nazy	-3280
▁oszu	-3281
▁ukra	-3282
▁około	-3283
▁robią	-3284
▁sprób	-3285
▁Widzisz	-3286
▁wieczór	-3287
▁pozwolić	-3288
▁powinienem	-3289
▁dotyczących	-3290
.,	-3291
del	-3292
▁ml	-3293
rzyło	-3294
stroż	-3295
▁Cześć	-3296
▁okres	-3297
▁urodzi	-3298
▁wierzę	-3299
--	-3300
lna	-3301
dent	-3302
▁Mog	-3303
pełni	-3304
▁ciem	-3305
▁mini	-3306
▁skoro	-3307
▁zatem	-3308
▁znasz	-3309
▁dziedzi	-3310
▁sytuacji	-3311
▁członkowskie	-3312
chni	-3313
enty	-3314
▁rand	-3315
dności	-3316
pienia	-3317
▁odwie	-3318
▁organ	-3319
▁ograni	-3320
nicznych	-3321
▁odpowiada	-3322
▁szczególności	-3323
lika	-3324
▁Oto	-3325
▁boga	-3326
▁poży	-3327
▁usły	-3328
▁zbli	-3329
▁drugi	-3330
▁jednost	-3331
▁zwierzę	-3332
▁sprawdzić	-3333
▁Q	-3334
par	-3335
nale	-3336
rzej	-3337
świe	-3338
▁Jej	-3339
▁Też	-3340
▁kwo	-3341
▁skó	-3342
▁Obie	-3343
▁zagro	-3344
▁Trzeba	-3345
▁podstawie	-3346
ają	-3347
fes	-3348
ris	-3349
lera	-3350
mować	-3351
owani	-3352
szczy	-3353
▁agen	-3354
▁mało	-3355
▁konsu	-3356
▁matki	-3357
▁mogło	-3358
▁pokój	-3359
▁poszu	-3360
▁nowych	-3361
▁czujesz	-3362
▁ostatnie	-3363
▁wystarczy	-3364
▁przynajmniej	-3365
RZ	-3366
tet	-3367
▁uz	-3368
erwo	-3369
▁doj	-3370
▁dra	-3371
torem	-3372
cznika	-3373
kowane	-3374
▁głowę	-3375
▁późno	-3376
▁wspólnot	-3377
▁spotkanie	-3378
SA	-3379
ako	-3380
lach	-3381
▁jad	-3382
akiem	-3383
denty	-3384
▁dowód	-3385
▁ojcem	-3386
▁plane	-3387
▁Potrzeb	-3388
▁dokumen	-3389
▁tydzień	-3390
▁dostanie	-3391
wyż	-3392
▁Dr	-3393
▁gu	-3394
▁us	-3395
nice	-3396
▁EUR	-3397
▁błę	-3398
▁żon	-3399
▁radę	-3400
▁wspar	-3401
▁dziwne	-3402
▁miasto	-3403
▁mógłby	-3404
▁Chciałem	-3405
▁Ke	-3406
▁di	-3407
dzia	-3408
nieć	-3409
tyka	-3410
▁Pre	-3411
▁Weź	-3412
▁fak	-3413
▁smu	-3414
stety	-3415
▁Zamk	-3416
▁agent	-3417
▁chodź	-3418
▁trans	-3419
tycznych	-3420
▁działań	-3421
▁przyczy	-3422
▁historii	-3423
EWG	-3424
moc	-3425
liza	-3426
rwać	-3427
siej	-3428
▁Kar	-3429
▁Szu	-3430
▁funk	-3431
▁powy	-3432
▁wami	-3433
▁dobrym	-3434
▁ponownie	-3435
▁Posłuchaj	-3436
▁ha	-3437
▁kupi	-3438
▁poło	-3439
▁połu	-3440
▁wywo	-3441
▁śpie	-3442
czekaj	-3443
owałeś	-3444
▁wykaz	-3445
▁raczej	-3446
▁przekaz	-3447
▁przyjem	-3448
lił	-3449
dzać	-3450
▁Pój	-3451
▁dar	-3452
▁zim	-3453
zanie	-3454
▁gwia	-3455
puścić	-3456
▁Zaraz	-3457
▁napra	-3458
▁Miałem	-3459
▁głowie	-3460
▁Powinni	-3461
▁rodzice	-3462
BI	-3463
gól	-3464
raża	-3465
śnie	-3466
▁głę	-3467
▁wymy	-3468
▁zaka	-3469
▁Mówię	-3470
▁cieka	-3471
▁ogląda	-3472
▁widzisz	-3473
▁zrobiła	-3474
OD	-3475
kre	-3476
▁Zd	-3477
kość	-3478
▁Jor	-3479
▁rób	-3480
▁wró	-3481
▁dniu	-3482
anawia	-3483
▁małże	-3484
▁tajem	-3485
czeniem	-3486
▁Cieszę	-3487
▁czasem	-3488
▁pozost	-3489
▁mężczyz	-3490
▁spodzie	-3491
▁załączniku	-3492
wer	-3493
kiwa	-3494
▁zao	-3495
ździe	-3496
▁spóź	-3497
▁Tutaj	-3498
▁substan	-3499
▁przestrze	-3500
▁v	-3501
cen	-3502
dyn	-3503
▁Tym	-3504
▁pozn	-3505
▁regi	-3506
▁Czuję	-3507
▁kieru	-3508
▁miało	-3509
▁piosen	-3510
▁prakty	-3511
▁takiej	-3512
▁zmniej	-3513
▁zrobisz	-3514
▁dowiedzieć	-3515
▁wystarczająco	-3516
II	-3517
lbi	-3518
poś	-3519
▁And	-3520
▁Ani	-3521
▁Jam	-3522
▁pró	-3523
▁spad	-3524
▁kompu	-3525
▁momen	-3526
▁obywa	-3527
▁okrop	-3528
▁chłopak	-3529
▁dziecka	-3530
▁program	-3531
▁transpo	-3532
▁tygodniu	-3533
▁przyjaciel	-3534
▁uwzględnia	-3535
▁Powiedziałem	-3536
gaż	-3537
▁40	-3538
▁per	-3539
▁rzą	-3540
▁Poli	-3541
▁Spra	-3542
▁meta	-3543
▁razu	-3544
▁drogę	-3545
▁miejsc	-3546
▁niebie	-3547
▁opowie	-3548
▁możecie	-3549
gły	-3550
ksy	-3551
cach	-3552
gram	-3553
kowy	-3554
lnym	-3555
rząt	-3556
▁Zje	-3557
▁suk	-3558
▁Stan	-3559
▁mała	-3560
▁wybu	-3561
samowi	-3562
▁droga	-3563
▁twier	-3564
▁pierwszym	-3565
yd	-3566
zem	-3567
▁Dy	-3568
▁Or	-3569
▁Jim	-3570
▁zre	-3571
możli	-3572
▁ogól	-3573
▁rząd	-3574
pomina	-3575
▁Micha	-3576
▁areszt	-3577
▁zamiar	-3578
▁panowie	-3579
▁tygodni	-3580
▁zapomni	-3581
▁Przestań	-3582
czes	-3583
ałych	-3584
▁małe	-3585
▁pomi	-3586
▁typu	-3587
▁wysł	-3588
▁Jasne	-3589
▁kierow	-3590
?"	-3591
▁—	-3592
ina	-3593
lia	-3594
andy	-3595
onie	-3596
tarz	-3597
▁medy	-3598
ństwie	-3599
▁Podob	-3600
▁Potem	-3601
▁zobowią	-3602
99	-3603
szeć	-3604
ński	-3605
▁chara	-3606
chodzić	-3607
▁rodzina	-3608
▁dziewczyną	-3609
las	-3610
lek	-3611
rii	-3612
▁21	-3613
▁Hen	-3614
▁pkt	-3615
▁zni	-3616
szysz	-3617
▁Tego	-3618
▁Wciąż	-3619
▁brata	-3620
▁jechać	-3621
▁przecież	-3622
▁następujące	-3623
giel	-3624
▁bru	-3625
▁dup	-3626
alnie	-3627
lacji	-3628
▁rady	-3629
▁Powiem	-3630
▁uczest	-3631
▁zasady	-3632
▁pamiętam	-3633
▁możliwości	-3634
▁niektórych	-3635
AT	-3636
cki	-3637
bora	-3638
cyjny	-3639
▁wyna	-3640
nięcie	-3641
▁wejść	-3642
▁instru	-3643
▁ostrze	-3644
▁rozumiesz	-3645
▁wiadomości	-3646
jny	-3647
lać	-3648
onu	-3649
pon	-3650
ung	-3651
tami	-3652
żone	-3653
▁Bob	-3654
▁wyt	-3655
▁zwy	-3656
tniej	-3657
▁zada	-3658
godnie	-3659
▁Widzę	-3660
▁Wydaje	-3661
▁byliśmy	-3662
▁pozosta	-3663
▁wypadek	-3664
▁najpierw	-3665
▁przepraszam	-3666
być	-3667
erem	-3668
▁Mor	-3669
▁blo	-3670
▁Jezu	-3671
▁inni	-3672
lepiej	-3673
▁klucz	-3674
▁niedo	-3675
▁przyw	-3676
▁Niektó	-3677
▁obserw	-3678
▁europej	-3679
▁całkowicie	-3680
lami	-3681
lisz	-3682
telu	-3683
▁tor	-3684
gdzie	-3685
wałem	-3686
▁doro	-3687
▁idio	-3688
▁obsz	-3689
▁wymi	-3690
▁złam	-3691
▁dyrektywy	-3692
▁ć	-3693
ham	-3694
alny	-3695
koty	-3696
nowa	-3697
▁duży	-3698
▁inwe	-3699
▁poni	-3700
▁reak	-3701
▁zdra	-3702
▁Można	-3703
▁Szcze	-3704
▁jakąś	-3705
▁kupić	-3706
▁wobec	-3707
▁ciężko	-3708
▁pieprz	-3709
▁robimy	-3710
▁zacząć	-3711
fię	-3712
ory	-3713
tąd	-3714
usz	-3715
żem	-3716
▁pis	-3717
lność	-3718
▁Prób	-3719
▁druży	-3720
▁osobą	-3721
▁reali	-3722
▁chcemy	-3723
▁pozwól	-3724
▁telewi	-3725
▁wstrzy	-3726
▁rodzinę	-3727
▁zacznie	-3728
▁zdjęcia	-3729
▁powinnam	-3730
▁świetnie	-3731
łka	-3732
wany	-3733
▁Któ	-3734
▁met	-3735
cjach	-3736
▁Mamo	-3737
▁Poka	-3738
▁tato	-3739
▁wojs	-3740
▁znać	-3741
kowych	-3742
▁jasne	-3743
▁młody	-3744
▁ofiar	-3745
▁skrzy	-3746
▁łatwo	-3747
▁prosto	-3748
▁niesamowi	-3749
▁Członkowskie	-3750
zm	-3751
▁ds	-3752
▁ju	-3753
▁of	-3754
▁zi	-3755
owia	-3756
▁oka	-3757
▁2006	-3758
▁drze	-3759
▁spać	-3760
▁stał	-3761
▁nagra	-3762
stanowi	-3763
▁dłużej	-3764
▁Charlie	-3765
▁szczegół	-3766
▁Ce	-3767
▁OK	-3768
gubi	-3769
strz	-3770
▁Ali	-3771
▁Lon	-3772
▁mąd	-3773
▁oto	-3774
▁zbu	-3775
▁męża	-3776
▁rusz	-3777
▁wzię	-3778
▁prosi	-3779
▁skute	-3780
▁zakoń	-3781
▁instytu	-3782
▁pracuje	-3783
▁przeszło	-3784
kowa	-3785
pisz	-3786
▁Nor	-3787
▁bab	-3788
▁cóż	-3789
▁Znaj	-3790
▁zbro	-3791
▁żonę	-3792
▁Takie	-3793
▁pozna	-3794
▁ilości	-3795
▁sprowa	-3796
▁według	-3797
▁Mówiłem	-3798
▁zrozumi	-3799
▁produktu	-3800
▁oczywiście	-3801
10	-3802
NI	-3803
nter	-3804
▁Aby	-3805
▁Cią	-3806
anawi	-3807
stwie	-3808
▁daje	-3809
▁skle	-3810
dziłam	-3811
▁gości	-3812
▁godzinę	-3813
▁przedsta	-3814
źć	-3815
nęło	-3816
▁Bie	-3817
▁Zas	-3818
▁aut	-3819
noszą	-3820
nologi	-3821
▁celów	-3822
niejsza	-3823
▁Znalaz	-3824
▁sposob	-3825
▁wynosi	-3826
▁imieniu	-3827
▁pogadać	-3828
▁leczenia	-3829
▁{	-3830
kał	-3831
żąd	-3832
teli	-3833
łuma	-3834
▁The	-3835
▁Wyso	-3836
▁choć	-3837
▁odci	-3838
▁Dzień	-3839
▁Frank	-3840
▁Patrz	-3841
▁konty	-3842
▁musie	-3843
▁zespo	-3844
▁niewie	-3845
▁żadnej	-3846
▁poważnie	-3847
▁zadzwonić	-3848
ank	-3849
die	-3850
lii	-3851
bacz	-3852
mier	-3853
tion	-3854
▁kul	-3855
chowy	-3856
▁nowo	-3857
▁rękę	-3858
▁Żeby	-3859
▁przet	-3860
▁seksu	-3861
▁ostroż	-3862
▁Ostatni	-3863
▁zrobimy	-3864
▁pewnością	-3865
▁niniejszego	-3866
id	-3867
zę	-3868
ceni	-3869
jnie	-3870
▁biz	-3871
▁dal	-3872
dzony	-3873
rować	-3874
▁Zost	-3875
▁nieu	-3876
▁odda	-3877
▁wido	-3878
▁Świe	-3879
▁przyby	-3880
▁roboty	-3881
▁wielki	-3882
▁dotyczy	-3883
▁wychodzi	-3884
▁Pamiętasz	-3885
dał	-3886
wki	-3887
zdy	-3888
▁..	-3889
▁eg	-3890
atak	-3891
▁Ser	-3892
▁bio	-3893
▁dół	-3894
▁Jedy	-3895
▁skoń	-3896
▁wyro	-3897
chodzę	-3898
▁samej	-3899
▁udzie	-3900
▁Kocham	-3901
▁policji	-3902
▁zatwier	-3903
▁zdjęcie	-3904
▁Powinien	-3905
▁Potrzebuję	-3906
▁4.	-3907
jest	-3908
nami	-3909
▁Bro	-3910
jechał	-3911
▁Następ	-3912
▁przypom	-3913
▁siostra	-3914
▁trzymać	-3915
▁jakiegoś	-3916
▁samochodu	-3917
▁przewodniczą	-3918
all	-3919
her	-3920
tał	-3921
▁iż	-3922
aksym	-3923
▁ulubi	-3924
▁jakiej	-3925
▁wyboru	-3926
▁częścią	-3927
▁grudnia	-3928
▁kłopoty	-3929
▁pokazać	-3930
▁programu	-3931
wają	-3932
▁Dam	-3933
▁uko	-3934
▁2004	-3935
▁Robi	-3936
▁mamo	-3937
▁wizy	-3938
▁Zapom	-3939
▁posłu	-3940
▁powód	-3941
▁świet	-3942
▁niczym	-3943
▁detekty	-3944
▁sądzisz	-3945
▁wspiera	-3946
▁wybiera	-3947
cym	-3948
ram	-3949
ńca	-3950
▁sm	-3951
▁you	-3952
▁Zrób	-3953
▁nadz	-3954
▁obok	-3955
▁opis	-3956
▁aktyw	-3957
▁całej	-3958
▁cudow	-3959
szedłeś	-3960
▁bierze	-3961
▁niezbę	-3962
▁dzisiej	-3963
▁energii	-3964
▁musiała	-3965
▁środowi	-3966
▁Widziałem	-3967
▁=	-3968
gię	-3969
kse	-3970
▁Gi	-3971
▁Hu	-3972
rzeń	-3973
tury	-3974
śród	-3975
miesz	-3976
▁Nazy	-3977
▁duże	-3978
▁słod	-3979
erykań	-3980
kowego	-3981
▁badań	-3982
▁porów	-3983
▁stycz	-3984
▁gdybym	-3985
▁pojawi	-3986
▁żołnie	-3987
▁doprowa	-3988
bry	-3989
ier	-3990
sek	-3991
▁31	-3992
▁Gu	-3993
liny	-3994
▁cuk	-3995
▁sym	-3996
▁firmy	-3997
▁pójdę	-3998
▁rozwi	-3999
▁George	-4000
▁Zjedno	-4001
▁Zobacz	-4002
▁gotowy	-4003
▁poprzez	-4004
▁zupełnie	-4005
sę	-4006
łej	-4007
gami	-4008
▁Ber	-4009
▁Czę	-4010
▁Dok	-4011
▁ucz	-4012
czach	-4013
kowej	-4014
▁Szko	-4015
▁cała	-4016
▁ukła	-4017
▁ślub	-4018
▁czuje	-4019
▁bezpoś	-4020
▁faceta	-4021
▁lubisz	-4022
▁miałeś	-4023
▁podróż	-4024
▁przeży	-4025
▁okresie	-4026
▁właściwie	-4027
dia	-4028
lew	-4029
lis	-4030
rój	-4031
łóż	-4032
śla	-4033
▁Por	-4034
▁górę	-4035
▁moni	-4036
▁ocho	-4037
▁różne	-4038
▁odejść	-4039
▁trzeci	-4040
▁walczyć	-4041
dzieliśmy	-4042
▁Rozumiem	-4043
▁przeszka	-4044
▁widziałam	-4045
▁zatrzymać	-4046
▁Ad	-4047
zują	-4048
▁zaw	-4049
anowi	-4050
dnych	-4051
nąłem	-4052
▁Prac	-4053
▁brak	-4054
▁kump	-4055
▁wrac	-4056
▁źród	-4057
▁adres	-4058
▁super	-4059
▁pozwala	-4060
▁prezent	-4061
▁przesłu	-4062
▁dziękuję	-4063
▁rozmawia	-4064
▁dzieckiem	-4065
▁międzynarod	-4066
ase	-4067
gia	-4068
▁Au	-4069
mini	-4070
nemu	-4071
niać	-4072
▁Zaj	-4073
anymi	-4074
mieni	-4075
torów	-4076
▁obli	-4077
▁pocz	-4078
▁same	-4079
▁osoba	-4080
▁okazji	-4081
▁twarzy	-4082
▁mógłbym	-4083
▁projekt	-4084
▁NA	-4085
▁it	-4086
cisz	-4087
▁Dwa	-4088
niają	-4089
▁sami	-4090
▁sieci	-4091
▁wolno	-4092
▁podzie	-4093
▁lekarza	-4094
▁zarządza	-4095
met	-4096
ciel	-4097
nera	-4098
▁and	-4099
▁kaz	-4100
▁mil	-4101
▁por	-4102
▁Gene	-4103
▁Miał	-4104
▁minu	-4105
▁nową	-4106
▁Środ	-4107
▁żoną	-4108
▁ogrom	-4109
▁labora	-4110
▁poziom	-4111
▁wrócił	-4112
▁narkoty	-4113
▁podejrz	-4114
▁wprowadza	-4115
▁niniejszej	-4116
▁Przynajmniej	-4117
:00	-4118
tru	-4119
ven	-4120
▁he	-4121
tory	-4122
▁Gru	-4123
▁tek	-4124
▁wyk	-4125
rucho	-4126
▁Pana	-4127
▁elem	-4128
▁docho	-4129
▁uważa	-4130
▁wyzna	-4131
▁pytania	-4132
▁przyszłości	-4133
bur	-4134
źle	-4135
spół	-4136
▁Jes	-4137
▁Wol	-4138
▁kro	-4139
▁obi	-4140
▁Alex	-4141
▁drin	-4142
▁efek	-4143
▁Ziemi	-4144
▁pewne	-4145
▁zmian	-4146
▁złego	-4147
▁czekać	-4148
▁zastęp	-4149
szczenia	-4150
▁nazwisko	-4151
▁prowadzi	-4152
▁zabezpie	-4153
▁potrzebujesz	-4154
tur	-4155
▁dź	-4156
▁Pow	-4157
▁Dzwo	-4158
▁dołą	-4159
jechać	-4160
▁grupy	-4161
▁niewy	-4162
▁szale	-4163
▁poświę	-4164
▁zadowo	-4165
▁zajmie	-4166
▁państwo	-4167
▁historia	-4168
ces	-4169
▁Os	-4170
▁Qu	-4171
▁Don	-4172
tysty	-4173
▁poch	-4174
▁seks	-4175
▁tytu	-4176
▁byłaś	-4177
▁gotów	-4178
▁jakoś	-4179
▁wystą	-4180
▁pomaga	-4181
▁kobietą	-4182
▁zamiast	-4183
▁przyjęcie	-4184
jemu	-4185
żony	-4186
▁Jen	-4187
▁jaj	-4188
▁sce	-4189
razić	-4190
▁Dziś	-4191
▁król	-4192
▁week	-4193
▁zech	-4194
▁zrób	-4195
czność	-4196
▁dobrą	-4197
▁oceny	-4198
▁wokół	-4199
▁Gdybym	-4200
▁martwi	-4201
▁robota	-4202
szczenie	-4203
▁stosuje	-4204
▁zrozumieć	-4205
NE	-4206
ght	-4207
gni	-4208
▁fe	-4209
liwa	-4210
▁Cla	-4211
▁ból	-4212
▁zor	-4213
▁Chło	-4214
▁Mike	-4215
▁Zast	-4216
▁bior	-4217
▁biura	-4218
pitanie	-4219
▁mówiła	-4220
▁profes	-4221
▁samolo	-4222
▁strate	-4223
▁własne	-4224
▁znajdu	-4225
▁decyzję	-4226
▁ludziom	-4227
▁powierz	-4228
▁Najpierw	-4229
▁zostawić	-4230
▁produkcji	-4231
rad	-4232
▁2.	-4233
dźmi	-4234
ejdź	-4235
▁Jos	-4236
▁gor	-4237
cjami	-4238
niłem	-4239
▁stre	-4240
▁szac	-4241
▁trwa	-4242
▁uspo	-4243
owodni	-4244
▁Czyli	-4245
▁mecha	-4246
▁wielo	-4247
▁zająć	-4248
▁zależ	-4249
raźniej	-4250
reszcie	-4251
▁doktor	-4252
▁przestać	-4253
fy	-4254
cky	-4255
syw	-4256
▁Im	-4257
▁ab	-4258
spie	-4259
▁Dar	-4260
▁sąd	-4261
▁wku	-4262
ciąga	-4263
grafi	-4264
▁góry	-4265
▁kart	-4266
▁tęsk	-4267
▁wysy	-4268
▁żony	-4269
▁pewny	-4270
▁sprzę	-4271
▁ulicy	-4272
nionych	-4273
tycznie	-4274
▁wiecie	-4275
▁zobaczy	-4276
▁amerykań	-4277
▁powinnaś	-4278
▁konieczne	-4279
▁przewidzi	-4280
zja	-4281
▁Hi	-4282
anem	-4283
ckie	-4284
▁bom	-4285
▁bur	-4286
nnych	-4287
▁wrze	-4288
tyczny	-4289
▁komór	-4290
▁wcale	-4291
▁Brukse	-4292
▁normal	-4293
▁wracać	-4294
▁znaczenia	-4295
▁dziewczynę	-4296
▁zobaczenia	-4297
▁pę	-4298
erry	-4299
▁FBI	-4300
▁Lin	-4301
▁Uży	-4302
▁kos	-4303
tnych	-4304
▁stru	-4305
▁kredy	-4306
owanego	-4307
▁Wybacz	-4308
▁ludźmi	-4309
▁przywo	-4310
▁Trzymaj	-4311
▁rozwoju	-4312
▁interesu	-4313
▁Wspólnoty	-4314
▁przyjacielem	-4315
ed	-4316
niła	-4317
▁Hol	-4318
▁Zro	-4319
▁pil	-4320
▁prz	-4321
▁Tato	-4322
▁zaku	-4323
▁górze	-4324
▁angiel	-4325
▁jakości	-4326
▁wewnętrz	-4327
▁przyszedł	-4328
lną	-4329
kamy	-4330
▁typ	-4331
niemy	-4332
stanę	-4333
▁Zało	-4334
mentów	-4335
▁usług	-4336
▁uwagi	-4337
▁wasze	-4338
cyjnego	-4339
▁czerwo	-4340
▁eksper	-4341
▁głupie	-4342
▁latach	-4343
▁skrzyw	-4344
▁wierzy	-4345
▁chcecie	-4346
▁przyjść	-4347
▁różnych	-4348
▁dodatkow	-4349
▁szpitala	-4350
IS	-4351
”.	-4352
deł	-4353
era	-4354
▁Nau	-4355
▁Wrac	-4356
▁atak	-4357
▁upew	-4358
▁zapo	-4359
niejszy	-4360
szędzie	-4361
zwyczaj	-4362
▁niespo	-4363
▁śmiesz	-4364
▁przysię	-4365
▁myślałam	-4366
▁Fi	-4367
▁pr	-4368
cony	-4369
czać	-4370
czyn	-4371
tetu	-4372
▁Bri	-4373
▁Sha	-4374
▁kup	-4375
▁nos	-4376
wiera	-4377
▁spod	-4378
▁twar	-4379
▁zagi	-4380
▁ciąży	-4381
▁coraz	-4382
▁impre	-4383
▁statek	-4384
▁charakt	-4385
▁przysłu	-4386
▁znajdzie	-4387
▁Słyszałem	-4388
▁pamiętasz	-4389
0.	-4390
eth	-4391
mer	-4392
▁Rz	-4393
rzmi	-4394
siem	-4395
wana	-4396
▁gar	-4397
▁sch	-4398
szech	-4399
▁Cały	-4400
▁Wasz	-4401
▁Znam	-4402
▁nasi	-4403
▁posz	-4404
▁tacy	-4405
▁Zatem	-4406
▁córka	-4407
▁gówno	-4408
▁zwykle	-4409
ministra	-4410
▁Chciałam	-4411
▁stycznia	-4412
▁będziecie	-4413
▁dziewczyn	-4414
▁przyjdzie	-4415
▁powstrzymać	-4416
fo	-4417
▁23	-4418
unku	-4419
▁żar	-4420
▁Byłam	-4421
▁pokry	-4422
▁tysią	-4423
▁wysła	-4424
▁Dzieci	-4425
▁podpis	-4426
▁Rozmawi	-4427
▁Brukseli	-4428
▁prezyden	-4429
▁tygodnie	-4430
▁najlepiej	-4431
▁Powinniśmy	-4432
▁uwzględniając	-4433
leń	-4434
▁22	-4435
▁27	-4436
liwy	-4437
onej	-4438
wasz	-4439
▁Bil	-4440
róbuj	-4441
▁Davi	-4442
▁Uwie	-4443
▁opła	-4444
▁tera	-4445
▁dokon	-4446
▁podło	-4447
▁wpływ	-4448
▁podzię	-4449
▁pomocą	-4450
▁zostaje	-4451
▁związek	-4452
▁milionów	-4453
▁naprawić	-4454
▁zrobiłam	-4455
▁odpowiedź	-4456
▁prawdziwe	-4457
▁szczęśliwy	-4458
▁przypadkach	-4459
/9	-4460
kle	-4461
leci	-4462
nków	-4463
obój	-4464
▁stę	-4465
▁sur	-4466
▁żyw	-4467
niach	-4468
▁sier	-4469
▁wydo	-4470
▁wypo	-4471
▁Jorku	-4472
▁dosko	-4473
▁sprawi	-4474
▁materiał	-4475
▁otrzymuje	-4476
▁prawdopodobnie	-4477
asa	-4478
gna	-4479
▁pł	-4480
▁Man	-4481
tałem	-4482
▁2007	-4483
▁Mary	-4484
▁wsty	-4485
dowanie	-4486
▁jakich	-4487
▁policj	-4488
▁trudne	-4489
▁umożli	-4490
▁zaatak	-4491
czeństwo	-4492
▁zwierząt	-4493
▁najlepszy	-4494
▁San	-4495
▁oca	-4496
lować	-4497
▁znak	-4498
▁Henry	-4499
▁Zamie	-4500
▁nagle	-4501
▁pytań	-4502
▁siedzi	-4503
▁Czasami	-4504
▁Michael	-4505
▁kolację	-4506
▁zabiera	-4507
▁związane	-4508
▁brzmienie	-4509
▁wyłącznie	-4510
▁przychodzi	-4511
!"	-4512
ęż	-4513
omi	-4514
▁Wz	-4515
▁rz	-4516
▁up	-4517
rócz	-4518
▁Mad	-4519
▁Wło	-4520
▁pij	-4521
▁pił	-4522
szony	-4523
▁Sama	-4524
▁panem	-4525
▁sześć	-4526
▁Trochę	-4527
▁sekund	-4528
▁umrzeć	-4529
▁zawart	-4530
▁elektro	-4531
▁miesiąc	-4532
▁niepraw	-4533
▁nauczycie	-4534
▁wyglądasz	-4535
▁powiedziałam	-4536
▁zastosowanie	-4537
CJ	-4538
bów	-4539
fikow	-4540
▁Cent	-4541
▁gatu	-4542
▁krót	-4543
▁tyłu	-4544
▁wyco	-4545
▁koszu	-4546
▁pocho	-4547
▁powią	-4548
▁mogłam	-4549
▁Zamknij	-4550
▁decyzja	-4551
▁prepara	-4552
ls	-4553
▁Af	-4554
dzeń	-4555
ryta	-4556
tuję	-4557
▁Kur	-4558
▁dło	-4559
wiają	-4560
▁duch	-4561
▁napi	-4562
▁nowa	-4563
▁stanu	-4564
▁uszko	-4565
▁uśmie	-4566
▁wycie	-4567
▁wśród	-4568
▁nikomu	-4569
▁reprez	-4570
▁Zabierz	-4571
▁centrum	-4572
▁zapytać	-4573
▁rodziców	-4574
▁człowieku	-4575
SZ	-4576
rzęd	-4577
▁New	-4578
▁War	-4579
▁bawi	-4580
▁grać	-4581
▁test	-4582
▁zabu	-4583
staura	-4584
▁jakaś	-4585
▁siost	-4586
▁stand	-4587
▁uciec	-4588
▁Ciągle	-4589
▁Trakta	-4590
▁warunki	-4591
▁zostaną	-4592
wyraźniej	-4593
▁miesiące	-4594
▁znajduje	-4595
▁potrzebujemy	-4596
pia	-4597
▁Cy	-4598
ance	-4599
leka	-4600
sona	-4601
▁Dru	-4602
▁gaz	-4603
▁zmę	-4604
▁kata	-4605
▁James	-4606
▁byłby	-4607
▁mózgu	-4608
▁obsłu	-4609
▁odrzu	-4610
▁pracu	-4611
▁Sporzą	-4612
▁Uważaj	-4613
▁Wystar	-4614
▁produkt	-4615
▁zeszłym	-4616
▁mieliśmy	-4617
▁szpitalu	-4618
▁udowodni	-4619
▁sprzedaży	-4620
▁słyszałem	-4621
▁pierwszego	-4622
▁załącznika	-4623
-1	-4624
vo	-4625
▁1.	-4626
asad	-4627
form	-4628
nęli	-4629
▁For	-4630
▁oku	-4631
▁prę	-4632
▁rad	-4633
▁Niem	-4634
▁Rich	-4635
▁małą	-4636
cyjnej	-4637
▁kamie	-4638
▁koleś	-4639
▁wykon	-4640
łaszcza	-4641
▁kontak	-4642
▁Artykuł	-4643
▁kontakt	-4644
▁znalazł	-4645
▁więzienia	-4646
▁członkowskich	-4647
OR	-4648
car	-4649
imo	-4650
▁0,	-4651
bieg	-4652
czem	-4653
dźmy	-4654
gazy	-4655
▁Cał	-4656
▁Sze	-4657
▁emo	-4658
▁wyż	-4659
lania	-4660
owały	-4661
ściem	-4662
▁anty	-4663
▁fran	-4664
▁odwo	-4665
▁Ponad	-4666
▁robił	-4667
▁Nazywa	-4668
▁statku	-4669
▁zdanie	-4670
▁niezwyk	-4671
▁ostatniej	-4672
CE	-4673
oła	-4674
ńcu	-4675
anka	-4676
anki	-4677
▁kol	-4678
niony	-4679
▁Niez	-4680
▁głup	-4681
▁koszt	-4682
▁mikro	-4683
▁pełni	-4684
▁włosy	-4685
▁łóżka	-4686
▁ostate	-4687
▁martwić	-4688
▁wspomni	-4689
▁zbrodni	-4690
▁Niestety	-4691
▁Niniejsze	-4692
▁możliwość	-4693
▁mężczyzna	-4694
▁Sporządzono	-4695
fini	-4696
▁Kat	-4697
▁chę	-4698
▁ślu	-4699
grywa	-4700
▁Jako	-4701
▁Jutro	-4702
▁Produ	-4703
▁termi	-4704
▁maksym	-4705
▁moment	-4706
▁zwycię	-4707
▁partner	-4708
▁wielkie	-4709
▁mężczyzn	-4710
▁najlepsze	-4711
▁ustanawia	-4712
bija	-4713
guje	-4714
▁Star	-4715
▁sekre	-4716
▁wiary	-4717
▁wście	-4718
▁Mówisz	-4719
▁Prawie	-4720
▁powiet	-4721
▁chronić	-4722
▁wkrótce	-4723
▁Kochanie	-4724
▁operacji	-4725
▁produkty	-4726
▁spróbować	-4727
ker	-4728
wan	-4729
part	-4730
łkow	-4731
▁Ang	-4732
▁Fre	-4733
▁Her	-4734
▁Nad	-4735
▁Rze	-4736
▁moi	-4737
▁zmy	-4738
▁Mają	-4739
▁Nasz	-4740
▁dotk	-4741
▁wios	-4742
▁zawi	-4743
ździer	-4744
▁dysku	-4745
▁nagro	-4746
▁pobli	-4747
▁zezna	-4748
fikacji	-4749
▁Podoba	-4750
▁budżet	-4751
▁przede	-4752
▁przyzn	-4753
▁wielko	-4754
▁Podczas	-4755
▁dobrego	-4756
▁dziesię	-4757
▁inwesty	-4758
▁patrzeć	-4759
▁przeczy	-4760
▁przegra	-4761
▁przepro	-4762
▁skarbie	-4763
▁wartość	-4764
▁wypadku	-4765
▁chciałeś	-4766
▁polityki	-4767
▁restaura	-4768
OM	-4769
ct	-4770
obi	-4771
rol	-4772
rot	-4773
sja	-4774
vin	-4775
wóz	-4776
łap	-4777
▁1,	-4778
▁zb	-4779
miot	-4780
nomi	-4781
▁Bur	-4782
▁Sim	-4783
▁Tru	-4784
▁fra	-4785
▁idę	-4786
▁pią	-4787
▁pło	-4788
▁rek	-4789
▁indy	-4790
▁kilo	-4791
▁okrę	-4792
wienia	-4793
▁Popro	-4794
▁drugą	-4795
▁matką	-4796
▁popra	-4797
▁sensu	-4798
▁wojny	-4799
▁składa	-4800
▁wieści	-4801
▁paździer	-4802
▁znaczenie	-4803
▁współpracy	-4804
▁znajdziemy	-4805
nó	-4806
bel	-4807
▁Ve	-4808
▁sę	-4809
ślić	-4810
śnia	-4811
▁Eri	-4812
▁Zak	-4813
▁kat	-4814
anach	-4815
stego	-4816
▁Niko	-4817
▁pogo	-4818
▁sygn	-4819
▁dniem	-4820
kowania	-4821
▁Zostaw	-4822
▁gotowa	-4823
▁lepsze	-4824
▁mógłbyś	-4825
▁zauważy	-4826
▁otworzyć	-4827
▁większość	-4828
▁Chciałabym	-4829
▁odpowiednie	-4830
▁okoliczności	-4831
ER	-4832
uf	-4833
gim	-4834
▁60	-4835
▁Um	-4836
sach	-4837
szek	-4838
▁fał	-4839
▁her	-4840
▁zra	-4841
▁Jaka	-4842
▁Sara	-4843
▁samą	-4844
▁wraz	-4845
wienie	-4846
▁Kiedyś	-4847
▁Miałam	-4848
▁chociaż	-4849
▁wniosek	-4850
▁zapobie	-4851
▁zdrowia	-4852
▁wiedziała	-4853
▁powiedziałaś	-4854
▁przyjaciółmi	-4855
UE	-4856
lon	-4857
ser	-4858
tak	-4859
try	-4860
▁26	-4861
▁Zw	-4862
cisk	-4863
wamy	-4864
▁DNA	-4865
▁bło	-4866
▁mas	-4867
czeni	-4868
▁Lecz	-4869
▁gość	-4870
▁nogi	-4871
▁popu	-4872
▁zare	-4873
twarza	-4874
▁Chłop	-4875
▁Witam	-4876
▁karie	-4877
▁mocno	-4878
▁obiad	-4879
▁umrze	-4880
▁zawar	-4881
▁żebyśmy	-4882
▁niezależ	-4883
▁przepisy	-4884
▁wyjaśnić	-4885
▁Cokolwiek	-4886
▁powiedzenia	-4887
▁przyjaciele	-4888
1.	-4889
ON	-4890
PA	-4891
śni	-4892
cimy	-4893
ówki	-4894
owało	-4895
▁Ange	-4896
▁Byłeś	-4897
▁Macie	-4898
▁dziad	-4899
▁Czekaj	-4900
▁Według	-4901
▁Wiecie	-4902
▁dodatk	-4903
▁klient	-4904
▁ofiary	-4905
▁popraw	-4906
▁ryzyko	-4907
▁szukać	-4908
▁wybrać	-4909
▁wynika	-4910
▁elektry	-4911
▁pójdzie	-4912
▁tysięcy	-4913
▁wyjątkiem	-4914
▁administra	-4915
▁niniejszym	-4916
3.	-4917
YCH	-4918
cać	-4919
jął	-4920
kło	-4921
nar	-4922
tuj	-4923
ćmi	-4924
▁gi	-4925
▁wd	-4926
jona	-4927
▁Moi	-4928
▁Naz	-4929
▁Szy	-4930
▁łat	-4931
entów	-4932
▁alko	-4933
▁fizy	-4934
▁ogło	-4935
▁reje	-4936
róbuję	-4937
▁dyrek	-4938
▁głębo	-4939
▁nieco	-4940
▁genera	-4941
▁gościa	-4942
▁najgor	-4943
▁najważ	-4944
▁pociąg	-4945
▁pozbyć	-4946
▁psycho	-4947
dziennie	-4948
▁kobietę	-4949
▁pozwolę	-4950
▁spokoju	-4951
▁weekend	-4952
▁historię	-4953
▁potrzeby	-4954
▁morderstwa	-4955
50	-4956
mą	-4957
adę	-4958
▁Op	-4959
tura	-4960
ńców	-4961
▁Idę	-4962
▁Taa	-4963
▁Win	-4964
▁eta	-4965
▁Face	-4966
▁list	-4967
działu	-4968
▁pasuje	-4969
▁uważam	-4970
▁budynku	-4971
▁światło	-4972
▁niepożąd	-4973
▁zrobiłaś	-4974
▁ostatnich	-4975
▁odpowiednio	-4976
▁$	-4977
cis	-4978
lec	-4979
lki	-4980
alna	-4981
cjon	-4982
▁Być	-4983
▁zem	-4984
ważne	-4985
▁Czyż	-4986
▁kana	-4987
▁ruch	-4988
▁siły	-4989
▁szcz	-4990
owanym	-4991
▁Peter	-4992
▁biznes	-4993
▁hotelu	-4994
▁magazy	-4995
▁opuści	-4996
▁zespół	-4997
▁odzyskać	-4998
▁pierwszej	-4999
▁Powinieneś	-5000
▁laboratorium	-5001
8/	-5002
BC	-5003
cio	-5004
▁uf	-5005
orów	-5006
▁Gar	-5007
▁Mal	-5008
▁Oba	-5009
adomo	-5010
ciłem	-5011
▁Pozo	-5012
▁nosi	-5013
▁byśmy	-5014
▁dawki	-5015
▁plany	-5016
▁skład	-5017
▁sporo	-5018
▁dostos	-5019
▁gdybyś	-5020
▁przyda	-5021
▁przywi	-5022
▁szansa	-5023
▁wykony	-5024
▁zaczął	-5025
▁zbiera	-5026
▁Nazywam	-5027
▁czasami	-5028
▁facetem	-5029
▁kontynu	-5030
▁policję	-5031
▁postaci	-5032
▁przyznać	-5033
▁określone	-5034
▁porozumie	-5035
▁więzieniu	-5036
▁technologi	-5037
▁Europejskiego	-5038
Po	-5039
puść	-5040
▁eko	-5041
▁lip	-5042
▁śmi	-5043
cznij	-5044
ownie	-5045
▁wers	-5046
▁Świę	-5047
▁Dalej	-5048
▁Danie	-5049
▁czerw	-5050
▁krzyw	-5051
▁narze	-5052
▁popeł	-5053
▁wdzię	-5054
▁artyku	-5055
▁pogrze	-5056
▁trudno	-5057
▁jedynym	-5058
▁pewnego	-5059
▁trakcie	-5060
▁zamiesz	-5061
▁zamierzam	-5062
▁pracowników	-5063
mon	-5064
▁Ab	-5065
paść	-5066
urze	-5067
▁Sch	-5068
▁Wym	-5069
▁bos	-5070
▁lun	-5071
kowie	-5072
terze	-5073
▁2009	-5074
▁Mnie	-5075
▁biał	-5076
▁kasy	-5077
▁opar	-5078
▁synu	-5079
▁zdję	-5080
owanej	-5081
▁Przyj	-5082
▁Zanim	-5083
▁kolor	-5084
▁patrz	-5085
▁walki	-5086
▁jedyną	-5087
▁kontra	-5088
▁piękna	-5089
▁proste	-5090
▁psychi	-5091
▁zgadza	-5092
▁poszedł	-5093
▁konkuren	-5094
▁pochodzi	-5095
▁Powiedziała	-5096
▁bezpośredni	-5097
ft	-5098
sen	-5099
▁ką	-5100
▁Han	-5101
▁Max	-5102
▁Sek	-5103
▁gwa	-5104
▁poż	-5105
▁taj	-5106
▁uzn	-5107
▁Chri	-5108
▁Jane	-5109
▁oddy	-5110
▁skur	-5111
▁odkąd	-5112
▁opowi	-5113
▁trakt	-5114
▁Powinna	-5115
▁produce	-5116
▁próbuje	-5117
▁zasadzie	-5118
▁morderstwo	-5119
DZ	-5120
hy	-5121
bić	-5122
ksz	-5123
yle	-5124
▁2,	-5125
bliż	-5126
▁Mil	-5127
▁win	-5128
▁wyz	-5129
długo	-5130
gosła	-5131
szłam	-5132
▁jeść	-5133
czania	-5134
żeniem	-5135
▁handl	-5136
▁stylu	-5137
▁uprze	-5138
▁wybór	-5139
▁całego	-5140
▁komple	-5141
▁martwy	-5142
▁spójrz	-5143
▁musieli	-5144
▁mówiłeś	-5145
▁obecnie	-5146
▁pacjent	-5147
▁wytrzym	-5148
▁pierwsza	-5149
▁pierwszą	-5150
▁szybciej	-5151
▁usłyszeć	-5152
▁Wyglądasz	-5153
▁prawdziwy	-5154
▁przepisów	-5155
▁współprac	-5156
▁przyszłość	-5157
lta	-5158
▁29	-5159
dami	-5160
śleć	-5161
▁Ind	-5162
▁aka	-5163
▁żół	-5164
▁Mama	-5165
dziłeś	-5166
▁Danny	-5167
▁dawno	-5168
▁listy	-5169
▁wątro	-5170
▁zanie	-5171
▁żaden	-5172
▁kończy	-5173
▁lepszy	-5174
▁Komisję	-5175
▁idziesz	-5176
▁policja	-5177
▁uczucie	-5178
▁doktorze	-5179
▁internet	-5180
▁jedzenie	-5181
▁pochodzą	-5182
▁znacznie	-5183
▁najlepszym	-5184
▁samochodzie	-5185
1/	-5186
tó	-5187
▁:	-5188
wka	-5189
kcja	-5190
rory	-5191
wiać	-5192
łych	-5193
▁Bel	-5194
▁Mon	-5195
▁Pię	-5196
jeżdż	-5197
▁Agen	-5198
▁Brak	-5199
▁grup	-5200
▁pory	-5201
▁poże	-5202
▁spie	-5203
▁utra	-5204
▁użyć	-5205
kracza	-5206
nóstwo	-5207
▁Pozwo	-5208
▁listo	-5209
▁obsza	-5210
▁table	-5211
▁tłuma	-5212
▁łóżku	-5213
tycznego	-5214
▁poniżej	-5215
▁przejść	-5216
▁pacjenta	-5217
▁problemu	-5218
▁rzeczywistości	-5219
jo	-5220
amp	-5221
▁Fo	-5222
▁[1	-5223
pach	-5224
pali	-5225
piec	-5226
▁Con	-5227
▁Flo	-5228
▁Lou	-5229
▁Tre	-5230
▁dem	-5231
wolni	-5232
ńskie	-5233
świet	-5234
▁Bogu	-5235
▁Taki	-5236
▁dole	-5237
▁stoi	-5238
jącymi	-5239
▁Kobie	-5240
▁córki	-5241
▁dzien	-5242
▁pocał	-5243
▁układ	-5244
▁zapis	-5245
cześnie	-5246
▁Chciał	-5247
▁jakbyś	-5248
▁minuty	-5249
▁prosić	-5250
▁usługi	-5251
▁średni	-5252
▁strzela	-5253
▁momencie	-5254
▁wiedziałam	-5255
au	-5256
are	-5257
pii	-5258
▁Py	-5259
▁bó	-5260
chał	-5261
▁pol	-5262
▁tat	-5263
▁zba	-5264
ajcie	-5265
▁Clar	-5266
▁Czek	-5267
▁Zach	-5268
▁rach	-5269
▁żart	-5270
stania	-5271
▁Znale	-5272
▁butel	-5273
▁myślą	-5274
▁narzę	-5275
▁podać	-5276
▁rośli	-5277
▁upraw	-5278
▁widać	-5279
▁nieźle	-5280
▁robotę	-5281
▁trzyma	-5282
▁kolejny	-5283
▁skończyć	-5284
▁sprawied	-5285
▁szczęścia	-5286
▁przyjaciela	-5287
4.	-5288
LA	-5289
ake	-5290
eru	-5291
gli	-5292
ład	-5293
▁ZA	-5294
▁oś	-5295
gany	-5296
stym	-5297
tnym	-5298
▁Oli	-5299
▁cer	-5300
▁chu	-5301
gania	-5302
stwem	-5303
szeni	-5304
▁Paul	-5305
▁fakt	-5306
▁teor	-5307
▁ujaw	-5308
▁wymo	-5309
jeżdża	-5310
owości	-5311
▁Jedno	-5312
▁Stary	-5313
▁bohat	-5314
▁celem	-5315
▁dotar	-5316
▁ilość	-5317
▁miały	-5318
▁spoży	-5319
▁zasko	-5320
▁Ojciec	-5321
▁Uważam	-5322
▁cieszę	-5323
▁jedyny	-5324
▁Cholera	-5325
▁Dzisiaj	-5326
▁samobój	-5327
▁jedzenia	-5328
▁siedzieć	-5329
▁widzenia	-5330
▁nieprawda	-5331
▁znalazłem	-5332
▁przedstawie	-5333
5.	-5334
GO	-5335
arę	-5336
koła	-5337
ktury	-5338
niesi	-5339
łyśmy	-5340
▁Dost	-5341
▁Rada	-5342
▁masy	-5343
▁słów	-5344
niczne	-5345
▁Steve	-5346
▁córkę	-5347
▁wypeł	-5348
▁bratem	-5349
▁pierdo	-5350
▁piękne	-5351
▁rozkaz	-5352
▁kolejne	-5353
▁pobliżu	-5354
▁telefonu	-5355
▁wszelkie	-5356
▁zewnętrz	-5357
▁problemów	-5358
▁Parlamentu	-5359
▁określonych	-5360
To	-5361
łać	-5362
lina	-5363
rzut	-5364
▁cia	-5365
▁kod	-5366
▁psa	-5367
czyna	-5368
dzasz	-5369
▁2008	-5370
▁aktu	-5371
▁leci	-5372
▁pasa	-5373
▁wiru	-5374
▁tyłek	-5375
▁Świat	-5376
▁śledz	-5377
▁kształ	-5378
▁opubli	-5379
▁proces	-5380
▁słucha	-5381
▁Środki	-5382
▁Ponadto	-5383
▁uwielbi	-5384
▁wierzyć	-5385
▁załatwi	-5386
▁chodziło	-5387
▁chłopaka	-5388
▁komunika	-5389
201	-5390
bia	-5391
log	-5392
nci	-5393
ome	-5394
▁en	-5395
▁ow	-5396
eksy	-5397
kier	-5398
mują	-5399
▁Kel	-5400
▁PRZ	-5401
▁ono	-5402
żeniu	-5403
▁cywi	-5404
▁mimo	-5405
▁naro	-5406
▁poin	-5407
▁upad	-5408
▁wątp	-5409
▁Lubię	-5410
▁Nowym	-5411
▁Pokaż	-5412
▁komuś	-5413
▁norma	-5414
▁dostał	-5415
▁ryzyka	-5416
▁nauczyć	-5417
▁powyżej	-5418
▁uważasz	-5419
▁zadanie	-5420
▁załatwić	-5421
▁znajdziesz	-5422
▁października	-5423
IN	-5424
dła	-5425
gla	-5426
gre	-5427
lum	-5428
▁28	-5429
▁Em	-5430
▁Ti	-5431
▁zm	-5432
owań	-5433
widu	-5434
▁Kil	-5435
▁Sły	-5436
▁pry	-5437
angaż	-5438
dował	-5439
dzili	-5440
dzona	-5441
▁ceny	-5442
▁ciep	-5443
▁dłuż	-5444
▁mózg	-5445
owałaś	-5446
▁ekspo	-5447
▁fundu	-5448
▁skont	-5449
▁wyraź	-5450
▁dowody	-5451
▁francu	-5452
▁zwolni	-5453
dziliśmy	-5454
szczęśli	-5455
▁Państwo	-5456
▁potrafię	-5457
▁przestań	-5458
▁rozpozna	-5459
▁uratować	-5460
▁wewnątrz	-5461
▁września	-5462
▁wszędzie	-5463
▁Niektórzy	-5464
▁Widziałeś	-5465
niz	-5466
zda	-5467
▁Sk	-5468
▁nu	-5469
▁zę	-5470
czar	-5471
gnie	-5472
kazu	-5473
nowu	-5474
▁III	-5475
▁pos	-5476
nięty	-5477
rzymy	-5478
▁Księ	-5479
▁abyś	-5480
▁biur	-5481
▁niby	-5482
▁rzad	-5483
▁sypi	-5484
▁zapy	-5485
aniale	-5486
prawie	-5487
▁Inter	-5488
▁Mówią	-5489
▁Znasz	-5490
▁długi	-5491
▁innej	-5492
▁pisto	-5493
▁staje	-5494
tycznej	-5495
▁katego	-5496
▁przewo	-5497
▁usłysz	-5498
▁choroby	-5499
▁działać	-5500
▁pozycji	-5501
▁tymczas	-5502
▁ubezpie	-5503
▁uwierzy	-5504
▁Pamiętaj	-5505
▁prowadzą	-5506
▁rodzinie	-5507
▁utrzymać	-5508
▁Świetnie	-5509
▁wysokości	-5510
▁sprawozdania	-5511
5,	-5512
siu	-5513
spi	-5514
▁80	-5515
cieć	-5516
rozi	-5517
szem	-5518
tnej	-5519
▁Whi	-5520
▁grę	-5521
▁owo	-5522
▁sił	-5523
▁stu	-5524
alnej	-5525
▁Bądź	-5526
▁Tyle	-5527
▁obni	-5528
▁póki	-5529
▁wier	-5530
partam	-5531
▁autob	-5532
▁herba	-5533
▁lekar	-5534
▁przek	-5535
▁wrócę	-5536
▁kredyt	-5537
▁rodzin	-5538
▁sprawą	-5539
▁natural	-5540
▁odbiera	-5541
▁rozwiąz	-5542
▁wniosku	-5543
▁dzieciak	-5544
▁kierunku	-5545
▁próbował	-5546
▁Wystarczy	-5547
▁postanowi	-5548
▁wykorzyst	-5549
].	-5550
sc	-5551
com	-5552
ria	-5553
ówi	-5554
gach	-5555
ling	-5556
stka	-5557
łącz	-5558
▁Min	-5559
▁Sco	-5560
▁wuj	-5561
lanie	-5562
▁czuć	-5563
▁kwie	-5564
▁odle	-5565
▁zwal	-5566
bienia	-5567
▁Harry	-5568
▁Mogła	-5569
▁Powin	-5570
▁Pójdę	-5571
▁Wiele	-5572
▁Znowu	-5573
▁spoty	-5574
▁lekarz	-5575
▁Zostawi	-5576
▁czerwca	-5577
▁ustanowi	-5578
▁substancji	-5579
▁większości	-5580
▁działalności	-5581
OL	-5582
oz	-5583
ime	-5584
lle	-5585
mos	-5586
ńce	-5587
▁Ki	-5588
▁Tę	-5589
tamy	-5590
tona	-5591
▁Ray	-5592
▁gad	-5593
▁jeź	-5594
▁płu	-5595
▁ćwi	-5596
korzy	-5597
kłada	-5598
niona	-5599
▁ogie	-5600
▁pers	-5601
▁pręd	-5602
▁Sądzę	-5603
▁lipca	-5604
▁poten	-5605
styczne	-5606
▁Chcemy	-5607
▁denerw	-5608
▁drinka	-5609
▁jakbym	-5610
▁oficja	-5611
▁skorzy	-5612
▁tamtej	-5613
▁wielką	-5614
▁chłopcy	-5615
▁kochasz	-5616
▁składni	-5617
▁tempera	-5618
▁prowadzić	-5619
▁przyjęcia	-5620
▁Powinienem	-5621
▁Wiedziałem	-5622
30	-5623
OG	-5624
ari	-5625
lly	-5626
rant	-5627
serw	-5628
▁zdo	-5629
ganiz	-5630
onymi	-5631
▁Pier	-5632
▁dala	-5633
▁wysp	-5634
▁włam	-5635
czyłeś	-5636
▁Nasze	-5637
▁czyli	-5638
▁kwali	-5639
▁linii	-5640
▁szery	-5641
▁umowy	-5642
▁zawod	-5643
▁dostaw	-5644
▁liście	-5645
▁niemie	-5646
▁oczywi	-5647
▁zgodne	-5648
▁chcieli	-5649
▁mnóstwo	-5650
▁propozy	-5651
▁przekon	-5652
▁rodziną	-5653
▁zapewnić	-5654
3,	-5655
kura	-5656
muję	-5657
nień	-5658
▁Lee	-5659
▁upo	-5660
▁Mimo	-5661
▁wodę	-5662
nikami	-5663
▁Dowie	-5664
▁dział	-5665
▁zgubi	-5666
▁identy	-5667
▁jakimś	-5668
▁języku	-5669
▁oszczę	-5670
▁piersi	-5671
▁zabije	-5672
▁zdobyć	-5673
▁procent	-5674
▁zaangaż	-5675
▁chłopaki	-5676
▁komputer	-5677
▁lekarzem	-5678
▁projektu	-5679
▁wykorzysty	-5680
nor	-5681
▁90	-5682
chel	-5683
cili	-5684
ctwa	-5685
▁Sir	-5686
▁USA	-5687
▁Vin	-5688
▁mln	-5689
▁wóz	-5690
dźcie	-5691
▁spół	-5692
▁szero	-5693
▁używa	-5694
▁zjeść	-5695
▁krajów	-5696
▁resztę	-5697
▁rzeczą	-5698
▁porówna	-5699
▁postrze	-5700
▁punkcie	-5701
▁wytłuma	-5702
▁własnej	-5703
▁niespodzi	-5704
▁spotkania	-5705
▁ktokolwiek	-5706
▁przypomina	-5707
Je	-5708
rin	-5709
ósł	-5710
ńcz	-5711
▁3.	-5712
ciła	-5713
ning	-5714
unda	-5715
kowym	-5716
równo	-5717
▁czte	-5718
▁demo	-5719
▁nego	-5720
▁odbi	-5721
▁orze	-5722
▁Jimmy	-5723
▁Londy	-5724
▁Rober	-5725
▁dodaje	-5726
▁prawdy	-5727
▁Zgodnie	-5728
▁wiadomo	-5729
▁klientów	-5730
▁ostatnia	-5731
▁początek	-5732
▁poziomie	-5733
▁sytuacja	-5734
▁wsparcia	-5735
▁szczególnie	-5736
ap	-5737
ns	-5738
▁th	-5739
▁uj	-5740
lent	-5741
ston	-5742
szył	-5743
▁Cal	-5744
▁Ken	-5745
▁Mag	-5746
▁Sal	-5747
▁inf	-5748
kanie	-5749
▁Stre	-5750
▁boję	-5751
▁chor	-5752
▁miłe	-5753
▁tere	-5754
▁Dobry	-5755
▁drogą	-5756
▁mogły	-5757
▁stabi	-5758
ńskiego	-5759
▁gorzej	-5760
▁poszło	-5761
▁życiem	-5762
staniesz	-5763
▁Europie	-5764
▁oddział	-5765
▁okolicy	-5766
▁przysto	-5767
▁niezbędne	-5768
▁przyprowa	-5769
/1	-5770
gas	-5771
syć	-5772
łki	-5773
▁At	-5774
alni	-5775
kują	-5776
razy	-5777
wans	-5778
▁Emi	-5779
▁pri	-5780
cieli	-5781
stość	-5782
wałeś	-5783
▁krok	-5784
▁leży	-5785
▁odpo	-5786
▁waka	-5787
▁wych	-5788
▁zwol	-5789
▁śnie	-5790
pienie	-5791
tyczna	-5792
żonych	-5793
▁podró	-5794
▁potwo	-5795
▁sklep	-5796
▁stron	-5797
▁swego	-5798
▁wymag	-5799
▁bronią	-5800
▁wybuch	-5801
▁Republi	-5802
▁chodzić	-5803
▁dziećmi	-5804
▁kwestia	-5805
▁terrory	-5806
▁uczucia	-5807
▁potrzeba	-5808
▁wcześnie	-5809
▁zapomnieć	-5810
▁zastanawi	-5811
▁rozporządzeniu	-5812
lad	-5813
żeń	-5814
▁6.	-5815
▁Ir	-5816
▁oz	-5817
jekt	-5818
kasz	-5819
rwał	-5820
▁Fin	-5821
▁gej	-5822
▁kłó	-5823
▁ner	-5824
▁opu	-5825
▁Jake	-5826
▁brzu	-5827
▁bzdu	-5828
▁magi	-5829
▁maja	-5830
▁niew	-5831
▁Nasza	-5832
▁Spotk	-5833
▁Witaj	-5834
▁chemi	-5835
▁kryzy	-5836
▁nowym	-5837
▁straż	-5838
▁imprez	-5839
▁miałby	-5840
▁punktu	-5841
▁znaczą	-5842
▁zarówno	-5843
▁świetny	-5844
▁organiza	-5845
▁wrażenie	-5846
▁potrzebne	-5847
ame	-5848
jne	-5849
nał	-5850
tan	-5851
wol	-5852
▁==	-5853
..."	-5854
...?	-5855
stej	-5856
woka	-5857
żesz	-5858
▁Cor	-5859
cyjną	-5860
miona	-5861
turze	-5862
wości	-5863
▁Pary	-5864
▁Trzy	-5865
▁boli	-5866
▁inną	-5867
▁unik	-5868
czucie	-5869
ńskiej	-5870
ństwem	-5871
▁Kolej	-5872
▁chwil	-5873
▁osobę	-5874
▁pojaz	-5875
▁zepsu	-5876
kładzie	-5877
▁mogłeś	-5878
▁przygo	-5879
▁studia	-5880
▁Człowie	-5881
▁idziemy	-5882
▁książki	-5883
▁wyjdzie	-5884
▁Jednakże	-5885
▁uczestni	-5886
▁zabierze	-5887
▁wyobrazić	-5888
▁wystarcza	-5889
▁potrzebował	-5890
eri	-5891
kwi	-5892
rab	-5893
ruj	-5894
▁DO	-5895
▁Ws	-5896
▁pt	-5897
jach	-5898
nieś	-5899
syst	-5900
▁198	-5901
▁Ich	-5902
▁boi	-5903
cyjna	-5904
czyło	-5905
kacji	-5906
letni	-5907
nięte	-5908
▁emis	-5909
▁urzę	-5910
▁Super	-5911
▁anali	-5912
▁dokąd	-5913
▁fanta	-5914
▁listę	-5915
▁moimi	-5916
▁oprac	-5917
▁ruchu	-5918
▁dobrej	-5919
▁odnale	-5920
▁oświad	-5921
▁produk	-5922
▁umieję	-5923
▁złapać	-5924
▁sprawia	-5925
▁zabawne	-5926
▁zwrócić	-5927
▁Pierwszy	-5928
▁Potrzebu	-5929
▁wreszcie	-5930
▁wydarzyło	-5931
▁codziennie	-5932
▁mieszkanie	-5933
▁przeszłości	-5934
▁przeznaczone	-5935
Dz	-5936
ong	-5937
ymy	-5938
▁ew	-5939
stki	-5940
▁Raz	-5941
▁cio	-5942
▁plu	-5943
niłam	-5944
owaną	-5945
tnego	-5946
▁Chwi	-5947
▁buty	-5948
▁krze	-5949
▁opak	-5950
▁sens	-5951
tujesz	-5952
▁Cieka	-5953
▁Jedna	-5954
▁Zabra	-5955
▁powtó	-5956
▁próbu	-5957
▁skomp	-5958
▁umysł	-5959
▁łazie	-5960
▁biurze	-5961
▁Chociaż	-5962
▁mówiłam	-5963
▁słuchaj	-5964
▁wyjścia	-5965
▁Komitetu	-5966
▁przedmio	-5967
▁rozpoczę	-5968
▁urodziny	-5969
▁zapewnia	-5970
▁strasznie	-5971
▁podziękować	-5972
CI	-5973
bać	-5974
dną	-5975
pas	-5976
▁IN	-5977
▁Ph	-5978
▁hu	-5979
wało	-5980
wolu	-5981
łoży	-5982
▁Bla	-5983
nować	-5984
▁Czym	-5985
▁dasz	-5986
▁kuzy	-5987
▁pasz	-5988
rzeniu	-5989
óźniej	-5990
▁Tommy	-5991
▁emery	-5992
▁matkę	-5993
▁proto	-5994
▁roman	-5995
▁stare	-5996
▁zaufa	-5997
▁zezwo	-5998
możliwe	-5999
▁gwaran	-6000
▁kuchni	-6001
▁przyje	-6002
▁wysłać	-6003
▁własny	-6004
▁przekro	-6005
▁wielkim	-6006
▁Pamiętam	-6007
▁drugiego	-6008
▁kontrolę	-6009
▁zapomnij	-6010
▁procedury	-6011
▁wspaniałe	-6012
▁szczęśliwa	-6013
▁organizacji	-6014
▁znaleźliśmy	-6015
ah	-6016
rd	-6017
mij	-6018
zań	-6019
▁Fe	-6020
▁Iz	-6021
▁Yo	-6022
▁Zu	-6023
decy	-6024
dyna	-6025
mówi	-6026
nicę	-6027
nimy	-6028
ściu	-6029
▁tar	-6030
▁zbi	-6031
▁śli	-6032
ciele	-6033
nosić	-6034
trafi	-6035
▁2003	-6036
▁Cięż	-6037
▁Pomo	-6038
▁dora	-6039
▁dysk	-6040
▁homo	-6041
▁obja	-6042
▁rolę	-6043
▁skon	-6044
▁tery	-6045
▁woli	-6046
▁złym	-6047
kszość	-6048
rzyłem	-6049
wanych	-6050
▁dawna	-6051
▁podję	-6052
▁umarł	-6053
▁wyści	-6054
▁zajmę	-6055
czonego	-6056
▁północ	-6057
▁używać	-6058
▁wyjątk	-6059
▁wyniki	-6060
▁ziemię	-6061
▁znajdę	-6062
▁znajom	-6063
▁kwestii	-6064
▁regiona	-6065
▁korzyści	-6066
▁ogranicz	-6067
▁Kapitanie	-6068
▁Parlament	-6069
▁działanie	-6070
▁przekonać	-6071
);	-6072
Co	-6073
ire	-6074
mat	-6075
mić	-6076
omy	-6077
reb	-6078
wne	-6079
arki	-6080
ctwo	-6081
line	-6082
tymi	-6083
wcze	-6084
▁Zga	-6085
▁ham	-6086
chasz	-6087
lacje	-6088
racji	-6089
▁Adam	-6090
▁Choć	-6091
▁Taka	-6092
▁inna	-6093
▁kasę	-6094
▁ręka	-6095
▁ziem	-6096
▁świą	-6097
▁synem	-6098
▁wykry	-6099
▁zapas	-6100
▁zasob	-6101
▁delika	-6102
▁gotowi	-6103
▁Ameryki	-6104
▁Obawiam	-6105
▁Zatrzym	-6106
▁rozmowy	-6107
▁wyprowa	-6108
▁światła	-6109
▁stosować	-6110
▁listopada	-6111
▁dziedzinie	-6112
chó	-6113
dla	-6114
odu	-6115
pli	-6116
▁kg	-6117
solu	-6118
wórz	-6119
zdro	-6120
▁Pół	-6121
▁ryn	-6122
▁włó	-6123
alnym	-6124
tywne	-6125
▁Cart	-6126
▁insu	-6127
▁miły	-6128
▁odde	-6129
▁rezy	-6130
▁sześ	-6131
▁złap	-6132
▁ataku	-6133
▁cukru	-6134
▁karty	-6135
▁posił	-6136
▁trady	-6137
▁zegar	-6138
▁Zrobię	-6139
▁fałszy	-6140
▁strzel	-6141
▁wielka	-6142
▁zaprze	-6143
▁Policja	-6144
▁dobrych	-6145
▁zrobili	-6146
▁indywidu	-6147
▁konferen	-6148
▁przemysł	-6149
▁przynios	-6150
▁statysty	-6151
▁Jesteście	-6152
7.	-6153
fil	-6154
gał	-6155
gne	-6156
rać	-6157
tną	-6158
▁(1	-6159
▁fu	-6160
bawi	-6161
lane	-6162
szli	-6163
▁odz	-6164
▁ryb	-6165
▁udo	-6166
amtąd	-6167
chodź	-6168
czyli	-6169
rzyła	-6170
ważyć	-6171
łania	-6172
▁Szyb	-6173
▁decy	-6174
▁gaze	-6175
▁rana	-6176
▁wyle	-6177
alnego	-6178
▁Miała	-6179
▁Wiemy	-6180
▁każdą	-6181
▁oboje	-6182
▁ogień	-6183
▁pomie	-6184
▁metody	-6185
▁priory	-6186
▁siedem	-6187
▁termin	-6188
▁słuchać	-6189
▁Dokładnie	-6190
▁Większość	-6191
▁osobiście	-6192
▁Potrzebujemy	-6193
lka	-6194
róć	-6195
tkę	-6196
van	-6197
▁5.	-6198
▁PO	-6199
kowo	-6200
mula	-6201
nuję	-6202
sztą	-6203
tują	-6204
twór	-6205
▁Daw	-6206
▁Duż	-6207
▁Tur	-6208
▁Wez	-6209
▁dol	-6210
▁ref	-6211
▁Będą	-6212
▁gwał	-6213
▁tatu	-6214
▁woda	-6215
▁znie	-6216
▁śnia	-6217
kujemy	-6218
▁Brzmi	-6219
▁David	-6220
▁Wasza	-6221
▁kandy	-6222
▁małym	-6223
▁oddać	-6224
▁spada	-6225
anawiam	-6226
▁Czasem	-6227
▁jedyna	-6228
▁podmio	-6229
▁szefem	-6230
▁zabiję	-6231
▁zakoch	-6232
▁Chodźmy	-6233
▁Zamierz	-6234
▁nigdzie	-6235
▁oglądać	-6236
▁trzecie	-6237
▁członków	-6238
▁obejmuje	-6239
▁zapłacić	-6240
▁sprawozda	-6241
▁wykorzystać	-6242
▁Powiedziałam	-6243
▁przewodniczący	-6244
gó	-6245
głę	-6246
kuj	-6247
mia	-6248
pij	-6249
▁km	-6250
ANIA	-6251
lono	-6252
rona	-6253
szyb	-6254
▁300	-6255
▁pić	-6256
▁rez	-6257
/2006	-6258
owuje	-6259
rowie	-6260
▁Thom	-6261
▁krwa	-6262
▁nerw	-6263
▁pies	-6264
▁reli	-6265
▁wari	-6266
▁wino	-6267
▁Obiec	-6268
▁Stara	-6269
▁banku	-6270
▁czyni	-6271
▁dobro	-6272
▁modli	-6273
▁pełne	-6274
▁tortu	-6275
▁wolny	-6276
▁wziął	-6277
▁zasię	-6278
▁Jakieś	-6279
▁Miałeś	-6280
▁Opowie	-6281
▁ochotę	-6282
▁oczach	-6283
▁odebra	-6284
▁oprócz	-6285
▁stacji	-6286
▁wszech	-6287
▁zechce	-6288
▁miałbym	-6289
▁persone	-6290
▁zdenerw	-6291
▁wolności	-6292
▁zachować	-6293
8.	-6294
mm	-6295
ps	-6296
▁Uh	-6297
▁ur	-6298
alną	-6299
cone	-6300
cząc	-6301
kien	-6302
kową	-6303
miar	-6304
nicą	-6305
rech	-6306
sarz	-6307
tali	-6308
▁Bud	-6309
▁bry	-6310
▁gór	-6311
▁man	-6312
▁śre	-6313
story	-6314
ujemy	-6315
▁Chry	-6316
▁Wyda	-6317
▁dała	-6318
▁dupę	-6319
▁mamą	-6320
▁odwa	-6321
alnych	-6322
▁Willi	-6323
▁asyst	-6324
▁braku	-6325
▁odnoś	-6326
▁pielę	-6327
▁unika	-6328
▁zebra	-6329
jechała	-6330
▁Doktor	-6331
▁Prawda	-6332
▁czasów	-6333
▁intere	-6334
▁poszła	-6335
▁raport	-6336
▁Popatrz	-6337
▁kosztów	-6338
▁którymi	-6339
▁musicie	-6340
▁spotyka	-6341
▁lepszego	-6342
▁warunków	-6343
▁własnych	-6344
▁czynienia	-6345
▁prezydent	-6346
▁przysługę	-6347
▁pójdziesz	-6348
▁spokojnie	-6349
▁przechodzi	-6350
▁zamierzasz	-6351
▁wątpliwości	-6352
▁zarządzania	-6353
▁odpowiedzialny	-6354
2,	-6355
KI	-6356
RE	-6357
ey	-6358
hol	-6359
pil	-6360
rey	-6361
vis	-6362
▁sh	-6363
▁uh	-6364
▁Chu	-6365
▁Uni	-6366
▁opo	-6367
▁wią	-6368
▁żał	-6369
nąłeś	-6370
ymina	-6371
▁Bada	-6372
▁Hisz	-6373
▁Lubi	-6374
▁Załą	-6375
▁drob	-6376
▁hipo	-6377
▁twoi	-6378
▁Każda	-6379
▁Wróci	-6380
▁czwar	-6381
▁marca	-6382
▁nowej	-6383
▁rapor	-6384
▁Działa	-6385
▁Istnie	-6386
▁drugim	-6387
▁liczby	-6388
▁pięciu	-6389
▁reszta	-6390
▁zarobi	-6391
▁zginął	-6392
▁Mówiłeś	-6393
▁Przysię	-6394
▁określa	-6395
▁przyjąć	-6396
▁różnica	-6397
▁ciężarów	-6398
▁doczekać	-6399
▁tygodnia	-6400
▁następnym	-6401
▁porozmawi	-6402
▁zniszczyć	-6403
▁zobaczysz	-6404
▁realizacji	-6405
▁przedsiębiorstw	-6406
▁rozporządzeniem	-6407
LI	-6408
TU	-6409
lla	-6410
lob	-6411
nis	-6412
▁Ot	-6413
▁ul	-6414
czku	-6415
loga	-6416
turę	-6417
wały	-6418
▁Sło	-6419
▁bój	-6420
▁bła	-6421
▁swe	-6422
▁szk	-6423
akcep	-6424
pania	-6425
stych	-6426
szone	-6427
▁Kogo	-6428
▁kiep	-6429
▁port	-6430
▁zama	-6431
▁zasi	-6432
bienie	-6433
bieraj	-6434
dzicie	-6435
wencji	-6436
▁Sprze	-6437
▁liczy	-6438
▁posie	-6439
▁Europy	-6440
▁adwoka	-6441
▁kochać	-6442
▁monito	-6443
▁pasaże	-6444
▁pewnym	-6445
▁podwój	-6446
▁wyposa	-6447
▁własną	-6448
▁zabrał	-6449
▁zajęty	-6450
▁najbliż	-6451
▁otwiera	-6452
▁powiado	-6453
▁stamtąd	-6454
▁wystąpi	-6455
▁własnym	-6456
▁zachowy	-6457
▁zamknąć	-6458
▁zobaczę	-6459
▁następny	-6460
▁poczekać	-6461
▁przekona	-6462
▁wyglądać	-6463
▁zostawił	-6464
▁śmiercią	-6465
▁badaniach	-6466
▁następnie	-6467
▁potrafisz	-6468
▁preparatu	-6469
▁problemem	-6470
▁przyjacielu	-6471
dwo	-6472
nin	-6473
wło	-6474
▁Aż	-6475
▁Sł	-6476
etki	-6477
szać	-6478
zami	-6479
▁Ofi	-6480
▁kop	-6481
▁wsa	-6482
▁brać	-6483
▁bólu	-6484
▁gnie	-6485
ceniam	-6486
▁Facet	-6487
▁akapit	-6488
▁liczba	-6489
▁posiad	-6490
▁przesy	-6491
▁rękach	-6492
▁sygnał	-6493
▁uspoko	-6494
▁waszego	-6495
▁Żadnych	-6496
▁Ostatnio	-6497
▁leczenie	-6498
▁własnego	-6499
▁widziałeś	-6500
nom	-6501
▁3,	-6502
▁ap	-6503
dwie	-6504
dzał	-6505
nęły	-6506
razi	-6507
tyki	-6508
▁Kla	-6509
▁Obo	-6510
▁Vic	-6511
▁tuż	-6512
dzież	-6513
▁2000	-6514
▁Data	-6515
▁Tony	-6516
▁mowy	-6517
▁wiat	-6518
▁Decyz	-6519
▁lunch	-6520
▁mężem	-6521
▁okłam	-6522
▁oczeki	-6523
▁opinii	-6524
▁polega	-6525
▁szanse	-6526
▁Wczoraj	-6527
▁Zapomni	-6528
▁skompli	-6529
▁stracić	-6530
▁zajmuje	-6531
▁chciałby	-6532
▁właściwe	-6533
▁Zobaczymy	-6534
▁dokumenty	-6535
▁powietrze	-6536
▁pracujesz	-6537
▁wykonania	-6538
▁potrzebują	-6539
▁producentów	-6540
▁następujących	-6541
KA	-6542
WA	-6543
ama	-6544
rał	-6545
▁gę	-6546
czką	-6547
kona	-6548
▁500	-6549
▁Den	-6550
▁Dra	-6551
▁jut	-6552
▁zag	-6553
ciągu	-6554
field	-6555
niósł	-6556
siąść	-6557
stali	-6558
wałam	-6559
▁2010	-6560
▁leki	-6561
▁oczu	-6562
▁piwo	-6563
▁podd	-6564
▁sali	-6565
▁ufać	-6566
▁Bobby	-6567
▁Wielu	-6568
▁Załat	-6569
▁porzu	-6570
▁sport	-6571
▁suger	-6572
lizacji	-6573
▁koszty	-6574
▁obrotu	-6575
▁pułkow	-6576
▁wzajem	-6577
szczegól	-6578
▁nielega	-6579
▁poważne	-6580
▁wyobraż	-6581
▁świetne	-6582
▁kłopotów	-6583
▁słyszysz	-6584
▁wsparcie	-6585
▁wydostać	-6586
▁względem	-6587
▁zatrudni	-6588
▁przechowy	-6589
▁niebezpieczne	-6590
TY	-6591
ag	-6592
ety	-6593
ląt	-6594
pił	-6595
pów	-6596
vil	-6597
żek	-6598
▁ST	-6599
▁rą	-6600
iego	-6601
lety	-6602
maga	-6603
wari	-6604
▁Stu	-6605
▁Wyj	-6606
▁bad	-6607
▁ilu	-6608
▁maj	-6609
▁mys	-6610
▁zej	-6611
▁zer	-6612
deral	-6613
rzone	-6614
szczu	-6615
zywać	-6616
▁Afry	-6617
▁lewo	-6618
▁mecz	-6619
▁moze	-6620
▁naru	-6621
▁ogro	-6622
▁taty	-6623
cyjnym	-6624
dniego	-6625
▁Billy	-6626
▁Kilka	-6627
▁Spoko	-6628
▁Twier	-6629
▁akcji	-6630
▁dumny	-6631
▁język	-6632
▁leków	-6633
▁napad	-6634
▁planu	-6635
▁równo	-6636
▁staro	-6637
▁najwyż	-6638
▁przodu	-6639
▁sprzed	-6640
▁słyszę	-6641
▁zazdro	-6642
▁Informa	-6643
▁Odpowie	-6644
▁indziej	-6645
▁klienta	-6646
▁nieprze	-6647
▁podróży	-6648
▁wzrostu	-6649
▁osiągnąć	-6650
▁ostatnim	-6651
▁pojazdów	-6652
▁stanowią	-6653
▁technicz	-6654
▁dodatkowe	-6655
▁dzieciaki	-6656
▁mężczyzną	-6657
▁zdolności	-6658
▁zobaczymy	-6659
▁moglibyśmy	-6660
▁związanych	-6661
▁Powiedziałeś	-6662
2/	-6663
tz	-6664
arm	-6665
rym	-6666
ust	-6667
▁ex	-6668
graf	-6669
jąco	-6670
knie	-6671
tywy	-6672
wszy	-6673
ówie	-6674
▁Art	-6675
▁Ban	-6676
▁zaś	-6677
/2005	-6678
jnych	-6679
kałem	-6680
kiwań	-6681
prost	-6682
ralne	-6683
rzony	-6684
szona	-6685
ziono	-6686
▁2011	-6687
▁bieg	-6688
▁głoś	-6689
▁kara	-6690
▁napa	-6691
głości	-6692
▁Przej	-6693
▁Rodzi	-6694
▁Zapew	-6695
▁dosyć	-6696
▁grupa	-6697
▁kosmi	-6698
▁osiem	-6699
▁recep	-6700
▁scena	-6701
▁toksy	-6702
▁wypła	-6703
▁ślady	-6704
▁Państw	-6705
▁Założę	-6706
▁oddzie	-6707
▁odrobi	-6708
▁rachun	-6709
▁zaufać	-6710
▁Nienawi	-6711
▁książkę	-6712
▁popełni	-6713
▁powtarz	-6714
▁pracuję	-6715
▁zaakcep	-6716
struktury	-6717
▁Musiałem	-6718
▁Powinnaś	-6719
▁kwietnia	-6720
▁zadzwoni	-6721
▁prawdziwa	-6722
▁niemożliwe	-6723
▁środowiska	-6724
▁przewidziane	-6725
▁umiejętności	-6726
MA	-6727
ee	-6728
dle	-6729
dom	-6730
don	-6731
eks	-6732
glą	-6733
jek	-6734
nio	-6735
sąd	-6736
way	-6737
ych	-6738
łat	-6739
łek	-6740
cząć	-6741
dząc	-6742
ford	-6743
luje	-6744
pier	-6745
żona	-6746
parat	-6747
twiej	-6748
▁Król	-6749
▁bank	-6750
▁cele	-6751
▁ciąg	-6752
▁nies	-6753
▁winy	-6754
będzie	-6755
landii	-6756
▁Urzęd	-6757
▁Wnios	-6758
▁chory	-6759
▁młoda	-6760
▁podzi	-6761
▁prysz	-6762
▁zbior	-6763
▁zjawi	-6764
▁ściąg	-6765
▁Szkoda	-6766
▁eksplo	-6767
▁miałaś	-6768
▁powiąz	-6769
▁zarabi	-6770
▁ciężkie	-6771
▁określe	-6772
▁powodów	-6773
▁użytkow	-6774
▁przestra	-6775
▁zorganiz	-6776
▁brzmieniu	-6777
▁poprzedni	-6778
▁posłuchaj	-6779
▁telewizji	-6780
▁chciałabym	-6781
▁restauracji	-6782
▁wyłączeniem	-6783
▁sprawozdanie	-6784
▁zastosowania	-6785
▁doświadczenia	-6786
▁Prawdopodobnie	-6787
hu	-6788
bij	-6789
bił	-6790
dge	-6791
pch	-6792
ula	-6793
uth	-6794
▁PR	-6795
▁Ud	-6796
owne	-6797
wood	-6798
▁Dłu	-6799
▁Spę	-6800
▁uzu	-6801
▁zle	-6802
siłem	-6803
▁Czar	-6804
▁Kate	-6805
▁Moim	-6806
▁drew	-6807
▁nieo	-6808
▁Mówił	-6809
▁bycie	-6810
▁jasno	-6811
▁małej	-6812
▁panno	-6813
▁pisze	-6814
▁prawi	-6815
▁żadne	-6816
▁chwila	-6817
▁rozwój	-6818
▁swoimi	-6819
stanowie	-6820
▁dowodów	-6821
▁kawałek	-6822
▁nastąpi	-6823
▁siostry	-6824
▁transak	-6825
▁wstrzyk	-6826
▁zostali	-6827
▁Zrobiłem	-6828
▁mogłabym	-6829
▁pracował	-6830
▁przyszła	-6831
▁skontakt	-6832
▁obywateli	-6833
▁stosowane	-6834
▁wielkiego	-6835
▁wspaniale	-6836
▁zazwyczaj	-6837
▁Europejska	-6838
▁transportu	-6839
▁finansowych	-6840
ade	-6841
cyk	-6842
jna	-6843
pem	-6844
sło	-6845
▁is	-6846
chów	-6847
czer	-6848
tywa	-6849
▁Cas	-6850
▁Del	-6851
▁Eli	-6852
▁NIE	-6853
▁Rzu	-6854
▁cos	-6855
▁die	-6856
▁kor	-6857
▁żył	-6858
dziło	-6859
skimi	-6860
tałam	-6861
waniu	-6862
wersy	-6863
▁Japo	-6864
▁cenę	-6865
▁jaja	-6866
▁okno	-6867
▁smak	-6868
▁ster	-6869
▁tchó	-6870
▁dwoje	-6871
▁misji	-6872
▁rolni	-6873
▁szczy	-6874
▁ukoch	-6875
▁umowę	-6876
dnienia	-6877
rowania	-6878
▁Dopóki	-6879
▁czekaj	-6880
▁lutego	-6881
▁sądzie	-6882
▁śmieci	-6883
▁środek	-6884
▁Uwielbi	-6885
▁Wkrótce	-6886
▁czasach	-6887
▁history	-6888
▁pamięta	-6889
▁prokura	-6890
▁przywód	-6891
▁rozmowę	-6892
▁większe	-6893
▁wątroby	-6894
▁zajęcia	-6895
▁błogosła	-6896
▁funkcjon	-6897
▁rejestra	-6898
▁stosunku	-6899
▁wierzysz	-6900
▁Porozumie	-6901
▁pokładzie	-6902
▁przekazać	-6903
▁wiedzieli	-6904
▁wszystkimi	-6905
▁powiedzieli	-6906
1,	-6907
4,	-6908
6/	-6909
PE	-6910
ens	-6911
gnę	-6912
ily	-6913
sey	-6914
suń	-6915
▁Is	-6916
czce	-6917
ńska	-6918
▁Tri	-6919
▁Uwa	-6920
▁ciś	-6921
▁odd	-6922
▁pad	-6923
▁try	-6924
▁wst	-6925
▁śpi	-6926
czoną	-6927
dzamy	-6928
encie	-6929
panii	-6930
ściej	-6931
▁koło	-6932
▁końc	-6933
▁lice	-6934
▁scho	-6935
▁spła	-6936
▁trój	-6937
▁zamy	-6938
▁Jakby	-6939
▁klima	-6940
▁skóry	-6941
▁toale	-6942
▁wampi	-6943
▁Między	-6944
▁Więcej	-6945
▁Wracaj	-6946
▁Wygląd	-6947
▁defini	-6948
▁piękny	-6949
▁podobne	-6950
▁przejmu	-6951
▁zostanę	-6952
▁katastro	-6953
▁kłamstwo	-6954
▁spowodow	-6955
▁sprawach	-6956
▁zakończy	-6957
▁powietrza	-6958
▁urządzenia	-6959
▁powierzchni	-6960
▁Najwyraźniej	-6961
CA	-6962
▁)	-6963
ett	-6964
mem	-6965
our	-6966
rur	-6967
cona	-6968
jski	-6969
loka	-6970
mith	-6971
orze	-6972
sisz	-6973
ścią	-6974
▁Cra	-6975
▁Pol	-6976
▁Pom	-6977
▁ist	-6978
▁ląd	-6979
▁mis	-6980
▁nud	-6981
▁sal	-6982
ciela	-6983
dnego	-6984
dzają	-6985
menty	-6986
noważ	-6987
strza	-6988
tanie	-6989
terna	-6990
▁Całe	-6991
▁Mini	-6992
▁Okej	-6993
▁Zapy	-6994
▁atra	-6995
▁czyż	-6996
▁gard	-6997
▁kolo	-6998
ałyśmy	-6999
tujemy	-7000
wczych	-7001
▁firma	-7002
▁powyż	-7003
▁radio	-7004
▁sekun	-7005
▁sercu	-7006
▁szpie	-7007
▁uzysk	-7008
▁wezmę	-7009
▁wyraż	-7010
▁zadać	-7011
▁znamy	-7012
▁łatwe	-7013
▁podjąć	-7014
▁rozsze	-7015
▁spytać	-7016
▁waszej	-7017
▁wywiad	-7018
▁Byliśmy	-7019
▁głównie	-7020
▁upewnić	-7021
▁zespołu	-7022
▁Mieliśmy	-7023
▁czterech	-7024
▁musiałem	-7025
▁pomyśleć	-7026
▁standard	-7027
▁systemów	-7028
▁zamierza	-7029
▁żebyście	-7030
▁przemysłu	-7031
▁słyszałam	-7032
▁udowodnić	-7033
▁Pomyślałem	-7034
▁dostaniesz	-7035
▁prawdziwym	-7036
▁przedstawić	-7037
4/	-7038
6.	-7039
7/	-7040
OS	-7041
są	-7042
bas	-7043
deo	-7044
vie	-7045
mana	-7046
niał	-7047
nowi	-7048
owni	-7049
pisu	-7050
słał	-7051
▁but	-7052
▁cyk	-7053
▁hej	-7054
▁los	-7055
chali	-7056
dność	-7057
rócił	-7058
teria	-7059
▁Nick	-7060
▁Ukra	-7061
▁dwój	-7062
▁kwia	-7063
▁Jakiś	-7064
▁Który	-7065
▁inten	-7066
▁każda	-7067
▁nakaz	-7068
▁nieba	-7069
▁sumie	-7070
▁warte	-7071
▁wstęp	-7072
▁wysłu	-7073
▁zimno	-7074
▁inspek	-7075
▁udawać	-7076
▁Możecie	-7077
▁Mógłbym	-7078
▁Zadzwoń	-7079
▁brakuje	-7080
▁niepoko	-7081
▁popular	-7082
▁postawi	-7083
▁regular	-7084
▁spodoba	-7085
▁nazwiska	-7086
▁wskazuje	-7087
▁Widziałam	-7088
▁transport	-7089
▁bezpieczna	-7090
▁stanowisko	-7091
▁Członkowskich	-7092
9/	-7093
],	-7094
fon	-7095
wny	-7096
▁45	-7097
▁CO	-7098
pres	-7099
rego	-7100
łowi	-7101
żsam	-7102
▁Bet	-7103
▁CIA	-7104
▁Hey	-7105
▁Kom	-7106
▁Mer	-7107
▁She	-7108
▁eki	-7109
▁juz	-7110
▁kan	-7111
▁lam	-7112
▁pud	-7113
godne	-7114
▁Głów	-7115
▁Tata	-7116
▁foto	-7117
▁konk	-7118
▁prem	-7119
▁tune	-7120
▁utwo	-7121
▁zgad	-7122
cielem	-7123
kujesz	-7124
▁Eddie	-7125
▁króla	-7126
▁sąsie	-7127
▁wscho	-7128
▁Żaden	-7129
▁Życie	-7130
krotnie	-7131
▁Carter	-7132
▁Znaczy	-7133
▁alkoho	-7134
▁emisji	-7135
▁energe	-7136
▁handlu	-7137
▁mówimy	-7138
▁pomogę	-7139
▁przemo	-7140
▁uzyska	-7141
▁wygrać	-7142
▁zapach	-7143
▁Richard	-7144
▁Skończy	-7145
▁dostrze	-7146
▁kontrol	-7147
▁nieprzy	-7148
▁otwarte	-7149
▁szczepi	-7150
▁towarów	-7151
▁ubrania	-7152
▁wymyśli	-7153
▁zdaniem	-7154
▁ostatnią	-7155
▁policjan	-7156
▁powoduje	-7157
▁pozostał	-7158
▁Europejską	-7159
▁instytucji	-7160
▁niesamowite	-7161
▁zapewnienia	-7162
-2	-7163
:$	-7164
Za	-7165
cel	-7166
nos	-7167
ori	-7168
tus	-7169
▁RO	-7170
dnym	-7171
dowy	-7172
gina	-7173
leni	-7174
stos	-7175
tała	-7176
łach	-7177
▁Oka	-7178
ciwie	-7179
ckich	-7180
liłem	-7181
necie	-7182
piesz	-7183
łożyć	-7184
▁Powo	-7185
▁bran	-7186
▁dużą	-7187
▁kawę	-7188
▁pilo	-7189
▁ratu	-7190
dziłaś	-7191
▁Chica	-7192
▁Meksy	-7193
▁boisz	-7194
▁boską	-7195
▁chrze	-7196
▁każde	-7197
▁lewej	-7198
▁narod	-7199
▁obcią	-7200
▁objaw	-7201
▁studi	-7202
▁Często	-7203
▁Nikogo	-7204
▁Nowego	-7205
▁Wysoki	-7206
▁kolego	-7207
▁prawdą	-7208
▁przega	-7209
▁reklam	-7210
▁zaofer	-7211
włocznie	-7212
▁Ciekawe	-7213
▁Mówiłam	-7214
▁Podobno	-7215
▁dziwnie	-7216
▁dzwonił	-7217
▁najszyb	-7218
▁procesu	-7219
▁spędzić	-7220
▁zasobów	-7221
▁założyć	-7222
▁łatwiej	-7223
▁świadom	-7224
czeństwie	-7225
▁chłopiec	-7226
▁nazywasz	-7227
▁zmieniło	-7228
▁żywności	-7229
▁najlepszą	-7230
▁przedmiot	-7231
▁materiałów	-7232
▁pomyślałem	-7233
,"	-7234
iny	-7235
jak	-7236
pak	-7237
win	-7238
wkę	-7239
rick	-7240
rowi	-7241
siła	-7242
ywać	-7243
▁Los	-7244
▁Ted	-7245
▁jeb	-7246
czami	-7247
nicja	-7248
nniku	-7249
tarza	-7250
▁Dużo	-7251
▁Umie	-7252
▁domy	-7253
▁mamę	-7254
▁nada	-7255
▁odby	-7256
▁olej	-7257
▁sobo	-7258
cznymi	-7259
czyłam	-7260
▁Kapit	-7261
▁bycia	-7262
▁hotel	-7263
▁odczu	-7264
▁zachę	-7265
▁zarzą	-7266
▁Gdybyś	-7267
▁Znaleź	-7268
▁cierpi	-7269
▁jedzie	-7270
▁konsek	-7271
▁konsul	-7272
▁małych	-7273
▁podejm	-7274
▁przerw	-7275
▁sklepu	-7276
▁stopni	-7277
▁tożsam	-7278
▁ustala	-7279
▁wpływu	-7280
▁władze	-7281
▁zamian	-7282
▁zobacz	-7283
puszczam	-7284
▁Panowie	-7285
▁Później	-7286
▁dostępu	-7287
▁kapitan	-7288
▁mogłoby	-7289
▁negocja	-7290
▁obserwa	-7291
▁obsługi	-7292
▁pojedyn	-7293
▁poziomu	-7294
▁udziału	-7295
▁wrócisz	-7296
▁zaszczy	-7297
▁zniszcz	-7298
▁detektyw	-7299
▁miesiąca	-7300
▁miesiącu	-7301
▁przeraża	-7302
▁twierdzi	-7303
▁znaleźli	-7304
▁zwłaszcza	-7305
▁zachowanie	-7306
▁przestrzeni	-7307
▁odpowiednich	-7308
▁postępowania	-7309
miu	-7310
ney	-7311
riu	-7312
▁łu	-7313
▁łó	-7314
szkę	-7315
than	-7316
▁Dro	-7317
▁Mas	-7318
▁Sku	-7319
▁Ter	-7320
▁Tob	-7321
▁Wes	-7322
▁bla	-7323
▁idą	-7324
▁ran	-7325
owiec	-7326
▁Bill	-7327
▁arty	-7328
▁bała	-7329
▁mamu	-7330
▁tkan	-7331
▁wodą	-7332
▁żyją	-7333
▁Razem	-7334
▁czeko	-7335
▁domem	-7336
▁fabry	-7337
▁nikim	-7338
▁plaży	-7339
▁towar	-7340
▁wasza	-7341
▁zagad	-7342
dzonych	-7343
kowanie	-7344
▁Koniec	-7345
▁Pozost	-7346
▁liczyć	-7347
▁mistrz	-7348
▁ofiara	-7349
▁papier	-7350
▁samych	-7351
▁urucho	-7352
▁wierzą	-7353
▁zdarza	-7354
▁autobus	-7355
▁pamięci	-7356
▁zwyczaj	-7357
▁Zapomnij	-7358
▁pamiętać	-7359
▁sądziłem	-7360
▁śmieszne	-7361
▁Niniejsza	-7362
▁urodzenia	-7363
▁wspaniały	-7364
▁przyjemność	-7365
▁rozwiązanie	-7366
▁bezpośrednio	-7367
▁Zjednoczonych	-7368
ww	-7369
óp	-7370
NIE	-7371
cus	-7372
ela	-7373
int	-7374
low	-7375
ląd	-7376
orę	-7377
zon	-7378
▁WY	-7379
armo	-7380
ater	-7381
ruje	-7382
ręcz	-7383
znaj	-7384
▁Ach	-7385
▁Bre	-7386
▁Far	-7387
▁Fer	-7388
▁May	-7389
▁Pla	-7390
▁Zda	-7391
▁cof	-7392
▁móc	-7393
▁pli	-7394
▁ubo	-7395
▁wil	-7396
dawno	-7397
kował	-7398
nęłam	-7399
riusz	-7400
szymi	-7401
tację	-7402
zacja	-7403
▁Cała	-7404
▁Dwie	-7405
▁Skar	-7406
▁abym	-7407
▁rany	-7408
▁słab	-7409
▁Chris	-7410
▁licen	-7411
▁pomóż	-7412
▁staną	-7413
▁symbo	-7414
▁wynik	-7415
tomiast	-7416
▁formie	-7417
▁gotowe	-7418
▁głupia	-7419
▁traktu	-7420
▁waszym	-7421
▁wyszło	-7422
▁Chicago	-7423
▁dostanę	-7424
▁jakiejś	-7425
▁kandyda	-7426
▁kolejną	-7427
▁niedzie	-7428
▁odnoszą	-7429
▁poszuki	-7430
▁samolot	-7431
▁zamknij	-7432
▁Poczekaj	-7433
▁Szczerze	-7434
▁podejrze	-7435
▁przeszko	-7436
▁sektorze	-7437
▁spojrzeć	-7438
▁uwzględni	-7439
▁wielkości	-7440
▁zwierzęta	-7441
▁mieszkania	-7442
▁zobaczyłem	-7443
▁zostaniesz	-7444
▁pozostałych	-7445
▁Przewodniczą	-7446
▁jednocześnie	-7447
):	-7448
EL	-7449
TA	-7450
ash	-7451
han	-7452
leg	-7453
ury	-7454
zor	-7455
▁IV	-7456
▁vi	-7457
kają	-7458
kali	-7459
kała	-7460
ping	-7461
rzyd	-7462
▁Amy	-7463
▁Coo	-7464
▁One	-7465
▁Rów	-7466
▁ben	-7467
▁Chcą	-7468
▁Inne	-7469
▁Okaz	-7470
▁Park	-7471
▁Poja	-7472
▁Zgad	-7473
▁logi	-7474
▁proś	-7475
leniem	-7476
powiad	-7477
▁Poroz	-7478
▁Prezy	-7479
▁druga	-7480
▁gadać	-7481
▁namie	-7482
▁odczy	-7483
▁podda	-7484
▁sukce	-7485
▁szkol	-7486
▁słusz	-7487
szliśmy	-7488
towania	-7489
▁Najlep	-7490
▁automa	-7491
▁metrów	-7492
▁poster	-7493
▁randkę	-7494
▁służby	-7495
▁wiedzy	-7496
▁Idziemy	-7497
▁artykuł	-7498
▁konkret	-7499
▁opuścić	-7500
▁poślubi	-7501
▁robicie	-7502
▁siostrę	-7503
▁waszych	-7504
▁występu	-7505
▁świadec	-7506
▁Dziewczy	-7507
▁niedługo	-7508
▁niektóre	-7509
▁objętych	-7510
▁pielęgni	-7511
▁poradzić	-7512
▁wybaczyć	-7513
▁Zadzwonię	-7514
▁czynności	-7515
▁pójdziemy	-7516
▁warunkach	-7517
▁bezpieczeństwo	-7518
40	-7519
60	-7520
Na	-7521
ac	-7522
bs	-7523
dro	-7524
ore	-7525
tes	-7526
trą	-7527
chwy	-7528
kazy	-7529
kcje	-7530
netu	-7531
nina	-7532
rócę	-7533
▁Fun	-7534
▁Per	-7535
▁byc	-7536
▁dat	-7537
▁eli	-7538
▁fio	-7539
▁fry	-7540
▁uni	-7541
▁zaa	-7542
miemy	-7543
westi	-7544
▁Mark	-7545
▁Samo	-7546
▁gdyż	-7547
▁koor	-7548
▁spis	-7549
▁udać	-7550
▁woje	-7551
▁ładu	-7552
wzajem	-7553
▁Bryta	-7554
▁Miejs	-7555
▁infor	-7556
▁kwoty	-7557
▁odpad	-7558
▁oznak	-7559
▁połow	-7560
▁propo	-7561
▁przer	-7562
▁warto	-7563
▁zakaz	-7564
▁zarzu	-7565
▁Śmier	-7566
▁Niemcy	-7567
▁absolu	-7568
▁napraw	-7569
▁okazję	-7570
▁opieki	-7571
▁patrzy	-7572
▁sprzęt	-7573
▁sztuki	-7574
▁uciekł	-7575
▁wyniku	-7576
▁źródła	-7577
▁Dopiero	-7578
▁dotrzeć	-7579
▁drużyny	-7580
▁przeszu	-7581
▁punktów	-7582
▁rozwija	-7583
▁szczegó	-7584
▁wejścia	-7585
▁Powinnam	-7586
▁szacunku	-7587
▁urządzeń	-7588
▁zadziała	-7589
▁najlepsza	-7590
▁prawdziwą	-7591
▁przypadek	-7592
▁umożliwia	-7593
▁zakończyć	-7594
▁Przysięgam	-7595
▁wymienionych	-7596
cam	-7597
enu	-7598
mii	-7599
pto	-7600
skę	-7601
tch	-7602
▁OD	-7603
▁ły	-7604
,...	-7605
▁Bon	-7606
▁Cel	-7607
▁Kie	-7608
▁oże	-7609
▁piw	-7610
▁plo	-7611
▁spi	-7612
▁str	-7613
dawcy	-7614
głych	-7615
nięta	-7616
owców	-7617
▁Plan	-7618
▁deba	-7619
▁kawy	-7620
▁mode	-7621
czniej	-7622
prawia	-7623
▁Dokąd	-7624
▁Podej	-7625
▁Prowa	-7626
▁czasy	-7627
▁lodów	-7628
▁motyw	-7629
▁nieza	-7630
▁rządu	-7631
▁stała	-7632
▁uczyć	-7633
▁waszą	-7634
▁zrezy	-7635
▁ścież	-7636
▁żadna	-7637
rzeniem	-7638
▁Johnny	-7639
▁Witamy	-7640
▁bedzie	-7641
▁bracie	-7642
▁mojemu	-7643
▁potrwa	-7644
▁prawej	-7645
▁przeby	-7646
▁układu	-7647
▁wysoko	-7648
▁zmiana	-7649
czyliśmy	-7650
▁Mieszka	-7651
▁Niczego	-7652
▁Pewnego	-7653
▁mówiłaś	-7654
▁podlega	-7655
▁terenie	-7656
▁wróciła	-7657
▁przywozu	-7658
▁wspaniał	-7659
▁Słyszałam	-7660
▁Znalazłem	-7661
▁miejscach	-7662
9,	-7663
9.	-7664
ET	-7665
que	-7666
ted	-7667
zer	-7668
zmu	-7669
żan	-7670
▁70	-7671
▁Rę	-7672
bach	-7673
niny	-7674
▁Liz	-7675
▁Rus	-7676
▁Spe	-7677
▁You	-7678
▁ali	-7679
▁piz	-7680
owość	-7681
skiem	-7682
ńskim	-7683
▁2012	-7684
▁Kole	-7685
▁Ucie	-7686
▁okru	-7687
▁pali	-7688
▁stóp	-7689
▁zali	-7690
▁zgła	-7691
dziale	-7692
stawić	-7693
teryna	-7694
▁Opera	-7695
▁Sarah	-7696
▁bazie	-7697
▁burmi	-7698
▁kamer	-7699
▁ofice	-7700
▁przew	-7701
▁półno	-7702
▁wyklu	-7703
▁zacho	-7704
▁zmart	-7705
rektywa	-7706
▁jedyne	-7707
▁przest	-7708
▁punkty	-7709
▁sąsiad	-7710
▁wszedł	-7711
▁wściek	-7712
▁zabawa	-7713
▁zbliża	-7714
▁Francji	-7715
▁demokra	-7716
▁facetów	-7717
▁pewność	-7718
▁połowie	-7719
▁zabiłem	-7720
przestrze	-7721
▁pozostać	-7722
▁kategorii	-7723
▁niektórzy	-7724
▁płatności	-7725
▁prezydenta	-7726
▁stosowanie	-7727
▁najlepszych	-7728
▁sprawiedliwości	-7729
pp	-7730
”,	-7731
att	-7732
fii	-7733
gon	-7734
głu	-7735
jów	-7736
rup	-7737
tal	-7738
twy	-7739
wek	-7740
zję	-7741
▁--	-7742
▁Ła	-7743
bami	-7744
czyk	-7745
nuje	-7746
tele	-7747
żyła	-7748
▁000	-7749
▁Cat	-7750
▁bal	-7751
▁och	-7752
▁sez	-7753
▁wyp	-7754
▁zbo	-7755
biorę	-7756
miany	-7757
produ	-7758
tywny	-7759
zulta	-7760
żnicz	-7761
▁Były	-7762
▁Fred	-7763
▁Joey	-7764
▁Leka	-7765
▁akta	-7766
▁bazy	-7767
▁duża	-7768
▁miła	-7769
▁ryby	-7770
lonych	-7771
stąpić	-7772
tyczną	-7773
▁aspek	-7774
▁córką	-7775
▁grozi	-7776
▁głowa	-7777
▁jazdy	-7778
▁mamie	-7779
▁miast	-7780
▁przym	-7781
▁silny	-7782
▁specy	-7783
▁teren	-7784
▁wojnę	-7785
nęliśmy	-7786
▁System	-7787
▁czytać	-7788
▁dotrze	-7789
▁długie	-7790
▁panien	-7791
▁przeja	-7792
▁przyjm	-7793
▁zdrowo	-7794
▁Musicie	-7795
▁pobiera	-7796
▁przepły	-7797
▁rezulta	-7798
▁statków	-7799
▁sześciu	-7800
▁uzyskać	-7801
▁wynagro	-7802
niejszych	-7803
▁chłopcze	-7804
▁dziesięć	-7805
▁opowiada	-7806
▁stężenia	-7807
▁sytuację	-7808
▁Porozmawi	-7809
▁Zastanawi	-7810
▁niewłaści	-7811
▁identyfika	-7812
▁bezpiecznie	-7813
▁zawierające	-7814
▁zdecydowanie	-7815
7,	-7816
fu	-7817
łko	-7818
ńcy	-7819
▁wą	-7820
▁ża	-7821
ajmy	-7822
endy	-7823
gres	-7824
knąć	-7825
namy	-7826
niam	-7827
nili	-7828
pień	-7829
▁Jac	-7830
▁Lar	-7831
▁Pal	-7832
▁Tim	-7833
▁edu	-7834
▁kot	-7835
▁pak	-7836
▁szo	-7837
niłeś	-7838
ordow	-7839
trzeb	-7840
ville	-7841
▁Eric	-7842
▁Nowy	-7843
▁Obec	-7844
▁Sier	-7845
▁opóź	-7846
▁pisa	-7847
▁ręki	-7848
▁skrę	-7849
▁wyje	-7850
▁zwło	-7851
metrów	-7852
szanie	-7853
▁Julie	-7854
▁Zdaje	-7855
▁Zosta	-7856
▁atmos	-7857
▁dwoma	-7858
▁kazał	-7859
▁konce	-7860
▁model	-7861
▁parku	-7862
▁pułap	-7863
▁winny	-7864
▁wolne	-7865
▁zmarł	-7866
▁łańcu	-7867
▁łodzi	-7868
▁Raczej	-7869
▁Szukam	-7870
▁Wierzę	-7871
▁Zostań	-7872
▁biorąc	-7873
▁chirur	-7874
▁klasie	-7875
▁organy	-7876
▁takimi	-7877
▁uprawi	-7878
▁uzależ	-7879
cznikiem	-7880
▁Traktat	-7881
▁całości	-7882
▁imprezę	-7883
▁odebrać	-7884
▁pojawił	-7885
▁przemie	-7886
▁rozdzie	-7887
▁dostępne	-7888
▁kontrolą	-7889
▁obszarze	-7890
▁stworzył	-7891
▁zdecydow	-7892
▁znajdują	-7893
dzieliście	-7894
▁pozwolenia	-7895
▁specjalnie	-7896
▁pochodzenia	-7897
▁potrzebować	-7898
22	-7899
gg	-7900
dnej	-7901
pnia	-7902
szta	-7903
▁Bal	-7904
▁Col	-7905
▁Czu	-7906
▁Dom	-7907
▁Ele	-7908
▁Gro	-7909
▁Sil	-7910
▁tle	-7911
▁zdą	-7912
żyłem	-7913
▁Licz	-7914
▁Mari	-7915
▁auta	-7916
▁dobę	-7917
▁malu	-7918
▁myli	-7919
▁napo	-7920
▁that	-7921
▁tury	-7922
▁upły	-7923
▁żywo	-7924
▁żąda	-7925
ściach	-7926
▁Agent	-7927
▁Pomoc	-7928
▁Strze	-7929
▁bawić	-7930
▁biuro	-7931
▁czyta	-7932
▁konia	-7933
▁ponie	-7934
▁rynek	-7935
▁stali	-7936
▁uczni	-7937
▁widok	-7938
▁wskaź	-7939
nicznej	-7940
nieniem	-7941
▁Ciężko	-7942
▁Dajcie	-7943
▁dokona	-7944
▁faceci	-7945
▁fajnie	-7946
▁grupie	-7947
▁innowa	-7948
▁liceum	-7949
▁partne	-7950
▁pierwo	-7951
▁połowę	-7952
▁umarła	-7953
▁Komitet	-7954
▁Mógłbyś	-7955
▁Sprawdź	-7956
▁bohater	-7957
▁maszyny	-7958
▁monitor	-7959
▁musiało	-7960
▁nadzoru	-7961
▁przykry	-7962
▁rozczar	-7963
▁sektora	-7964
▁wnioski	-7965
▁wystawi	-7966
▁zamówie	-7967
▁zmienił	-7968
▁Bardziej	-7969
▁Przynios	-7970
▁jedziemy	-7971
▁szczerze	-7972
▁widziała	-7973
▁wyraźnie	-7974
▁znalezie	-7975
▁jednostki	-7976
▁potrzebny	-7977
▁przynieść	-7978
▁prędkości	-7979
▁bezpieczne	-7980
▁następnego	-7981
▁Zjednoczone	-7982
▁rozwiązania	-7983
▁technologii	-7984
80	-7985
EM	-7986
Tak	-7987
los	-7988
ote	-7989
plo	-7990
ril	-7991
rys	-7992
tce	-7993
▁Ly	-7994
▁Zi	-7995
cymi	-7996
wymi	-7997
órek	-7998
źnie	-7999
▁197	-8000
▁Dou	-8001
▁Lau	-8002
▁Mac	-8003
▁Ram	-8004
▁Red	-8005
▁cha	-8006
▁hod	-8007
▁ory	-8008
▁rom	-8009
▁utk	-8010
chami	-8011
dziec	-8012
▁Mogą	-8013
▁boku	-8014
▁krop	-8015
▁polu	-8016
▁radi	-8017
▁skra	-8018
dujesz	-8019
jskich	-8020
szeniu	-8021
▁Matka	-8022
▁Posta	-8023
▁Wcale	-8024
▁dotąd	-8025
▁lubią	-8026
▁nerek	-8027
▁porze	-8028
▁spali	-8029
▁szefa	-8030
▁tabli	-8031
▁ukryć	-8032
tycznym	-8033
▁inteli	-8034
▁kwiaty	-8035
▁pomógł	-8036
▁powody	-8037
▁rozsąd	-8038
▁zaplan	-8039
▁zmianę	-8040
niejszym	-8041
▁Charles	-8042
▁Pracuję	-8043
▁Próbuję	-8044
▁bałagan	-8045
▁dokonać	-8046
▁dorosły	-8047
▁przesta	-8048
▁równowa	-8049
▁sklepie	-8050
▁słyszeć	-8051
▁udostęp	-8052
▁zaczęło	-8053
▁Niektóre	-8054
▁dostałem	-8055
▁następne	-8056
▁obowiązu	-8057
▁obywatel	-8058
▁wieczoru	-8059
▁znalazła	-8060
▁oczywiste	-8061
▁pozostaje	-8062
▁projektów	-8063
▁wszelkich	-8064
▁wyciągnąć	-8065
▁interesuje	-8066
▁działalność	-8067
▁przedstawia	-8068
▁przeszkadza	-8069
▁finansowania	-8070
.”	-8071
Mo	-8072
gt	-8073
tow	-8074
ymu	-8075
▁Cu	-8076
anek	-8077
cker	-8078
czał	-8079
rony	-8080
rzyj	-8081
ujek	-8082
ślij	-8083
▁Mło	-8084
▁Poś	-8085
▁Pri	-8086
▁hyd	-8087
▁tur	-8088
▁uka	-8089
ander	-8090
czyni	-8091
dzeni	-8092
dziły	-8093
dztwa	-8094
jnego	-8095
piłem	-8096
rzona	-8097
rzyka	-8098
szają	-8099
tność	-8100
łości	-8101
▁Bank	-8102
▁mego	-8103
▁osła	-8104
▁płak	-8105
▁siłę	-8106
▁soli	-8107
▁sądu	-8108
▁uchy	-8109
czonej	-8110
▁Smith	-8111
▁bibli	-8112
▁darmo	-8113
▁dyspo	-8114
▁kombi	-8115
▁potęż	-8116
▁pusty	-8117
▁stopy	-8118
▁wyczu	-8119
▁zorie	-8120
▁chwilą	-8121
▁gwiazd	-8122
▁myślał	-8123
▁obszar	-8124
▁opieku	-8125
▁piśmie	-8126
▁przeło	-8127
▁ustawi	-8128
▁żadnym	-8129
▁Kapitan	-8130
▁William	-8131
▁doktora	-8132
▁napisał	-8133
▁prawidł	-8134
▁rozmowa	-8135
▁tysiące	-8136
▁zabójca	-8137
▁Doktorze	-8138
▁Zaczekaj	-8139
▁przemocy	-8140
▁zarejest	-8141
▁Słyszałeś	-8142
▁zamieszka	-8143
▁dokumentów	-8144
▁skrzywdzić	-8145
▁wymienione	-8146
▁wystąpienia	-8147
cas	-8148
fli	-8149
lak	-8150
nce	-8151
nuj	-8152
tyn	-8153
żne	-8154
▁WE	-8155
pomi	-8156
rząc	-8157
sami	-8158
szki	-8159
▁Ham	-8160
▁Kaz	-8161
▁Num	-8162
▁Pas	-8163
▁Van	-8164
▁Wła	-8165
▁krą	-8166
▁mle	-8167
▁złą	-8168
berna	-8169
czają	-8170
czono	-8171
▁Pete	-8172
▁Phil	-8173
▁Ryan	-8174
▁Tobą	-8175
▁kore	-8176
▁loja	-8177
▁nale	-8178
▁ojcu	-8179
▁pola	-8180
▁spój	-8181
▁zarę	-8182
chałem	-8183
▁Holly	-8184
▁Louis	-8185
▁Oboje	-8186
▁Podaj	-8187
▁Tobie	-8188
▁Uwaga	-8189
▁barze	-8190
▁pożar	-8191
▁prace	-8192
▁stole	-8193
▁sądzi	-8194
▁wciąg	-8195
▁wojna	-8196
▁wojow	-8197
▁wysił	-8198
▁zwari	-8199
▁Martin	-8200
▁Rachel	-8201
▁dolców	-8202
▁doskon	-8203
▁księży	-8204
▁należą	-8205
▁oddech	-8206
▁okresu	-8207
▁sensie	-8208
▁szefie	-8209
▁szkołę	-8210
▁tytułu	-8211
▁uzasad	-8212
▁wysłał	-8213
▁zostaw	-8214
▁żyjesz	-8215
▁dostaje	-8216
▁momentu	-8217
▁nagrodę	-8218
▁ustalić	-8219
▁wyjście	-8220
▁wyszedł	-8221
▁zadania	-8222
▁zidenty	-8223
▁Nieważne	-8224
▁napisane	-8225
▁odnośnie	-8226
▁pojechać	-8227
▁potrafią	-8228
▁weteryna	-8229
▁finansowe	-8230
▁pozostałe	-8231
▁zrobienia	-8232
▁dowiedział	-8233
▁przepisami	-8234
▁przypomnieć	-8235
90	-8236
Cz	-8237
fel	-8238
głe	-8239
spe	-8240
und	-8241
vel	-8242
▁SP	-8243
▁nę	-8244
aliz	-8245
blem	-8246
dium	-8247
dłuż	-8248
▁Pot	-8249
▁Rad	-8250
▁Tay	-8251
▁dek	-8252
▁kaj	-8253
▁nóż	-8254
▁rąk	-8255
▁zwi	-8256
prawy	-8257
ralny	-8258
▁Okay	-8259
▁PRZE	-8260
▁Poru	-8261
▁Wyob	-8262
▁alfa	-8263
▁base	-8264
▁farm	-8265
▁gang	-8266
▁nega	-8267
▁paru	-8268
▁słow	-8269
▁zdzi	-8270
termin	-8271
▁Clark	-8272
▁Emily	-8273
▁dumna	-8274
▁koleż	-8275
▁kosti	-8276
▁możli	-8277
▁napię	-8278
▁pojem	-8279
▁prote	-8280
▁wycof	-8281
▁cukier	-8282
▁konkur	-8283
▁małego	-8284
▁niedob	-8285
▁objawy	-8286
▁ocalić	-8287
▁romans	-8288
▁roztwo	-8289
▁rzucić	-8290
▁uzupeł	-8291
▁wracam	-8292
▁zabawy	-8293
▁zabiła	-8294
▁zagrać	-8295
▁zamord	-8296
▁Zaczyna	-8297
▁gościem	-8298
▁imienia	-8299
▁ludzkie	-8300
▁naszymi	-8301
▁ochronę	-8302
▁pogrzeb	-8303
▁próbuję	-8304
▁referen	-8305
▁siostrą	-8306
▁struktu	-8307
▁wolność	-8308
▁wstrzym	-8309
▁chciałaś	-8310
▁homologa	-8311
▁mieszkać	-8312
▁poczucie	-8313
▁samolotu	-8314
▁terminie	-8315
▁zobaczył	-8316
▁Dzienniku	-8317
▁Urzędowym	-8318
▁przyszłym	-8319
▁zasługuje	-8320
▁znalazłam	-8321
▁małżeństwo	-8322
▁terytorium	-8323
▁zawartości	-8324
▁kontrolować	-8325
▁przygotować	-8326
▁Powiedziałaś	-8327
Ch	-8328
oh	-8329
bor	-8330
bri	-8331
bój	-8332
ciś	-8333
cjo	-8334
rwi	-8335
róg	-8336
shi	-8337
tyk	-8338
łby	-8339
▁%.	-8340
▁35	-8341
▁48	-8342
▁dż	-8343
▁mm	-8344
arka	-8345
czam	-8346
jami	-8347
mace	-8348
niło	-8349
simy	-8350
zuje	-8351
łbym	-8352
żysz	-8353
▁Try	-8354
▁Zap	-8355
▁Zło	-8356
▁baj	-8357
▁gno	-8358
▁hum	-8359
▁leż	-8360
▁mro	-8361
▁sos	-8362
listy	-8363
nnego	-8364
tacja	-8365
tkami	-8366
▁Jeff	-8367
▁Luke	-8368
▁Tęsk	-8369
▁argu	-8370
▁chwy	-8371
▁dopu	-8372
▁kuta	-8373
▁skie	-8374
▁zauf	-8375
ckiego	-8376
nięciu	-8377
▁Byłaś	-8378
▁Dawaj	-8379
▁Zaczę	-8380
▁Zdecy	-8381
▁dodać	-8382
▁kręci	-8383
▁mając	-8384
▁obiec	-8385
▁sprzą	-8386
▁zdaje	-8387
▁ślubu	-8388
▁Robert	-8389
▁dokład	-8390
▁inicja	-8391
▁ruszać	-8392
▁sekcji	-8393
▁twoimi	-8394
▁ukradł	-8395
▁usunąć	-8396
▁Decyzja	-8397
▁analizy	-8398
▁ekonomi	-8399
▁federal	-8400
▁istotne	-8401
▁niewiel	-8402
▁opuszcz	-8403
▁uniknąć	-8404
▁wskazów	-8405
▁zapamię	-8406
▁zeszłej	-8407
▁znajomy	-8408
▁Wysokość	-8409
▁asystent	-8410
▁niewiele	-8411
▁pistolet	-8412
▁straszne	-8413
▁większej	-8414
▁Spójrzcie	-8415
▁chciałbyś	-8416
▁zamknięte	-8417
▁zmienione	-8418
▁nieprawdaż	-8419
▁niepożądanych	-8420
eno	-8421
jni	-8422
lli	-8423
▁MI	-8424
▁łe	-8425
czko	-8426
gera	-8427
onem	-8428
stką	-8429
▁150	-8430
▁Dun	-8431
▁Hou	-8432
▁Lek	-8433
▁bas	-8434
▁epi	-8435
▁hor	-8436
▁ram	-8437
▁trw	-8438
ałaby	-8439
rzędu	-8440
szyła	-8441
▁Ależ	-8442
▁Dasz	-8443
▁Rose	-8444
▁Shel	-8445
▁damy	-8446
▁glob	-8447
▁mani	-8448
▁napę	-8449
▁rosy	-8450
▁uraz	-8451
▁wrzu	-8452
▁wybo	-8453
▁zała	-8454
▁Kości	-8455
▁Zapro	-8456
▁głową	-8457
▁kapsu	-8458
▁niebo	-8459
▁nieod	-8460
▁nosić	-8461
▁popar	-8462
▁szere	-8463
▁wierz	-8464
▁wyżej	-8465
▁zakłó	-8466
waliśmy	-8467
▁Claire	-8468
▁byłaby	-8469
▁ciężar	-8470
▁czwart	-8471
▁doszło	-8472
▁paliwa	-8473
▁podkre	-8474
▁prawem	-8475
▁przewa	-8476
▁strzał	-8477
▁szacun	-8478
▁wariat	-8479
▁zestaw	-8480
jechałem	-8481
▁dzielni	-8482
▁miliony	-8483
▁napisać	-8484
▁okropne	-8485
▁poprowa	-8486
▁przetar	-8487
▁słychać	-8488
▁zaczęła	-8489
▁Pierwsza	-8490
▁chłopcem	-8491
▁dokument	-8492
▁nawzajem	-8493
▁piosenka	-8494
▁psychiat	-8495
▁sprzedaż	-8496
▁wyjątkow	-8497
▁Następnie	-8498
▁programów	-8499
▁straciłem	-8500
▁zgodności	-8501
▁charaktery	-8502
▁postanowie	-8503
▁najszybciej	-8504
▁widzieliśmy	-8505
▁przyjaciółka	-8506
▁skontaktować	-8507
'.	-8508
3/	-8509
col	-8510
pin	-8511
sli	-8512
ttp	-8513
▁[2	-8514
▁zg	-8515
"...	-8516
dera	-8517
kcję	-8518
king	-8519
liła	-8520
stal	-8521
▁Pen	-8522
▁ety	-8523
▁fas	-8524
▁oby	-8525
chnie	-8526
ckiej	-8527
ganie	-8528
godni	-8529
szłaś	-8530
żynie	-8531
▁Kyle	-8532
▁Nasi	-8533
▁celi	-8534
▁reko	-8535
▁tatą	-8536
▁wery	-8537
▁więź	-8538
▁zrzu	-8539
szczeń	-8540
▁Kevin	-8541
▁Miesz	-8542
▁Pacje	-8543
▁Robię	-8544
▁Współ	-8545
▁bagaż	-8546
▁ciast	-8547
▁ciele	-8548
▁filmu	-8549
▁gwiaz	-8550
▁gówna	-8551
▁infra	-8552
▁kolei	-8553
▁pakie	-8554
▁pełen	-8555
▁pełno	-8556
▁przyz	-8557
▁rozbi	-8558
▁zdjęć	-8559
▁znają	-8560
rowanie	-8561
▁Anglii	-8562
▁Został	-8563
▁daleka	-8564
▁glinia	-8565
▁nastro	-8566
▁oskarż	-8567
▁powrót	-8568
▁strona	-8569
▁słońca	-8570
▁wysoki	-8571
▁zwraca	-8572
▁Angeles	-8573
▁Całkowi	-8574
▁Spróbuj	-8575
▁przywóz	-8576
▁stopniu	-8577
▁wymiany	-8578
▁zaprowa	-8579
▁zgadzam	-8580
▁Obiecuję	-8581
▁Szczegól	-8582
▁niestety	-8583
▁potencja	-8584
▁południu	-8585
▁skończył	-8586
▁stworzyć	-8587
▁zdarzyło	-8588
▁śmiertel	-8589
▁Uwielbiam	-8590
▁zadzwonił	-8591
▁ostatniego	-8592
▁poszczegól	-8593
▁urządzenie	-8594
▁wiedziałeś	-8595
▁zależności	-8596
▁zrobiliśmy	-8597
▁osiągnięcia	-8598
▁przypadkiem	-8599
▁przyszedłem	-8600
▁Porozumienia	-8601
▁odpowiedzieć	-8602
MI	-8603
mb	-8604
can	-8605
jan	-8606
tką	-8607
urt	-8608
bytu	-8609
duję	-8610
koło	-8611
sków	-8612
sten	-8613
▁Gal	-8614
▁Kir	-8615
▁Mur	-8616
▁Oby	-8617
▁Rom	-8618
▁Shi	-8619
▁imi	-8620
▁jab	-8621
▁jąd	-8622
▁smo	-8623
▁wnu	-8624
ciłeś	-8625
kładu	-8626
stawy	-8627
szczą	-8628
▁City	-8629
▁Pomi	-8630
▁Pyta	-8631
▁Szef	-8632
▁czuj	-8633
▁drog	-8634
▁spry	-8635
▁tema	-8636
▁unij	-8637
▁your	-8638
▁żywi	-8639
kowana	-8640
kowany	-8641
▁Kelly	-8642
▁Napis	-8643
▁Ojcze	-8644
▁archi	-8645
▁certy	-8646
▁dupie	-8647
▁duszę	-8648
▁głosu	-8649
▁picia	-8650
▁słone	-8651
▁służą	-8652
▁wczes	-8653
▁zajmu	-8654
▁Spotka	-8655
▁ciężki	-8656
▁drzewa	-8657
▁koryta	-8658
▁kwesti	-8659
▁minutę	-8660
▁muzyki	-8661
▁pijany	-8662
▁sateli	-8663
▁sekret	-8664
▁tamtym	-8665
▁wyszła	-8666
▁włosów	-8667
▁złożyć	-8668
▁święta	-8669
▁Przygot	-8670
▁budynek	-8671
▁chłopca	-8672
▁decyzje	-8673
▁kolacji	-8674
▁perspek	-8675
▁pojazdu	-8676
▁południ	-8677
▁przycze	-8678
▁północy	-8679
▁sprawić	-8680
▁wykonać	-8681
▁zamiaru	-8682
prawiedli	-8683
▁Traktatu	-8684
▁planecie	-8685
▁sprzedać	-8686
▁wspólnej	-8687
▁przewodni	-8688
▁załącznik	-8689
▁połączenia	-8690
▁przekracza	-8691
▁samochodów	-8692
▁kontynuować	-8693
▁samobójstwo	-8694
▁rzeczywiście	-8695
▁wspólnotowego	-8696
:1	-8697
ES	-8698
ati	-8699
ndu	-8700
pki	-8701
tko	-8702
yne	-8703
zje	-8704
anów	-8705
lara	-8706
onal	-8707
pelu	-8708
pięk	-8709
stek	-8710
urat	-8711
ścił	-8712
▁Che	-8713
▁How	-8714
▁Klu	-8715
▁Leo	-8716
▁Ode	-8717
▁Uda	-8718
▁row	-8719
/2003	-8720
jąłem	-8721
linie	-8722
mówić	-8723
stola	-8724
wycza	-8725
▁Dave	-8726
▁Juli	-8727
▁Kana	-8728
▁Wspo	-8729
▁Zwyk	-8730
▁brze	-8731
▁cena	-8732
▁show	-8733
▁strz	-8734
czonym	-8735
stawia	-8736
▁Scott	-8737
▁Zakła	-8738
▁aktor	-8739
▁benzy	-8740
▁cześć	-8741
▁dachu	-8742
▁kurcz	-8743
▁mleka	-8744
▁posła	-8745
▁pudeł	-8746
▁schro	-8747
▁skupi	-8748
▁tekst	-8749
▁ważny	-8750
▁ładne	-8751
▁żołąd	-8752
▁Bezpie	-8753
▁Staram	-8754
▁gorsze	-8755
▁jestes	-8756
▁królew	-8757
▁mające	-8758
▁milion	-8759
▁niemal	-8760
▁opinią	-8761
▁podsłu	-8762
▁przesa	-8763
▁przesu	-8764
▁ruszaj	-8765
▁stosow	-8766
▁słońce	-8767
▁taksów	-8768
▁władzy	-8769
fikowane	-8770
▁Chcecie	-8771
▁Inaczej	-8772
▁Możliwe	-8773
▁Nigdzie	-8774
▁Zabiera	-8775
▁budżetu	-8776
▁dodatku	-8777
▁książka	-8778
▁przedłu	-8779
▁radości	-8780
▁refunda	-8781
▁stracił	-8782
▁wrócimy	-8783
▁zastąpi	-8784
▁Człowiek	-8785
▁chłopców	-8786
▁dziwnego	-8787
▁odnaleźć	-8788
▁południe	-8789
▁funkcjona	-8790
▁kapitanie	-8791
▁Informacje	-8792
▁Wiedziałam	-8793
▁bezpieczny	-8794
▁mieszkaniu	-8795
▁porównaniu	-8796
▁profesjona	-8797
▁przesłucha	-8798
▁wydarzenia	-8799
▁dziewczynka	-8800
▁mieszkańców	-8801
▁przyszedłeś	-8802
▁stwierdzono	-8803
EK	-8804
IV	-8805
KO	-8806
fr	-8807
lał	-8808
lop	-8809
▁38	-8810
ankę	-8811
ciąć	-8812
emon	-8813
lana	-8814
onek	-8815
▁But	-8816
▁Cha	-8817
▁Gło	-8818
▁Kam	-8819
▁Kra	-8820
▁Męż	-8821
▁Pła	-8822
▁pok	-8823
▁ule	-8824
strzu	-8825
▁Anto	-8826
▁Byli	-8827
▁Sand	-8828
▁Wpad	-8829
▁baru	-8830
▁dupy	-8831
▁mono	-8832
▁nawi	-8833
▁odes	-8834
▁ogni	-8835
▁okna	-8836
▁popo	-8837
▁siód	-8838
▁wese	-8839
▁wypi	-8840
▁zajm	-8841
nieniu	-8842
▁Alice	-8843
▁Jezus	-8844
▁Nagle	-8845
▁Zasłu	-8846
▁bieżą	-8847
▁firmę	-8848
▁niezn	-8849
▁pasku	-8850
▁rzeki	-8851
▁szczu	-8852
▁twego	-8853
▁tytuł	-8854
▁tętni	-8855
▁ważna	-8856
▁zazna	-8857
▁Mikoła	-8858
▁Przyja	-8859
▁Trudno	-8860
▁czarny	-8861
▁klucze	-8862
▁naukow	-8863
▁przesp	-8864
▁sukces	-8865
▁upoważ	-8866
▁zachwy	-8867
▁zakres	-8868
▁zarzut	-8869
▁zauważ	-8870
▁Centrum	-8871
▁Kobiety	-8872
▁dziewię	-8873
▁objawów	-8874
twarzania	-8875
▁trzecich	-8876
▁umieścić	-8877
▁wniosków	-8878
▁śledztwo	-8879
▁niezwykle	-8880
▁przenieść	-8881
▁rozwiązać	-8882
▁inwestycji	-8883
▁pierwszych	-8884
▁pozwolenie	-8885
▁przeniesie	-8886
▁przysięgam	-8887
▁stanowiska	-8888
▁szczegółowe	-8889
▁najwyraźniej	-8890
▁społeczności	-8891
▁przeprowadzić	-8892
▁społeczeństwa	-8893
//	-8894
6,	-8895
MS	-8896
zg	-8897
ini	-8898
kop	-8899
lyn	-8900
nkę	-8901
rip	-8902
sla	-8903
▁00	-8904
▁Ah	-8905
▁En	-8906
cznę	-8907
dłem	-8908
jnym	-8909
kera	-8910
lary	-8911
nizm	-8912
noty	-8913
zolu	-8914
▁Bos	-8915
▁Dos	-8916
▁Gab	-8917
▁Got	-8918
▁Peł	-8919
▁glu	-8920
▁kad	-8921
▁kap	-8922
▁pog	-8923
▁wor	-8924
ałoby	-8925
groma	-8926
liłeś	-8927
rzeni	-8928
staną	-8929
szyng	-8930
wiony	-8931
▁2002	-8932
▁Andy	-8933
▁Brow	-8934
▁Jord	-8935
▁Kali	-8936
▁Part	-8937
▁best	-8938
▁doży	-8939
▁frag	-8940
▁nało	-8941
▁odez	-8942
▁posp	-8943
▁ułat	-8944
▁ście	-8945
strybu	-8946
ńskich	-8947
▁Grace	-8948
▁Twoim	-8949
▁Vegas	-8950
▁Zapła	-8951
▁akcep	-8952
▁atrak	-8953
▁chora	-8954
▁dojść	-8955
▁dziew	-8956
▁filmy	-8957
▁forma	-8958
▁garni	-8959
▁kwiat	-8960
▁pobra	-8961
▁swobo	-8962
▁tatua	-8963
▁toreb	-8964
▁wyczy	-8965
▁wzywa	-8966
▁znany	-8967
niejszą	-8968
ralnego	-8969
▁akurat	-8970
▁ekstra	-8971
▁krótko	-8972
▁kłopot	-8973
▁przytu	-8974
▁skupić	-8975
▁śladów	-8976
▁agencji	-8977
▁granicy	-8978
▁impreza	-8979
▁koncent	-8980
▁krymina	-8981
▁minimal	-8982
▁młodych	-8983
▁nazywać	-8984
▁przywoz	-8985
▁szalony	-8986
▁uderzył	-8987
▁zabijać	-8988
▁zabiłeś	-8989
▁zasadni	-8990
▁chrześci	-8991
▁dopuszcz	-8992
▁drzwiami	-8993
▁eksperym	-8994
▁insuliny	-8995
▁interesy	-8996
▁kieszeni	-8997
▁marzenia	-8998
▁systemie	-8999
▁właściwy	-9000
▁zapropon	-9001
▁Wspólnotę	-9002
▁dzieciaka	-9003
▁zaprojekt	-9004
▁Pomyślałam	-9005
▁Potrzebuje	-9006
▁przypadków	-9007
▁dodatkowych	-9008
▁niepożądane	-9009
▁prawdziwego	-9010
▁zatrudnienia	-9011
**	-9012
5/	-9013
AD	-9014
CY	-9015
OŚ	-9016
Wy	-9017
bem	-9018
ium	-9019
▁37	-9020
▁ti	-9021
:00.	-9022
beli	-9023
dzmi	-9024
lowy	-9025
ring	-9026
unek	-9027
▁Maj	-9028
▁Mia	-9029
▁Tel	-9030
▁Yor	-9031
▁Zau	-9032
▁doo	-9033
▁kół	-9034
▁snu	-9035
▁spu	-9036
▁spy	-9037
/2004	-9038
czące	-9039
dawca	-9040
glądu	-9041
logii	-9042
noszę	-9043
stami	-9044
tkach	-9045
▁Hall	-9046
▁Josh	-9047
▁Komu	-9048
▁Pomy	-9049
▁Połu	-9050
▁Will	-9051
▁ambi	-9052
▁chle	-9053
▁dwaj	-9054
▁lotu	-9055
▁obwi	-9056
▁ręką	-9057
▁trzę	-9058
▁uwię	-9059
aliśmy	-9060
herine	-9061
nianie	-9062
▁Atlan	-9063
▁Kurwa	-9064
▁White	-9065
▁długa	-9066
▁klubu	-9067
▁ognia	-9068
▁prowi	-9069
▁serio	-9070
▁Liczba	-9071
▁Organi	-9072
▁Street	-9073
▁Szybko	-9074
▁Wprowa	-9075
▁abyśmy	-9076
▁danego	-9077
▁mówili	-9078
▁nazwać	-9079
▁statki	-9080
▁telefo	-9081
▁trakta	-9082
chodzisz	-9083
▁Problem	-9084
▁Sprawoz	-9085
▁Waszyng	-9086
▁dostała	-9087
▁mogłaby	-9088
▁pozycję	-9089
▁reakcji	-9090
▁robiłem	-9091
▁sprzętu	-9092
▁starego	-9093
▁wspomin	-9094
▁zdrowie	-9095
▁Londynie	-9096
▁Spotkamy	-9097
▁piosenkę	-9098
▁powietrz	-9099
▁promieni	-9100
▁regulami	-9101
▁siostrze	-9102
▁sposobem	-9103
▁zapobiec	-9104
▁Zwłaszcza	-9105
▁personelu	-9106
▁powierzch	-9107
▁narkotyków	-9108
▁przyjechał	-9109
▁zadowolony	-9110
▁zagrożenie	-9111
▁przeprowadz	-9112
▁wspomnienia	-9113
▁Potrzebujesz	-9114
▁przyjaciółką	-9115
SP	-9116
bl	-9117
blu	-9118
ith	-9119
lus	-9120
sky	-9121
sor	-9122
taż	-9123
uri	-9124
▁VI	-9125
ANIE	-9126
anne	-9127
ball	-9128
bert	-9129
dego	-9130
ingu	-9131
ktyw	-9132
szpa	-9133
szły	-9134
ward	-9135
ówić	-9136
żyli	-9137
▁Dal	-9138
▁Dia	-9139
▁Las	-9140
▁Obu	-9141
▁ROZ	-9142
▁Ron	-9143
▁Róż	-9144
▁Sus	-9145
▁Sza	-9146
▁Ver	-9147
▁geo	-9148
▁poj	-9149
▁pou	-9150
adami	-9151
ciska	-9152
ciłam	-9153
robić	-9154
▁Hill	-9155
▁Matt	-9156
▁Zbyt	-9157
▁Znów	-9158
▁albu	-9159
▁czoł	-9160
▁nogę	-9161
▁posu	-9162
▁pouf	-9163
▁raka	-9164
▁rzeź	-9165
▁skaz	-9166
▁łago	-9167
daleko	-9168
dowany	-9169
dzieży	-9170
▁Dosta	-9171
▁Robin	-9172
▁geniu	-9173
▁głupo	-9174
▁nadej	-9175
▁nauki	-9176
▁ogląd	-9177
▁portu	-9178
▁porwa	-9179
▁wzmoc	-9180
▁zdjąć	-9181
ciliśmy	-9182
▁Maggie	-9183
▁dźwięk	-9184
▁egzami	-9185
▁kamery	-9186
▁miliar	-9187
▁pamięć	-9188
▁pokażę	-9189
▁wieczo	-9190
▁wystra	-9191
▁zostań	-9192
▁zwróci	-9193
▁świeże	-9194
▁Ameryce	-9195
▁Chrystu	-9196
▁Prawdzi	-9197
▁badanie	-9198
▁chodźmy	-9199
▁dotrzym	-9200
▁efektyw	-9201
▁farmako	-9202
▁nadziei	-9203
▁podaniu	-9204
▁strzyka	-9205
▁trzymaj	-9206
▁urodzin	-9207
▁wakacje	-9208
▁większy	-9209
▁wspólne	-9210
▁wypowie	-9211
partament	-9212
▁Patrzcie	-9213
▁dyrektor	-9214
▁mogliśmy	-9215
▁podobnie	-9216
▁powiedzi	-9217
▁wyglądam	-9218
▁zostawię	-9219
▁interesów	-9220
▁księżnicz	-9221
▁obowiązek	-9222
▁posłuchać	-9223
▁przyjmuje	-9224
▁skończyła	-9225
▁szczegóły	-9226
▁szczepion	-9227
▁warunkiem	-9228
▁widziałaś	-9229
▁Europejski	-9230
▁pomyślałam	-9231
▁skorzystać	-9232
▁najlepszego	-9233
▁wstrzykiwań	-9234
8,	-9235
EA	-9236
RO	-9237
bó	-9238
ye	-9239
III	-9240
blo	-9241
hoe	-9242
rpi	-9243
sel	-9244
wów	-9245
▁36	-9246
kiet	-9247
nnym	-9248
pson	-9249
▁dba	-9250
▁gal	-9251
▁ton	-9252
dztwo	-9253
kingu	-9254
lacja	-9255
landz	-9256
ranie	-9257
rzami	-9258
szono	-9259
tałeś	-9260
ziony	-9261
▁Cast	-9262
▁Lucy	-9263
▁Shaw	-9264
▁Wiec	-9265
▁Zaba	-9266
▁Zami	-9267
▁groź	-9268
▁kawa	-9269
▁lega	-9270
▁moge	-9271
▁niep	-9272
▁płuc	-9273
▁szla	-9274
dowane	-9275
gramów	-9276
gujesz	-9277
lachet	-9278
ruchom	-9279
▁Udało	-9280
▁Wezmę	-9281
▁bierz	-9282
▁dźwię	-9283
▁fajne	-9284
▁gejem	-9285
▁gliny	-9286
▁harmo	-9287
▁jezio	-9288
▁kartę	-9289
▁mięsa	-9290
▁piłkę	-9291
▁porno	-9292
▁pozby	-9293
▁służb	-9294
▁uczci	-9295
▁waliz	-9296
▁wpadł	-9297
▁Byłoby	-9298
▁Poprze	-9299
▁Północ	-9300
▁Stanów	-9301
▁dzwoni	-9302
▁języka	-9303
▁leczni	-9304
▁odzysk	-9305
▁wstrzą	-9306
▁wzrost	-9307
▁zapyta	-9308
▁zmusić	-9309
▁Christi	-9310
▁chwilkę	-9311
▁dzwonić	-9312
▁formula	-9313
▁idealne	-9314
▁strachu	-9315
▁urzędni	-9316
▁zrezygn	-9317
▁Zobaczmy	-9318
▁emocjona	-9319
▁kontaktu	-9320
▁korzysta	-9321
▁miejscem	-9322
▁niedawno	-9323
▁operację	-9324
▁powszech	-9325
▁rozdział	-9326
▁rzeczach	-9327
▁samochod	-9328
▁wyjechać	-9329
▁zaczekać	-9330
▁zacząłem	-9331
▁Spokojnie	-9332
▁Zamierzam	-9333
▁ciemności	-9334
▁dziennika	-9335
▁krajowych	-9336
▁obowiązki	-9337
▁procedurą	-9338
▁wyglądało	-9339
▁zadzwonię	-9340
▁Nienawidzę	-9341
▁nienawidzę	-9342
▁przeprosić	-9343
▁przychodzą	-9344
▁ważniejsze	-9345
▁rozmawialiśmy	-9346
36	-9347
IT	-9348
ił	-9349
nk	-9350
://	-9351
CJI	-9352
Czy	-9353
bek	-9354
pen	-9355
pka	-9356
pkę	-9357
pla	-9358
zny	-9359
żeć	-9360
▁Ek	-9361
anda	-9362
anką	-9363
loną	-9364
pisa	-9365
poko	-9366
szar	-9367
żeni	-9368
▁196	-9369
▁Ash	-9370
▁Dow	-9371
▁has	-9372
▁ses	-9373
▁łeb	-9374
dziem	-9375
leniu	-9376
lonym	-9377
ośród	-9378
rzyja	-9379
torzy	-9380
wałaś	-9381
wiata	-9382
łonek	-9383
▁Alan	-9384
▁Bran	-9385
▁Chin	-9386
▁Jadę	-9387
▁Jona	-9388
▁Pora	-9389
▁gabi	-9390
▁grał	-9391
▁immu	-9392
▁jadę	-9393
▁kuch	-9394
▁piwa	-9395
▁szaf	-9396
▁wiek	-9397
▁wpis	-9398
▁śpią	-9399
czyłaś	-9400
nictwa	-9401
porter	-9402
▁Długo	-9403
▁Króle	-9404
▁Numer	-9405
▁Odkąd	-9406
▁ekscy	-9407
▁ewaku	-9408
▁fraje	-9409
▁panna	-9410
▁rachu	-9411
▁uzbro	-9412
▁wiarę	-9413
▁wkład	-9414
▁wysko	-9415
▁władz	-9416
▁Robisz	-9417
▁Równie	-9418
▁Taylor	-9419
▁Wielka	-9420
▁głodny	-9421
▁hiszpa	-9422
▁niezłe	-9423
▁reszty	-9424
▁sobotę	-9425
▁spacer	-9426
▁słyszy	-9427
▁talent	-9428
▁więźni	-9429
▁wracaj	-9430
▁zginie	-9431
▁zmierz	-9432
chaliśmy	-9433
prawiasz	-9434
szczeniu	-9435
▁chętnie	-9436
▁głęboko	-9437
▁kapitał	-9438
▁komórek	-9439
▁koncert	-9440
▁konstru	-9441
▁podział	-9442
▁ramiona	-9443
▁ratować	-9444
▁uciekać	-9445
▁uśmiech	-9446
▁wyników	-9447
▁wyobraź	-9448
▁wypełni	-9449
▁Zaprawdę	-9450
▁działają	-9451
▁istnieją	-9452
▁koordyna	-9453
▁obecność	-9454
▁określić	-9455
▁patrzysz	-9456
▁podtrzym	-9457
▁pokazuje	-9458
▁przejrzy	-9459
▁przetrwa	-9460
▁wiecznie	-9461
▁Pozostałe	-9462
▁mężczyznę	-9463
▁państwach	-9464
▁powietrzu	-9465
▁producent	-9466
▁słyszałeś	-9467
▁znalazłeś	-9468
▁poniedział	-9469
▁przeczytać	-9470
▁przeszłość	-9471
▁zagrożenia	-9472
▁Znaleźliśmy	-9473
▁podstawowych	-9474
▁przeznaczenie	-9475
pą	-9476
td	-9477
vy	-9478
xa	-9479
KOW	-9480
bal	-9481
dło	-9482
get	-9483
hen	-9484
ila	-9485
orn	-9486
via	-9487
wij	-9488
▁32	-9489
▁4,	-9490
▁JE	-9491
▁ON	-9492
ałóż	-9493
cher	-9494
czął	-9495
fiku	-9496
gują	-9497
mowy	-9498
stin	-9499
stkę	-9500
tari	-9501
zeum	-9502
▁Bry	-9503
▁Isa	-9504
▁Ude	-9505
▁Wor	-9506
▁Zła	-9507
▁gan	-9508
▁izo	-9509
▁szó	-9510
▁tań	-9511
▁Łat	-9512
biega	-9513
norod	-9514
stein	-9515
▁2001	-9516
▁Dane	-9517
▁Jose	-9518
▁hała	-9519
▁nosa	-9520
▁nowi	-9521
▁piąt	-9522
▁potę	-9523
▁teat	-9524
▁wdro	-9525
▁wolę	-9526
▁węgl	-9527
▁znał	-9528
czości	-9529
kowało	-9530
lonego	-9531
nictwo	-9532
niczną	-9533
▁Musze	-9534
▁Panno	-9535
▁Pozna	-9536
▁Stany	-9537
▁Wybra	-9538
▁Zejdź	-9539
▁aresz	-9540
▁bruta	-9541
▁dawaj	-9542
▁jaski	-9543
▁pełną	-9544
▁pocie	-9545
▁pytam	-9546
▁umowa	-9547
▁walce	-9548
▁wujek	-9549
▁wyrok	-9550
▁łączy	-9551
▁Jackie	-9552
▁Mężczy	-9553
▁Obserw	-9554
▁Sądzie	-9555
▁Thomas	-9556
▁Wielki	-9557
▁Znajdź	-9558
▁firmie	-9559
▁klubie	-9560
▁kochał	-9561
▁litość	-9562
▁miesza	-9563
▁muzyka	-9564
▁popołu	-9565
▁próbki	-9566
▁rzadko	-9567
▁starym	-9568
▁umiesz	-9569
▁usiąść	-9570
▁uważać	-9571
▁wodzie	-9572
▁wyprze	-9573
▁zapomi	-9574
▁zmarła	-9575
libyście	-9576
▁Meksyku	-9577
▁Zacznij	-9578
▁biologi	-9579
▁dotykaj	-9580
▁farmace	-9581
▁integra	-9582
▁inżynie	-9583
▁nauczył	-9584
▁niegrze	-9585
▁pewnych	-9586
▁poinfor	-9587
▁powrotu	-9588
▁przeraż	-9589
▁stworzy	-9590
▁trzymał	-9591
▁zaawans	-9592
▁zabierz	-9593
▁elementy	-9594
▁nieważne	-9595
▁normalne	-9596
▁obszarów	-9597
▁poinform	-9598
▁prysznic	-9599
▁Dyrektywa	-9600
▁Powiedzmy	-9601
▁kolejnego	-9602
▁przeciwie	-9603
▁skończyło	-9604
▁specjalne	-9605
▁spotkałem	-9606
▁zastępuje	-9607
▁żołnierzy	-9608
▁zachowania	-9609
▁prowadzenia	-9610
▁właściwości	-9611
▁zakończenia	-9612
%.	-9613
41	-9614
UB	-9615
ffa	-9616
lit	-9617
oty	-9618
żdż	-9619
▁Ex	-9620
▁Mr	-9621
▁uk	-9622
cena	-9623
czeć	-9624
skar	-9625
suje	-9626
syła	-9627
wiał	-9628
zeku	-9629
łami	-9630
▁Ana	-9631
▁Gib	-9632
▁Spi	-9633
▁del	-9634
▁ost	-9635
▁rat	-9636
▁sex	-9637
▁ura	-9638
▁zio	-9639
ciach	-9640
przód	-9641
siądź	-9642
zycji	-9643
ństwu	-9644
żyłam	-9645
▁2013	-9646
▁Lily	-9647
▁Regi	-9648
▁Tech	-9649
▁Tran	-9650
▁Uspo	-9651
▁daty	-9652
▁piep	-9653
▁wraż	-9654
▁wysa	-9655
▁zeby	-9656
▁łódź	-9657
czanie	-9658
czniki	-9659
strzem	-9660
▁Jerry	-9661
▁Nazwa	-9662
▁Wscho	-9663
▁alarm	-9664
▁anioł	-9665
▁babci	-9666
▁bilet	-9667
▁budow	-9668
▁czasz	-9669
▁duszy	-9670
▁dłoni	-9671
▁króle	-9672
▁matce	-9673
▁walka	-9674
▁wymio	-9675
▁Świad	-9676
nicznie	-9677
▁Chwila	-9678
▁Cztery	-9679
▁Lubisz	-9680
▁Przeka	-9681
▁analiz	-9682
▁cieszy	-9683
▁czarow	-9684
▁dokony	-9685
▁główny	-9686
▁piękną	-9687
▁powoli	-9688
▁pośpie	-9689
▁szkoła	-9690
▁szukał	-9691
▁trafił	-9692
▁zakład	-9693
▁Detekty	-9694
▁Obecnie	-9695
▁alterna	-9696
▁cholera	-9697
▁częstot	-9698
▁dwudzie	-9699
▁dziadek	-9700
▁odszedł	-9701
▁pojęcie	-9702
▁przeklę	-9703
▁sposobu	-9704
▁swojemu	-9705
▁terapii	-9706
▁zasięgu	-9707
▁zmierza	-9708
▁zniknął	-9709
▁zwolnie	-9710
▁świetle	-9711
▁świetna	-9712
▁Doceniam	-9713
▁bierzesz	-9714
▁kościoła	-9715
▁obiecuję	-9716
▁oddychać	-9717
▁roztworu	-9718
▁sierpnia	-9719
▁wyrzucić	-9720
▁Załącznik	-9721
▁charakter	-9722
▁chłopaków	-9723
▁członkiem	-9724
▁mężczyzny	-9725
▁narkotyki	-9726
▁strategii	-9727
▁wyglądają	-9728
▁wymagania	-9729
▁kompletnie	-9730
▁połączenie	-9731
▁przestanie	-9732
▁zastanawia	-9733
▁konsultacji	-9734
▁nieszczęśli	-9735
▁przyjdziesz	-9736
▁specjalnego	-9737
▁przedstawienie	-9738
45	-9739
ue	-9740
ala	-9741
ese	-9742
rea	-9743
use	-9744
▁75	-9745
▁As	-9746
▁Er	-9747
▁Wę	-9748
▁ir	-9749
dają	-9750
datk	-9751
emii	-9752
licy	-9753
mień	-9754
szel	-9755
▁Bli	-9756
▁EBC	-9757
▁Hal	-9758
▁McG	-9759
▁Roy	-9760
▁Sio	-9761
▁Uro	-9762
▁Zad	-9763
▁gol	-9764
▁lot	-9765
▁pop	-9766
▁tez	-9767
▁węd	-9768
biegł	-9769
dźwie	-9770
▁Panu	-9771
▁Pięć	-9772
▁Quin	-9773
▁Upew	-9774
▁Wood	-9775
▁Zabu	-9776
▁koni	-9777
▁kurs	-9778
▁mile	-9779
▁roli	-9780
▁sena	-9781
▁tylu	-9782
▁ufam	-9783
▁zaje	-9784
▁zdob	-9785
▁zuży	-9786
nijcie	-9787
rzałem	-9788
▁Brian	-9789
▁Wejdź	-9790
▁cicho	-9791
▁ducha	-9792
▁garaż	-9793
▁grupę	-9794
▁głodu	-9795
▁krwią	-9796
▁lista	-9797
▁nazwa	-9798
▁pewni	-9799
▁pracą	-9800
▁rzuca	-9801
▁skarb	-9802
▁skłon	-9803
▁wyląd	-9804
▁załam	-9805
ujących	-9806
▁Daniel	-9807
▁Gdzieś	-9808
▁bilety	-9809
▁bliżej	-9810
▁czułam	-9811
▁deszcz	-9812
▁gorąco	-9813
▁kontek	-9814
▁kryzys	-9815
▁kłamie	-9816
▁lepsza	-9817
▁maszyn	-9818
▁niezły	-9819
▁oczami	-9820
▁ogólne	-9821
▁palców	-9822
▁przeba	-9823
▁roślin	-9824
▁strefy	-9825
▁szczur	-9826
▁tysiąc	-9827
▁uroczy	-9828
▁ustawo	-9829
▁winien	-9830
▁wojnie	-9831
▁załogi	-9832
▁znajdą	-9833
▁ładnie	-9834
▁Generał	-9835
▁dojdzie	-9836
▁element	-9837
▁któremu	-9838
▁martwię	-9839
▁obietni	-9840
▁papiero	-9841
▁pięknie	-9842
▁planety	-9843
▁pozbawi	-9844
▁przebra	-9845
▁przetwo	-9846
▁przeżyć	-9847
▁spełnia	-9848
▁standar	-9849
▁utrzymy	-9850
▁większą	-9851
▁wrogiem	-9852
▁zacznij	-9853
▁Podobnie	-9854
▁Rozmawia	-9855
▁Wspólnot	-9856
▁autostra	-9857
▁dziennie	-9858
▁intensyw	-9859
▁leczeniu	-9860
▁obejrzeć	-9861
▁piosenki	-9862
▁poprosić	-9863
▁prioryte	-9864
▁wspólnie	-9865
▁zabójstwa	-9866
▁przyzwycza	-9867
▁zachowywać	-9868
▁największym	-9869
▁ograniczenia	-9870
▁porozumienia	-9871
▁zobowiązania	-9872
▁Przewodniczący	-9873
21	-9874
39	-9875
IC	-9876
JE	-9877
.1.	-9878
ban	-9879
eah	-9880
fin	-9881
nok	-9882
pri	-9883
sin	-9884
sny	-9885
sną	-9886
szo	-9887
ugh	-9888
▁TA	-9889
▁af	-9890
▁ol	-9891
arni	-9892
ałby	-9893
dasz	-9894
illa	-9895
maty	-9896
rian	-9897
sper	-9898
wisz	-9899
żemy	-9900
żono	-9901
▁Gil	-9902
▁Gol	-9903
▁Gor	-9904
▁Gri	-9905
▁Kry	-9906
▁Pis	-9907
▁Ran	-9908
▁Taj	-9909
▁akt	-9910
▁ciu	-9911
▁dym	-9912
▁liz	-9913
▁uto	-9914
▁wan	-9915
▁zin	-9916
czyki	-9917
niane	-9918
sznie	-9919
szymy	-9920
▁Beth	-9921
▁Mont	-9922
▁Ozna	-9923
▁Tele	-9924
▁West	-9925
▁agre	-9926
▁audy	-9927
▁niem	-9928
▁okra	-9929
▁porw	-9930
▁płci	-9931
▁szyi	-9932
▁umów	-9933
▁wyka	-9934
▁wyru	-9935
▁zdej	-9936
▁zrów	-9937
▁zwro	-9938
▁życi	-9939
czasie	-9940
dzania	-9941
pieniu	-9942
rowane	-9943
wajcar	-9944
▁Chuck	-9945
▁Grupa	-9946
▁Która	-9947
▁Maria	-9948
▁Okres	-9949
▁Patri	-9950
▁Pomóż	-9951
▁boles	-9952
▁będąc	-9953
▁dziwa	-9954
▁karmi	-9955
▁ocenę	-9956
▁ośrod	-9957
▁palce	-9958
▁poraż	-9959
▁ramię	-9960
▁rozry	-9961
▁użyte	-9962
▁zbliż	-9963
fikować	-9964
▁bronić	-9965
▁chwile	-9966
▁egzeku	-9967
▁niepew	-9968
▁oferta	-9969
▁pański	-9970
▁straty	-9971
▁władzę	-9972
▁zakupy	-9973
▁zaszko	-9974
pracować	-9975
▁Skarbie	-9976
▁organiz	-9977
▁skradzi	-9978
▁skurwie	-9979
▁systemy	-9980
▁szczery	-9981
▁szkodzi	-9982
▁tamtego	-9983
▁zadzwoń	-9984
▁Chłopaki	-9985
▁Zarządza	-9986
▁bibliote	-9987
▁czekolad	-9988
▁nieszczę	-9989
▁pomożesz	-9990
▁przypomi	-9991
▁przyspie	-9992
▁spotkamy	-9993
▁zamordow	-9994
▁zauważyć	-9995
▁zdolność	-9996
▁Rozumiesz	-9997
▁Zazwyczaj	-9998
▁potrzebna	-9999
▁programie	-10000
▁właściwym	-10001
▁śniadanie	-10002
▁świadkiem	-10003
▁chłopakiem	-10004
▁kilometrów	-10005
▁pielęgniar	-10006
▁pieniędzmi	-10007
▁samochodem	-10008
▁transakcji	-10009
▁wykorzysta	-10010
▁właściciel	-10011
▁zwiększenie	-10012
▁najważniejsze	-10013
▁skomplikowane	-10014
31	-10015
70	-10016
ID	-10017
Ni	-10018
UK	-10019
IAŁ	-10020
bla	-10021
des	-10022
mac	-10023
rus	-10024
syn	-10025
uży	-10026
▁Hy	-10027
▁Sę	-10028
▁lę	-10029
gryz	-10030
owca	-10031
owny	-10032
pora	-10033
rzyk	-10034
very	-10035
ładu	-10036
łowa	-10037
▁Faj	-10038
▁Kor	-10039
▁Ltd	-10040
▁Rok	-10041
▁Zre	-10042
▁can	-10043
▁czą	-10044
▁dod	-10045
▁fin	-10046
▁kru	-10047
▁sma	-10048
▁ste	-10049
▁taś	-10050
▁łam	-10051
dziny	-10052
nalaz	-10053
rował	-10054
serwa	-10055
▁Abby	-10056
▁King	-10057
▁Ksią	-10058
▁Rick	-10059
▁Toma	-10060
▁http	-10061
▁jemu	-10062
▁kodu	-10063
▁mary	-10064
▁nota	-10065
▁pias	-10066
▁sied	-10067
▁styl	-10068
▁szpi	-10069
▁zata	-10070
szania	-10071
ówczas	-10072
▁Annie	-10073
▁Bibli	-10074
▁Dyrek	-10075
▁Johna	-10076
▁Karen	-10077
▁Poważ	-10078
▁Połóż	-10079
▁chuja	-10080
▁dorad	-10081
▁jutra	-10082
▁kompe	-10083
▁mleko	-10084
▁nieko	-10085
▁normy	-10086
▁pisać	-10087
▁plecy	-10088
▁pogad	-10089
▁pokoj	-10090
▁pożeg	-10091
▁torbę	-10092
▁wpaść	-10093
▁wstyd	-10094
▁zbrod	-10095
▁łóżko	-10096
dziesią	-10097
rażenia	-10098
▁Musiał	-10099
▁Wyciąg	-10100
▁agenta	-10101
▁babcia	-10102
▁czarnu	-10103
▁krótki	-10104
▁miaste	-10105
▁opinię	-10106
▁otwart	-10107
▁piekła	-10108
▁piątek	-10109
▁pobytu	-10110
▁propor	-10111
▁przeze	-10112
▁pytasz	-10113
▁religi	-10114
▁staram	-10115
▁szansy	-10116
▁szeryf	-10117
▁wschód	-10118
▁wymogi	-10119
▁wyścig	-10120
▁zginąć	-10121
▁Ameryka	-10122
▁Badania	-10123
▁Kalifor	-10124
▁Uspokój	-10125
▁Uważasz	-10126
▁agentów	-10127
▁cierpię	-10128
▁kryteri	-10129
▁naprawi	-10130
▁nastola	-10131
▁nazywam	-10132
▁opowiad	-10133
▁poradzę	-10134
▁spodnie	-10135
▁spróbuj	-10136
▁wchodzą	-10137
▁Opowiedz	-10138
▁cholerny	-10139
▁kryteria	-10140
▁miałabym	-10141
▁morderca	-10142
▁mordercą	-10143
▁pamiętaj	-10144
▁partnera	-10145
▁pośredni	-10146
▁procedur	-10147
▁przejmuj	-10148
▁siedział	-10149
▁tabletek	-10150
▁wielkiej	-10151
▁wystąpić	-10152
▁zechcesz	-10153
▁Następnym	-10154
▁Znalazłam	-10155
▁bohaterem	-10156
▁cholernie	-10157
▁jednostek	-10158
▁kolejnych	-10159
▁mężczyźni	-10160
▁podzielić	-10161
▁reprezent	-10162
▁spotkaniu	-10163
▁ustawodaw	-10164
▁próbowałem	-10165
▁publicznej	-10166
▁spowodować	-10167
▁wprowadzić	-10168
▁zaburzenia	-10169
▁Rozmawiałem	-10170
▁Zastanawiam	-10171
▁niezależnie	-10172
▁praktycznie	-10173
▁międzyczasie	-10174
SO	-10175
bku	-10176
cal	-10177
ceń	-10178
hyd	-10179
kna	-10180
pał	-10181
roi	-10182
yer	-10183
zol	-10184
zuj	-10185
łał	-10186
▁Fu	-10187
▁Vo	-10188
▁jo	-10189
gają	-10190
iera	-10191
nisa	-10192
pina	-10193
rena	-10194
sili	-10195
szam	-10196
słem	-10197
well	-10198
zali	-10199
órka	-10200
łoby	-10201
▁Ira	-10202
▁Kan	-10203
▁Lan	-10204
▁Lep	-10205
▁Mel	-10206
▁Phi	-10207
▁aro	-10208
▁bać	-10209
▁les	-10210
▁oli	-10211
▁oso	-10212
ródeł	-10213
▁Mały	-10214
▁Mick	-10215
▁Poje	-10216
▁dłoń	-10217
▁igno	-10218
▁mody	-10219
▁okej	-10220
▁post	-10221
▁skry	-10222
▁wodo	-10223
▁zęby	-10224
ałabyś	-10225
żancie	-10226
▁Bierz	-10227
▁Panna	-10228
▁Susan	-10229
▁Trybu	-10230
▁Wraca	-10231
▁Zajmę	-10232
▁armii	-10233
▁braci	-10234
▁dawkę	-10235
▁demon	-10236
▁dyplo	-10237
▁księg	-10238
▁magne	-10239
▁mundu	-10240
▁odważ	-10241
▁skoja	-10242
▁sędzi	-10243
▁winna	-10244
▁wywoz	-10245
▁zabij	-10246
korzyst	-10247
ralnych	-10248
▁Andrew	-10249
▁Bogiem	-10250
▁Europa	-10251
▁chcieć	-10252
▁czułem	-10253
▁dowodu	-10254
▁filmie	-10255
▁gadasz	-10256
▁kapelu	-10257
▁konkre	-10258
▁mogłaś	-10259
▁ofiarą	-10260
▁pokład	-10261
▁powsta	-10262
▁robiła	-10263
▁słodki	-10264
▁uwolni	-10265
▁zajęta	-10266
▁znieść	-10267
kowanych	-10268
▁alkohol	-10269
▁cieszyć	-10270
▁dookoła	-10271
▁dowiemy	-10272
▁jakichś	-10273
▁komórki	-10274
▁lepszym	-10275
▁odciski	-10276
▁odzyska	-10277
▁organów	-10278
▁rozkazy	-10279
▁samotna	-10280
▁samotny	-10281
▁troszkę	-10282
▁znaczyć	-10283
▁Istnieje	-10284
▁Musiałam	-10285
▁gdybyśmy	-10286
▁nastroju	-10287
▁niewolni	-10288
▁pańskiej	-10289
▁trzeciej	-10290
▁wskazują	-10291
▁wyglądał	-10292
▁wyjaśnia	-10293
▁wymagane	-10294
▁zmęczony	-10295
▁certyfika	-10296
▁określony	-10297
▁pieprzony	-10298
▁przemyśle	-10299
▁rozmawiał	-10300
▁telefonów	-10301
▁absolutnie	-10302
▁informację	-10303
▁pozostanie	-10304
▁przyniesie	-10305
▁znaleziono	-10306
▁zobowiązań	-10307
▁odniesienia	-10308
▁ograniczone	-10309
▁prawdopodob	-10310
▁potrzebowała	-10311
▁doświadczenie	-10312
▁zainteresowany	-10313
▁okolicznościach	-10314
25	-10315
AL	-10316
OT	-10317
up	-10318
The	-10319
Wie	-10320
bec	-10321
cko	-10322
dor	-10323
emy	-10324
fak	-10325
gal	-10326
nah	-10327
tta	-10328
▁5,	-10329
▁SI	-10330
▁Łą	-10331
dowa	-10332
dują	-10333
styn	-10334
tyni	-10335
ńską	-10336
▁Ant	-10337
▁Blu	-10338
▁Boo	-10339
▁Mul	-10340
▁bły	-10341
▁dur	-10342
▁gre	-10343
▁klo	-10344
▁mak	-10345
▁mod	-10346
▁nia	-10347
▁Ład	-10348
brzym	-10349
czycy	-10350
enefi	-10351
nniki	-10352
skaku	-10353
strem	-10354
sługi	-10355
torek	-10356
wieni	-10357
ącego	-10358
▁/...	-10359
▁Biał	-10360
▁Dość	-10361
▁Gran	-10362
▁Lind	-10363
▁Phoe	-10364
▁Twoi	-10365
▁Wzią	-10366
▁Zako	-10367
▁dali	-10368
▁krea	-10369
▁plik	-10370
▁pras	-10371
▁repu	-10372
▁sery	-10373
▁sieć	-10374
▁widy	-10375
▁zruj	-10376
▁ślad	-10377
▁Black	-10378
▁Jason	-10379
▁Jenny	-10380
▁Leona	-10381
▁Miami	-10382
▁Ochro	-10383
▁gliną	-10384
▁groma	-10385
▁mądry	-10386
▁nazwę	-10387
▁podwo	-10388
▁pogra	-10389
▁pomog	-10390
▁setki	-10391
▁skali	-10392
▁znaki	-10393
▁znika	-10394
▁złych	-10395
▁śladu	-10396
▁żonie	-10397
▁Francu	-10398
▁depres	-10399
▁funtów	-10400
▁kamień	-10401
▁kolega	-10402
▁konfli	-10403
▁lecieć	-10404
▁ofertę	-10405
▁partii	-10406
▁prawne	-10407
▁płacić	-10408
▁rozważ	-10409
▁strach	-10410
▁taniec	-10411
▁wprost	-10412
▁wpływa	-10413
▁wywozu	-10414
▁wzdłuż	-10415
▁zachód	-10416
▁źródeł	-10417
▁źródło	-10418
chodzimy	-10419
▁Program	-10420
▁Przeczy	-10421
▁granica	-10422
▁komplet	-10423
▁krajach	-10424
▁otworzy	-10425
▁papiery	-10426
▁pańskie	-10427
▁pociągu	-10428
▁pojawia	-10429
▁potencj	-10430
▁pozytyw	-10431
▁przybył	-10432
▁różnicy	-10433
▁uważają	-10434
▁widzimy	-10435
▁zostają	-10436
▁świadka	-10437
▁Minister	-10438
▁Poproszę	-10439
▁dołączyć	-10440
▁imprezie	-10441
▁ludziach	-10442
▁przestał	-10443
▁rachunek	-10444
▁sposobów	-10445
▁strategi	-10446
▁świadków	-10447
▁niedaleko	-10448
▁sprowadza	-10449
▁ustalenia	-10450
▁uwielbiam	-10451
▁występuje	-10452
▁zaczniemy	-10453
▁zaczynają	-10454
▁zapalenie	-10455
▁Próbowałem	-10456
▁dostarczyć	-10457
▁inteligent	-10458
▁odległości	-10459
▁oficjalnie	-10460
▁Przyszedłem	-10461
▁homologacji	-10462
▁powinniście	-10463
▁publicznych	-10464
▁restruktury	-10465
▁niezwłocznie	-10466
▁przedstawione	-10467
▁przeznaczenia	-10468
MU	-10469
ema	-10470
fre	-10471
ksu	-10472
ora	-10473
sum	-10474
▁33	-10475
▁Ej	-10476
▁JA	-10477
▁XX	-10478
cyna	-10479
fera	-10480
lady	-10481
letu	-10482
pper	-10483
toli	-10484
tyna	-10485
wano	-10486
wieź	-10487
wiła	-10488
▁10.	-10489
▁400	-10490
▁Deb	-10491
▁Nan	-10492
▁ONZ	-10493
▁Zgo	-10494
▁ego	-10495
▁ela	-10496
▁not	-10497
▁swą	-10498
▁ulo	-10499
dliwe	-10500
lenda	-10501
lonej	-10502
lonie	-10503
walić	-10504
zację	-10505
łanie	-10506
▁Dean	-10507
▁Jone	-10508
▁Soph	-10509
▁Tatu	-10510
▁Ukry	-10511
▁Unia	-10512
▁Zale	-10513
▁kwad	-10514
▁obaj	-10515
▁pigu	-10516
▁porę	-10517
▁soju	-10518
▁utru	-10519
▁walu	-10520
▁wtrą	-10521
▁zaro	-10522
cianie	-10523
jskiej	-10524
letnie	-10525
nujące	-10526
▁Marsh	-10527
▁Musie	-10528
▁Portu	-10529
▁Szczę	-10530
▁Terry	-10531
▁Vince	-10532
▁białe	-10533
▁bizne	-10534
▁cierp	-10535
▁dałem	-10536
▁doust	-10537
▁kolum	-10538
▁legen	-10539
▁lesie	-10540
▁nacze	-10541
▁podaw	-10542
▁próba	-10543
▁skóra	-10544
▁skórę	-10545
▁umiem	-10546
▁zdobę	-10547
kowaniu	-10548
lizować	-10549
▁Miałaś	-10550
▁Niewie	-10551
▁Oprócz	-10552
▁Otwórz	-10553
▁Profes	-10554
▁Specja	-10555
▁Włochy	-10556
▁Zgadza	-10557
▁bzdury	-10558
▁czyste	-10559
▁dziwny	-10560
▁metabo	-10561
▁muzykę	-10562
▁numeru	-10563
▁oddzwo	-10564
▁pomimo	-10565
▁połowy	-10566
▁rozpat	-10567
▁samemu	-10568
▁szczyt	-10569
▁szkody	-10570
▁trener	-10571
▁ucieka	-10572
▁wersja	-10573
▁zamach	-10574
▁zbadać	-10575
bierzesz	-10576
nicznego	-10577
prowadzę	-10578
rzeniami	-10579
▁Francis	-10580
▁Widzimy	-10581
▁Zostało	-10582
▁idealny	-10583
▁nadmier	-10584
▁oparciu	-10585
▁orygina	-10586
▁poprawi	-10587
▁położyć	-10588
▁robiłeś	-10589
▁skończę	-10590
▁stopnia	-10591
▁szalone	-10592
niejszego	-10593
stawienie	-10594
▁Chodźcie	-10595
▁musiałeś	-10596
▁osobiste	-10597
▁podłodze	-10598
▁prawnych	-10599
▁przewidy	-10600
▁przyjęte	-10601
▁strzelać	-10602
▁uspokoić	-10603
▁wydatków	-10604
▁zadaniem	-10605
▁zakładni	-10606
▁zmieniać	-10607
▁Hiszpanii	-10608
▁dyrektywa	-10609
▁niedzielę	-10610
▁nieruchom	-10611
▁pasażerów	-10612
▁przytrafi	-10613
▁wspaniała	-10614
▁Ktokolwiek	-10615
▁Przedstawi	-10616
▁gospodarki	-10617
▁nienawidzi	-10618
▁prawdziwej	-10619
▁skończyłem	-10620
▁właściwych	-10621
▁Powiedzieli	-10622
▁europejskich	-10623
▁gospodarczej	-10624
▁internetowej	-10625
▁konieczności	-10626
▁przesłuchanie	-10627
▁przedstawienia	-10628
49	-10629
EG	-10630
SI	-10631
dd	-10632
FOR	-10633
pol	-10634
tuł	-10635
uma	-10636
wis	-10637
wna	-10638
wód	-10639
▁CH	-10640
dale	-10641
dney	-10642
nnej	-10643
ranu	-10644
siny	-10645
skór	-10646
tyny	-10647
znał	-10648
ższe	-10649
▁Air	-10650
▁Fir	-10651
▁Les	-10652
▁McC	-10653
▁Nas	-10654
▁Sun	-10655
▁bak	-10656
▁cza	-10657
▁kel	-10658
▁koś	-10659
▁lud	-10660
▁ogo	-10661
▁son	-10662
▁tys	-10663
▁uci	-10664
▁ufa	-10665
▁zmo	-10666
mówie	-10667
nkach	-10668
stawa	-10669
tania	-10670
tonie	-10671
wiezd	-10672
wieźć	-10673
▁Chlo	-10674
▁dach	-10675
▁dają	-10676
▁gazu	-10677
▁kajd	-10678
▁kost	-10679
▁pota	-10680
▁rent	-10681
▁uwol	-10682
▁wagi	-10683
▁wiec	-10684
bierać	-10685
dawało	-10686
ington	-10687
niczej	-10688
rednie	-10689
▁Dobre	-10690
▁Green	-10691
▁House	-10692
▁Molly	-10693
▁Oddaj	-10694
▁biorę	-10695
▁krawę	-10696
▁misja	-10697
▁okiem	-10698
▁pokar	-10699
▁poran	-10700
▁powst	-10701
▁profi	-10702
▁pytać	-10703
▁ranka	-10704
▁start	-10705
▁szamp	-10706
▁wieki	-10707
▁wydać	-10708
▁zabro	-10709
▁zacze	-10710
▁ładna	-10711
styczny	-10712
szeniem	-10713
▁Gabrie	-10714
▁Najwyż	-10715
▁Niemie	-10716
▁Paryżu	-10717
▁Prosze	-10718
▁Walter	-10719
▁ciemno	-10720
▁cukrzy	-10721
▁działo	-10722
▁dziewi	-10723
▁niepeł	-10724
▁odmówi	-10725
▁planie	-10726
▁przyro	-10727
▁ptaków	-10728
▁resztą	-10729
▁rękawi	-10730
▁szukam	-10731
▁służyć	-10732
▁troche	-10733
▁warzyw	-10734
▁wizytę	-10735
▁wysyła	-10736
▁zrobią	-10737
cześniej	-10738
dzieścia	-10739
▁Czujesz	-10740
▁Jackson	-10741
▁Zauważy	-10742
▁Zrobimy	-10743
▁butelkę	-10744
▁dziecku	-10745
▁godzina	-10746
▁gwiazdy	-10747
▁głównym	-10748
▁książek	-10749
▁pierści	-10750
▁pracują	-10751
▁spośród	-10752
▁słodkie	-10753
▁tajemni	-10754
▁większa	-10755
▁wyjeżdż	-10756
▁wykonaw	-10757
▁Niedługo	-10758
▁byliście	-10759
▁myślałeś	-10760
▁odpowiad	-10761
▁różnorod	-10762
▁sypialni	-10763
▁umieszcz	-10764
▁widzieli	-10765
▁wspomina	-10766
▁wysokość	-10767
▁Widziałaś	-10768
▁dyrektywą	-10769
▁elementów	-10770
▁komputera	-10771
▁odwiedzić	-10772
▁podejście	-10773
▁powodować	-10774
▁przeniesi	-10775
▁próbujesz	-10776
▁zmieniają	-10777
▁Moglibyśmy	-10778
▁Zaburzenia	-10779
▁małżeństwa	-10780
▁obowiązków	-10781
▁przeczucie	-10782
▁przyjechać	-10783
▁przystojny	-10784
▁szacunkiem	-10785
▁szaleństwo	-10786
▁tożsamości	-10787
▁współpracę	-10788
▁aresztowany	-10789
▁dziewczynki	-10790
▁klinicznych	-10791
▁konkurencji	-10792
▁specjalnych	-10793
▁monitorowania	-10794
2)	-10795
2-	-10796
47	-10797
51	-10798
Do	-10799
Ko	-10800
NY	-10801
aa	-10802
dż	-10803
op	-10804
dum	-10805
mis	-10806
mit	-10807
nan	-10808
ssa	-10809
uld	-10810
▁7.	-10811
▁sf	-10812
beth	-10813
brew	-10814
brze	-10815
cjom	-10816
dnim	-10817
lają	-10818
onka	-10819
rzać	-10820
uter	-10821
żant	-10822
▁Fla	-10823
▁Kit	-10824
▁Kod	-10825
▁Lam	-10826
▁Len	-10827
▁Lub	-10828
▁byl	-10829
▁han	-10830
▁omi	-10831
▁osą	-10832
▁umi	-10833
ciami	-10834
gowie	-10835
głość	-10836
kałam	-10837
panie	-10838
walił	-10839
▁Boję	-10840
▁Minę	-10841
▁PRZY	-10842
▁Spen	-10843
▁boha	-10844
▁jedź	-10845
▁karę	-10846
▁okrą	-10847
▁opan	-10848
▁pada	-10849
▁rozp	-10850
▁sodu	-10851
▁uszy	-10852
▁uści	-10853
▁wisi	-10854
▁żało	-10855
dujemy	-10856
dzanie	-10857
nujesz	-10858
rowany	-10859
szczer	-10860
łączyć	-10861
▁Część	-10862
▁Flory	-10863
▁Pokaz	-10864
▁Racja	-10865
▁Simon	-10866
▁Wierz	-10867
▁Wynoś	-10868
▁drzew	-10869
▁grasz	-10870
▁konto	-10871
▁napić	-10872
▁ojcze	-10873
▁próbę	-10874
▁puste	-10875
▁rozpa	-10876
▁ruszy	-10877
▁starą	-10878
▁słuch	-10879
▁wyjdę	-10880
▁zwrac	-10881
▁zwrot	-10882
fikacja	-10883
mieniem	-10884
owujesz	-10885
sowanie	-10886
▁Miłość	-10887
▁Przygo	-10888
▁Sprawa	-10889
▁dzieła	-10890
▁królem	-10891
▁natury	-10892
▁obejmu	-10893
▁oficer	-10894
▁planów	-10895
▁plasti	-10896
▁podnie	-10897
▁profil	-10898
▁prowin	-10899
▁przeli	-10900
▁sukien	-10901
▁ukraść	-10902
▁uważaj	-10903
▁zacznę	-10904
▁zgroma	-10905
logiczne	-10906
▁Całkiem	-10907
▁Zamiast	-10908
▁królową	-10909
▁naprzód	-10910
▁odpoczy	-10911
▁piwnicy	-10912
▁pomagać	-10913
▁przytom	-10914
▁starych	-10915
▁tańczyć	-10916
▁ważnego	-10917
▁wolnego	-10918
▁wymieni	-10919
▁wziąłeś	-10920
▁wówczas	-10921
▁Dostałem	-10922
▁Jedziemy	-10923
▁głupiego	-10924
▁kosztuje	-10925
▁ludzkiej	-10926
▁miłością	-10927
▁nagranie	-10928
▁nazywają	-10929
▁niewidzi	-10930
▁poznałem	-10931
▁prawnika	-10932
▁przewagę	-10933
▁spotykać	-10934
▁ucieczki	-10935
▁wysokiej	-10936
▁wyłączyć	-10937
▁zaufania	-10938
▁zostałem	-10939
▁średniej	-10940
▁ciśnienie	-10941
▁dotyczącą	-10942
▁materiału	-10943
▁natomiast	-10944
▁przyszłaś	-10945
▁uzyskania	-10946
▁wdzięczny	-10947
▁faktycznie	-10948
▁propozycję	-10949
▁publikacji	-10950
▁zapomniałem	-10951
▁zastanawiam	-10952
▁zwiększenia	-10953
▁Przypuszczam	-10954
▁skuteczności	-10955
▁mechanicznych	-10956
▁poszczególnych	-10957
.*	-10958
np	-10959
zz	-10960
caj	-10961
cku	-10962
dak	-10963
lkę	-10964
pod	-10965
pul	-10966
seł	-10967
smy	-10968
sne	-10969
uni	-10970
żer	-10971
żki	-10972
▁np	-10973
ałów	-10974
czno	-10975
dzej	-10976
etro	-10977
etto	-10978
lesa	-10979
lest	-10980
lizm	-10981
mani	-10982
owaj	-10983
pami	-10984
szaj	-10985
tema	-10986
▁Dor	-10987
▁EOG	-10988
▁Gos	-10989
▁Jer	-10990
▁Kos	-10991
▁Pil	-10992
▁Pły	-10993
▁Rób	-10994
▁Son	-10995
▁Tem	-10996
▁amb	-10997
▁ape	-10998
▁get	-10999
▁sho	-11000
▁tan	-11001
▁tri	-11002
▁wer	-11003
bołów	-11004
miana	-11005
nieni	-11006
rasta	-11007
▁1000	-11008
▁Aman	-11009
▁Bart	-11010
▁Carl	-11011
▁Regu	-11012
▁Sean	-11013
▁Urzą	-11014
▁Vale	-11015
▁aler	-11016
▁ciał	-11017
▁czuł	-11018
▁datę	-11019
▁firm	-11020
▁hemo	-11021
▁kupu	-11022
▁lasu	-11023
▁masa	-11024
▁posł	-11025
▁psów	-11026
▁roze	-11027
▁unie	-11028
▁zgar	-11029
niania	-11030
perium	-11031
▁Barry	-11032
▁Poszu	-11033
▁Roger	-11034
▁Sekre	-11035
▁Serio	-11036
▁Wendy	-11037
▁Wrócę	-11038
▁dawka	-11039
▁genia	-11040
▁kwota	-11041
▁metod	-11042
▁morza	-11043
▁palan	-11044
▁pokaż	-11045
▁rusza	-11046
▁ustaw	-11047
▁wiatr	-11048
▁widzą	-11049
▁wywoł	-11050
prawidł	-11051
▁Cooper	-11052
▁Kontro	-11053
▁Steven	-11054
▁Wszech	-11055
▁benefi	-11056
▁dobrzy	-11057
▁garażu	-11058
▁jakość	-11059
▁komisa	-11060
▁lekcji	-11061
▁obcych	-11062
▁opiekę	-11063
▁polubi	-11064
▁randka	-11065
▁rewolu	-11066
▁ruszyć	-11067
▁ukrywa	-11068
▁uprzej	-11069
▁zabili	-11070
▁zaopat	-11071
▁ziemia	-11072
▁ściśle	-11073
▁Central	-11074
▁agentem	-11075
▁czekają	-11076
▁członek	-11077
▁dowodzi	-11078
▁jeździć	-11079
▁kalenda	-11080
▁kochana	-11081
▁niezbyt	-11082
▁plecami	-11083
▁przerwę	-11084
▁starszy	-11085
▁szukamy	-11086
▁zaczęli	-11087
▁zawarte	-11088
▁złodzie	-11089
▁Przepisy	-11090
▁mogłabyś	-11091
▁poprosił	-11092
▁przegląd	-11093
▁przekazy	-11094
▁przynosi	-11095
▁stężenie	-11096
▁wielkich	-11097
▁wróciłeś	-11098
▁włącznie	-11099
▁zawierać	-11100
▁angielski	-11101
▁ludzkości	-11102
▁materiały	-11103
▁obecności	-11104
▁powiadami	-11105
▁przypomni	-11106
▁specjalny	-11107
▁spełnione	-11108
▁własności	-11109
▁zawartość	-11110
▁zostawiła	-11111
▁bezpieczni	-11112
▁odpowiadać	-11113
▁oskarżenia	-11114
▁przewiduje	-11115
▁reprezentu	-11116
▁stwierdzić	-11117
▁szczęśliwi	-11118
▁usłyszałem	-11119
▁Bezpieczeństwa	-11120
23	-11121
lt	-11122
ben	-11123
ięk	-11124
kla	-11125
lip	-11126
rąz	-11127
sch	-11128
zów	-11129
▁8.	-11130
▁CY	-11131
▁CZ	-11132
gamy	-11133
hibi	-11134
kaja	-11135
kins	-11136
limy	-11137
logu	-11138
snąć	-11139
szku	-11140
wość	-11141
wzię	-11142
łuje	-11143
▁Ari	-11144
▁Bor	-11145
▁Cam	-11146
▁Kri	-11147
▁Lor	-11148
▁Nim	-11149
▁Swo	-11150
▁Tor	-11151
▁Wow	-11152
▁all	-11153
▁ano	-11154
▁itp	-11155
cunek	-11156
ekscy	-11157
jecie	-11158
nałem	-11159
ownik	-11160
żyłeś	-11161
▁Anna	-11162
▁Cole	-11163
▁Izra	-11164
▁Szwe	-11165
▁bylo	-11166
▁chmu	-11167
▁diam	-11168
▁draż	-11169
▁każe	-11170
▁kres	-11171
▁medi	-11172
▁mian	-11173
▁pary	-11174
▁plat	-11175
▁pobi	-11176
▁swej	-11177
▁tole	-11178
grywać	-11179
kręcić	-11180
▁Jessi	-11181
▁Każde	-11182
▁Które	-11183
▁Larry	-11184
▁Myśle	-11185
▁Paula	-11186
▁Prawo	-11187
▁Rosja	-11188
▁Szery	-11189
▁Widać	-11190
▁Zacho	-11191
▁Związ	-11192
▁błędy	-11193
▁cechy	-11194
▁honor	-11195
▁insta	-11196
▁kupił	-11197
▁ledwo	-11198
▁media	-11199
▁metal	-11200
▁naczy	-11201
▁neuro	-11202
▁obozu	-11203
▁opisu	-11204
▁pewną	-11205
▁pocze	-11206
▁ranny	-11207
▁rodza	-11208
▁równa	-11209
▁statu	-11210
▁stałe	-11211
▁strip	-11212
▁sukin	-11213
▁wroga	-11214
▁wyraz	-11215
▁zagwa	-11216
▁zgody	-11217
▁zgodę	-11218
dzieści	-11219
▁Jordan	-11220
▁Przyby	-11221
▁Robimy	-11222
▁Usługi	-11223
▁Uwierz	-11224
▁Ziemia	-11225
▁Zwykle	-11226
▁charak	-11227
▁chroni	-11228
▁czekał	-11229
▁dowiem	-11230
▁dyskre	-11231
▁goście	-11232
▁kłamać	-11233
▁matema	-11234
▁pańską	-11235
▁pomara	-11236
▁propon	-11237
▁prosta	-11238
▁rozpad	-11239
▁twarzą	-11240
▁weźmie	-11241
▁wrogów	-11242
▁wszczę	-11243
▁zemsty	-11244
▁Londynu	-11245
▁Mówiłaś	-11246
▁Południ	-11247
▁Przypom	-11248
▁Zapewne	-11249
▁energię	-11250
▁koszmar	-11251
▁miliona	-11252
▁myśleli	-11253
▁nazywał	-11254
▁podatku	-11255
▁podobny	-11256
▁pomyłka	-11257
▁połowów	-11258
▁przesła	-11259
▁przyjmu	-11260
▁rezerwa	-11261
▁uzgodni	-11262
▁wszechś	-11263
▁zorient	-11264
▁łącznie	-11265
stycznych	-11266
▁Poważnie	-11267
▁Wielkiej	-11268
▁Zrobiłam	-11269
▁Zrobiłeś	-11270
▁alkoholu	-11271
▁dystrybu	-11272
▁idealnie	-11273
▁nadzieje	-11274
▁pacjenci	-11275
▁projekty	-11276
▁przedtem	-11277
▁przerwać	-11278
▁przyczyn	-11279
▁próbując	-11280
▁wróciłem	-11281
▁zaszczyt	-11282
▁zniszczy	-11283
▁dorosłych	-11284
▁interesie	-11285
▁podawania	-11286
▁priorytet	-11287
▁rozpuszcz	-11288
▁zabójstwo	-11289
▁znajomych	-11290
▁regularnie	-11291
▁rozmawiamy	-11292
▁szczególne	-11293
▁towarzyszy	-11294
▁Międzynarod	-11295
▁dziewczynie	-11296
▁potwierdzić	-11297
▁postępowanie	-11298
▁wprowadzenia	-11299
0,	-11300
43	-11301
gs	-11302
ys	-11303
00.	-11304
EGO	-11305
aju	-11306
bes	-11307
bol	-11308
jaś	-11309
kli	-11310
rel	-11311
rim	-11312
sna	-11313
▁CN	-11314
▁Ow	-11315
▁TO	-11316
,000	-11317
Jest	-11318
aker	-11319
cono	-11320
dnio	-11321
grom	-11322
lany	-11323
tylo	-11324
wani	-11325
wers	-11326
wido	-11327
zuję	-11328
łaby	-11329
żymy	-11330
▁Ear	-11331
▁Gus	-11332
▁Sub	-11333
▁[1]	-11334
▁bil	-11335
▁bić	-11336
▁gle	-11337
▁las	-11338
▁Żał	-11339
budow	-11340
kacja	-11341
toria	-11342
wiasz	-11343
▁Jean	-11344
▁Kara	-11345
▁Kraj	-11346
▁Kupi	-11347
▁Szan	-11348
▁Wysł	-11349
▁Zwie	-11350
▁Złam	-11351
▁dało	-11352
▁dnie	-11353
▁dosł	-11354
▁heli	-11355
▁kary	-11356
▁kląt	-11357
▁koro	-11358
▁kota	-11359
▁odpa	-11360
▁prąd	-11361
▁rada	-11362
▁ryba	-11363
▁with	-11364
▁żyję	-11365
nieśli	-11366
nujemy	-11367
puścił	-11368
rowana	-11369
teczne	-11370
towane	-11371
waniem	-11372
▁Betty	-11373
▁Brook	-11374
▁Czeka	-11375
▁Harve	-11376
▁Jerem	-11377
▁Jesse	-11378
▁Należ	-11379
▁Zagra	-11380
▁awans	-11381
▁czyje	-11382
▁drobi	-11383
▁kąpie	-11384
▁odpor	-11385
▁truci	-11386
▁uczuć	-11387
▁wybor	-11388
▁wydaj	-11389
▁złota	-11390
dowania	-11391
jskiego	-11392
▁Mogłem	-11393
▁Szefie	-11394
▁chorób	-11395
▁czysta	-11396
▁drogie	-11397
▁dużego	-11398
▁dużych	-11399
▁gardło	-11400
▁lekami	-11401
▁liczbę	-11402
▁martwa	-11403
▁młodzi	-11404
▁obrony	-11405
▁odznak	-11406
▁pospie	-11407
▁postać	-11408
▁przepu	-11409
▁puścić	-11410
▁robili	-11411
▁strata	-11412
▁szybki	-11413
▁wdraża	-11414
▁wyczer	-11415
▁zabiją	-11416
▁zagubi	-11417
▁zaleca	-11418
▁zasada	-11419
▁Śmierć	-11420
▁ściany	-11421
▁żyjemy	-11422
▁Każdego	-11423
▁Pracuje	-11424
▁Spodzie	-11425
▁Sądzisz	-11426
▁agresyw	-11427
▁czekamy	-11428
▁jednoli	-11429
▁korzyść	-11430
▁kwestie	-11431
▁negatyw	-11432
▁nieobec	-11433
▁pokonać	-11434
▁pomysły	-11435
▁popiera	-11436
▁specyfi	-11437
▁staroży	-11438
▁uczynić	-11439
▁uderzyć	-11440
▁ulicach	-11441
▁wejście	-11442
▁wydatki	-11443
▁zapomnę	-11444
▁zarzuty	-11445
▁zawodni	-11446
▁świetną	-11447
▁Wreszcie	-11448
▁dziennik	-11449
▁interwen	-11450
▁kontrakt	-11451
▁musiałam	-11452
▁niewydol	-11453
▁nowoczes	-11454
▁oddziały	-11455
▁parkingu	-11456
▁pewności	-11457
▁podekscy	-11458
▁postawić	-11459
▁samodzie	-11460
▁sprzedaw	-11461
▁wychodzą	-11462
▁wydawało	-11463
▁zaprosić	-11464
▁zbudować	-11465
▁Prezydent	-11466
▁normalnie	-11467
▁przyjaźni	-11468
▁przypadki	-11469
▁trzeciego	-11470
▁Słuchajcie	-11471
▁Wiedziałeś	-11472
▁dziesięciu	-11473
▁określonym	-11474
▁przygotowy	-11475
▁przyjedzie	-11476
▁przypuszcz	-11477
▁społecznej	-11478
▁stworzenia	-11479
▁wykonawcze	-11480
▁zezwolenia	-11481
▁Szczególnie	-11482
▁opowiedzieć	-11483
▁zapewnienie	-11484
▁poinformować	-11485
▁nieruchomości	-11486
▁niespodzianka	-11487
▁ustanawiający	-11488
Bo	-11489
ąb	-11490
Ale	-11491
adź	-11492
chą	-11493
ena	-11494
lom	-11495
nau	-11496
nen	-11497
nną	-11498
ond	-11499
rei	-11500
sci	-11501
▁39	-11502
▁EN	-11503
▁db	-11504
▁ró	-11505
Prze	-11506
alam	-11507
burg	-11508
glik	-11509
ison	-11510
jazd	-11511
jnej	-11512
jska	-11513
lamy	-11514
nolo	-11515
nują	-11516
rowe	-11517
szeń	-11518
ując	-11519
▁Can	-11520
▁Fil	-11521
▁Hum	-11522
▁blu	-11523
▁fur	-11524
▁run	-11525
▁sny	-11526
▁ugo	-11527
▁wsi	-11528
▁zby	-11529
ciłaś	-11530
ctwem	-11531
mentu	-11532
metry	-11533
niego	-11534
niosę	-11535
nosił	-11536
terii	-11537
wisko	-11538
▁Hank	-11539
▁Jedź	-11540
▁Lois	-11541
▁Ogól	-11542
▁akad	-11543
▁dywi	-11544
▁know	-11545
▁mięk	-11546
▁naft	-11547
▁obcy	-11548
▁obóz	-11549
▁odsu	-11550
▁orbi	-11551
▁pała	-11552
▁reży	-11553
▁siła	-11554
▁tale	-11555
▁zasu	-11556
▁zato	-11557
▁Chloe	-11558
▁Enter	-11559
▁Fundu	-11560
▁Jesli	-11561
▁Narod	-11562
▁Pracu	-11563
▁Urząd	-11564
▁Wspom	-11565
▁Wygra	-11566
▁autor	-11567
▁biały	-11568
▁chore	-11569
▁czuła	-11570
▁duchy	-11571
▁forsę	-11572
▁gwałt	-11573
▁hodow	-11574
▁meczu	-11575
▁minął	-11576
▁musze	-11577
▁pełna	-11578
▁pogor	-11579
▁popat	-11580
▁przod	-11581
▁radzi	-11582
▁ratun	-11583
▁rozli	-11584
▁rozum	-11585
▁schem	-11586
▁socja	-11587
▁spadł	-11588
▁testy	-11589
▁trzeź	-11590
▁umówi	-11591
▁uznać	-11592
▁wiąże	-11593
▁wyrów	-11594
▁wzrok	-11595
▁węgla	-11596
▁zejść	-11597
dziecie	-11598
dzonego	-11599
▁Czerwo	-11600
▁Jezusa	-11601
▁Nieźle	-11602
▁Pokażę	-11603
▁Radzie	-11604
▁Twojej	-11605
▁Zależy	-11606
▁bogaty	-11607
▁kelner	-11608
▁numery	-11609
▁opiera	-11610
▁organu	-11611
▁osobie	-11612
▁przemi	-11613
▁smutne	-11614
▁spodob	-11615
▁terape	-11616
▁testów	-11617
▁twardy	-11618
▁unikać	-11619
▁uznaje	-11620
▁użycia	-11621
▁zdania	-11622
▁znałem	-11623
▁śpiewa	-11624
▁żywego	-11625
róbujemy	-11626
▁Francja	-11627
▁Najwięk	-11628
▁cudowne	-11629
▁dziesią	-11630
▁gwiazdą	-11631
▁kawałki	-11632
▁komenta	-11633
▁okazało	-11634
▁otrzymy	-11635
▁postępu	-11636
▁poważna	-11637
▁przerwy	-11638
▁prześla	-11639
▁przyjaź	-11640
▁ryzykow	-11641
▁student	-11642
▁szalona	-11643
▁wiedząc	-11644
▁wycofać	-11645
▁zabrzmi	-11646
▁ścianie	-11647
▁Amerykan	-11648
▁Szwajcar	-11649
▁Uniwersy	-11650
▁dostałam	-11651
▁kradzież	-11652
▁mieszkał	-11653
▁nadszedł	-11654
▁podatkow	-11655
▁powtarza	-11656
▁przejści	-11657
▁specjali	-11658
▁trzymasz	-11659
▁ważności	-11660
▁zanieczy	-11661
▁zmęczona	-11662
logicznych	-11663
▁budżetowy	-11664
▁doskonale	-11665
▁konsekwen	-11666
▁nadchodzi	-11667
▁naturalne	-11668
▁obszarach	-11669
▁podobnych	-11670
▁poszedłem	-11671
▁pracowała	-11672
▁przeglądu	-11673
▁przejdzie	-11674
▁uwierzysz	-11675
▁wyjdziesz	-11676
▁zamknięta	-11677
▁zastanowi	-11678
▁zawierają	-11679
▁zrozumiał	-11680
▁kontekście	-11681
▁określenie	-11682
▁wiedziałaś	-11683
▁zamieszany	-11684
▁zrozumiesz	-11685
▁Natychmiast	-11686
▁przedmiotem	-11687
▁rozmawiałem	-11688
▁Europejskich	-11689
▁przyjaciółki	-11690
▁właścicielem	-11691
▁współpracować	-11692
29	-11693
71	-11694
EC	-11695
ED	-11696
PS	-11697
tm	-11698
adu	-11699
cką	-11700
dra	-11701
eme	-11702
jga	-11703
laj	-11704
leć	-11705
ppy	-11706
rez	-11707
sis	-11708
tto	-11709
wką	-11710
▁2-	-11711
▁Il	-11712
▁Sc	-11713
▁US	-11714
ENIE	-11715
aniu	-11716
bera	-11717
casz	-11718
dali	-11719
gnąć	-11720
irgi	-11721
kine	-11722
któr	-11723
luję	-11724
mowa	-11725
mysł	-11726
ówkę	-11727
▁15.	-11728
▁Bas	-11729
▁DLA	-11730
▁Nel	-11731
▁POD	-11732
▁Tan	-11733
▁Val	-11734
▁dre	-11735
▁nap	-11736
▁paz	-11737
attle	-11738
dzący	-11739
lnymi	-11740
lotte	-11741
owiem	-11742
rzała	-11743
siłam	-11744
toksy	-11745
wiesz	-11746
▁Feli	-11747
▁Halo	-11748
▁Mała	-11749
▁Moze	-11750
▁Rock	-11751
▁Sami	-11752
▁Wska	-11753
▁Wyma	-11754
▁Zauf	-11755
▁Zmie	-11756
▁blon	-11757
▁byle	-11758
▁debi	-11759
▁grzy	-11760
▁klub	-11761
▁most	-11762
▁naby	-11763
▁szar	-11764
▁tota	-11765
▁wypu	-11766
▁zero	-11767
▁zysk	-11768
▁Świą	-11769
niczny	-11770
owisko	-11771
wiania	-11772
▁Boisz	-11773
▁Brown	-11774
▁INFOR	-11775
▁Jakoś	-11776
▁Julia	-11777
▁Odkry	-11778
▁Otwie	-11779
▁Zabój	-11780
▁Znisz	-11781
▁biała	-11782
▁brzyd	-11783
▁błędu	-11784
▁danej	-11785
▁fortu	-11786
▁kroki	-11787
▁kuzyn	-11788
▁misję	-11789
▁mięso	-11790
▁nazwy	-11791
▁stały	-11792
▁swych	-11793
▁służy	-11794
▁tiret	-11795
▁wolna	-11796
▁wręcz	-11797
▁wujka	-11798
▁zabie	-11799
czające	-11800
prowadź	-11801
▁Jedyne	-11802
▁Marcus	-11803
▁Miller	-11804
▁depozy	-11805
▁dniach	-11806
▁ewentu	-11807
▁intera	-11808
▁najnow	-11809
▁objęte	-11810
▁odstęp	-11811
▁owoców	-11812
▁połowa	-11813
▁próbek	-11814
▁rezolu	-11815
▁rośnie	-11816
▁stanąć	-11817
▁słysze	-11818
▁trafić	-11819
▁ustach	-11820
▁wybacz	-11821
▁wybrze	-11822
▁wyrwać	-11823
▁zaciąg	-11824
▁ślubie	-11825
▁Instytu	-11826
▁Miejsce	-11827
▁Powiesz	-11828
▁Wniosek	-11829
▁badaniu	-11830
▁ciekawe	-11831
▁deszczu	-11832
▁ekscytu	-11833
▁gatunku	-11834
▁karierę	-11835
▁krzywdy	-11836
▁obawiam	-11837
▁piersią	-11838
▁planetę	-11839
▁planuje	-11840
▁poprawy	-11841
▁pożegna	-11842
▁przecię	-11843
▁przeżył	-11844
▁rodzaje	-11845
▁sekundy	-11846
▁sposoby	-11847
▁spotkał	-11848
▁stripti	-11849
▁słyszał	-11850
▁wydarzy	-11851
▁wyrobów	-11852
▁zabrali	-11853
▁zakresu	-11854
▁zgodził	-11855
▁zrobiło	-11856
stąpienia	-11857
▁Brytanii	-11858
▁Chciałeś	-11859
▁Mogłabyś	-11860
▁Ostatnie	-11861
▁Zabieraj	-11862
▁artykułu	-11863
▁dostałeś	-11864
▁dyskusji	-11865
▁geografi	-11866
▁kapitana	-11867
▁lotnisko	-11868
▁mających	-11869
▁marzenie	-11870
▁narzędzi	-11871
▁niedźwie	-11872
▁oczekuje	-11873
▁okropnie	-11874
▁operacja	-11875
▁popełnił	-11876
▁przyjech	-11877
▁sekretar	-11878
▁szacunek	-11879
▁szlachet	-11880
▁ulubione	-11881
▁wspierać	-11882
▁zabijesz	-11883
▁zaczynam	-11884
▁zobowiąz	-11885
▁dosłownie	-11886
▁dzielnicy	-11887
▁mieszkasz	-11888
▁nadejdzie	-11889
▁następuje	-11890
▁poszukiwa	-11891
▁poważnego	-11892
▁większego	-11893
▁współloka	-11894
▁wychodzić	-11895
▁zrównoważ	-11896
▁największy	-11897
▁nieprawidł	-11898
▁finansowego	-11899
▁konsumentów	-11900
▁odniesienie	-11901
▁rejestracji	-11902
▁jakiekolwiek	-11903
▁poszukiwania	-11904
▁przeciwieństwie	-11905
.'	-11906
95	-11907
:3	-11908
IL	-11909
UN	-11910
KIE	-11911
ady	-11912
cti	-11913
ish	-11914
mak	-11915
osa	-11916
pha	-11917
san	-11918
tum	-11919
var	-11920
zin	-11921
łom	-11922
▁Ji	-11923
▁Ky	-11924
▁cm	-11925
adaj	-11926
cina	-11927
fery	-11928
gała	-11929
lozo	-11930
obby	-11931
owna	-11932
piny	-11933
rują	-11934
soli	-11935
unki	-11936
zach	-11937
żnej	-11938
▁Lat	-11939
▁Nar	-11940
▁Wat	-11941
▁bol	-11942
▁fut	-11943
▁kła	-11944
▁wul	-11945
▁zdu	-11946
/2007	-11947
gałem	-11948
kłady	-11949
niowe	-11950
rzesz	-11951
siłeś	-11952
żonym	-11953
▁Brad	-11954
▁Dick	-11955
▁Doug	-11956
▁Gary	-11957
▁Któr	-11958
▁Naro	-11959
▁Póki	-11960
▁Rzym	-11961
▁Ręce	-11962
▁Wart	-11963
▁dowó	-11964
▁noty	-11965
▁osło	-11966
▁redu	-11967
▁spak	-11968
▁umrę	-11969
▁wyku	-11970
▁Żona	-11971
kładać	-11972
lement	-11973
prawne	-11974
rzyłeś	-11975
zujemy	-11976
żonego	-11977
▁Drugi	-11978
▁Jacka	-11979
▁Ogląd	-11980
▁Potra	-11981
▁Rozpo	-11982
▁bezna	-11983
▁bomby	-11984
▁czaso	-11985
▁dopas	-11986
▁jesli	-11987
▁kraje	-11988
▁niena	-11989
▁odwro	-11990
▁urzęd	-11991
▁ustęp	-11992
▁walkę	-11993
▁ważną	-11994
▁wbrew	-11995
▁znane	-11996
czących	-11997
▁Histor	-11998
▁Lauren	-11999
▁Martwi	-12000
▁Pomimo	-12001
▁Zmieni	-12002
▁ceremo	-12003
▁drzewo	-12004
▁granic	-12005
▁lekcje	-12006
▁lepszą	-12007
▁miłego	-12008
▁muzeum	-12009
▁nieroz	-12010
▁niezła	-12011
▁otwórz	-12012
▁plotki	-12013
▁poczuć	-12014
▁roczni	-12015
▁rozmów	-12016
▁skutki	-12017
▁teksty	-12018
▁tenden	-12019
▁ustawy	-12020
▁uświad	-12021
▁wioski	-12022
▁wolisz	-12023
▁zawiad	-12024
▁zawiod	-12025
▁zgodzi	-12026
▁Christo	-12027
▁INFORMA	-12028
▁Japonii	-12029
▁Została	-12030
▁helikop	-12031
▁kariery	-12032
▁krajowe	-12033
▁mogłyby	-12034
▁obszaru	-12035
▁ogromną	-12036
▁otwarty	-12037
▁podskór	-12038
▁popatrz	-12039
▁posiłek	-12040
▁powodem	-12041
▁pragnie	-12042
▁przebie	-12043
▁przepad	-12044
▁stopień	-12045
▁szukasz	-12046
▁trwania	-12047
▁wiarygo	-12048
▁zabiorę	-12049
▁zaczęły	-12050
▁zadział	-12051
▁zwolnić	-12052
▁Mogłabym	-12053
▁Wolałbym	-12054
▁adwokata	-12055
▁czerwony	-12056
▁dostępny	-12057
▁funduszy	-12058
▁myślenia	-12059
▁poczekaj	-12060
▁poszukać	-12061
▁pozwolił	-12062
▁pożegnać	-12063
▁przespać	-12064
▁przyszły	-12065
▁przysłał	-12066
▁sprawdza	-12067
▁więźniów	-12068
▁zmieniła	-12069
▁zostawia	-12070
▁zrobione	-12071
▁związany	-12072
▁Charlotte	-12073
▁Działania	-12074
▁Wcześniej	-12075
▁beneficje	-12076
▁dotycząca	-12077
▁krajowego	-12078
▁mniejszej	-12079
▁podekscyt	-12080
▁przetrwać	-12081
▁przyczyny	-12082
▁szkolenia	-12083
▁utrzymuje	-12084
▁dzieciaków	-12085
▁należności	-12086
▁niewinnych	-12087
▁powstrzyma	-12088
▁prawnikiem	-12089
▁psychiatry	-12090
▁reprezenta	-12091
▁stworzenie	-12092
▁uwzględnie	-12093
▁charakterze	-12094
▁dziewczynką	-12095
▁następujący	-12096
▁odpowiednim	-12097
▁publicznego	-12098
▁towarzystwa	-12099
▁zaproszenie	-12100
▁zrozumiałem	-12101
▁dokumentacji	-12102
▁największych	-12103
▁podejrzanego	-12104
▁spodziewałem	-12105
▁prawdopodobne	-12106
▁przygotowania	-12107
▁wspólnotowych	-12108
▁przeznaczonych	-12109
4-	-12110
KU	-12111
Le	-12112
kł	-12113
:30	-12114
OWE	-12115
arą	-12116
beł	-12117
esa	-12118
ise	-12119
psy	-12120
run	-12121
teg	-12122
tos	-12123
unt	-12124
wit	-12125
zel	-12126
znę	-12127
▁95	-12128
▁EF	-12129
▁TV	-12130
cane	-12131
dzin	-12132
ffer	-12133
gady	-12134
owal	-12135
ołem	-12136
pływ	-12137
sion	-12138
szal	-12139
tany	-12140
tnik	-12141
ówka	-12142
łgar	-12143
▁===	-12144
▁Bab	-12145
▁Cle	-12146
▁Ilu	-12147
▁Jan	-12148
▁Lud	-12149
▁Slo	-12150
▁Tej	-12151
▁Wąt	-12152
▁che	-12153
▁don	-12154
▁gum	-12155
▁śro	-12156
▁źli	-12157
chody	-12158
czyły	-12159
menta	-12160
puter	-12161
▁Bren	-12162
▁Caro	-12163
▁Doro	-12164
▁Hale	-12165
▁Lisa	-12166
▁Nico	-12167
▁Nowe	-12168
▁PROD	-12169
▁Poko	-12170
▁Yeah	-12171
▁boją	-12172
▁czer	-12173
▁kawi	-12174
▁klej	-12175
▁masę	-12176
▁moce	-12177
▁nade	-12178
▁pres	-12179
▁skró	-12180
▁spro	-12181
▁spło	-12182
▁tatę	-12183
▁trum	-12184
▁wygo	-12185
▁wypa	-12186
▁Chcie	-12187
▁Odłóż	-12188
▁Proce	-12189
▁Proto	-12190
▁Wayne	-12191
▁Wykaz	-12192
▁bzdur	-12193
▁ciążę	-12194
▁czoła	-12195
▁gniew	-12196
▁krawa	-12197
▁króli	-12198
▁kątem	-12199
▁lekko	-12200
▁młodą	-12201
▁netto	-12202
▁nisko	-12203
▁niżej	-12204
▁odcię	-12205
▁odmie	-12206
▁promo	-12207
▁próby	-12208
▁stale	-12209
▁talen	-12210
▁udaje	-12211
▁wideo	-12212
▁zadań	-12213
▁zauwa	-12214
wiercie	-12215
▁Czekam	-12216
▁Księży	-12217
▁Margar	-12218
▁Mówiąc	-12219
▁Pułkow	-12220
▁Ziemię	-12221
▁Zrobił	-12222
▁bezuży	-12223
▁biurku	-12224
▁bliźni	-12225
▁byłbym	-12226
▁byście	-12227
▁detali	-12228
▁drewna	-12229
▁głośno	-12230
▁inhibi	-12231
▁instyn	-12232
▁ofiarę	-12233
▁piekie	-12234
▁planem	-12235
▁prosił	-12236
▁sektor	-12237
▁sporzą	-12238
▁szklan	-12239
▁sędzia	-12240
▁towary	-12241
▁wizyty	-12242
▁wydoby	-12243
▁wyrazi	-12244
▁wyspie	-12245
▁zajęło	-12246
▁zrobic	-12247
▁zwykłe	-12248
rowanych	-12249
▁Dzwonię	-12250
▁Johnson	-12251
▁Widział	-12252
▁artysty	-12253
▁białych	-12254
▁choroba	-12255
▁chorobą	-12256
▁dowiesz	-12257
▁dziecię	-12258
▁dzielić	-12259
▁guberna	-12260
▁imprezy	-12261
▁kostium	-12262
▁lekarze	-12263
▁młodego	-12264
▁oddycha	-12265
▁odpadów	-12266
▁okulary	-12267
▁pełnego	-12268
▁przesył	-12269
▁reakcja	-12270
▁relacje	-12271
▁strefie	-12272
▁toalety	-12273
▁wyjaśni	-12274
▁wyświet	-12275
▁zabawny	-12276
▁zabójcą	-12277
▁śledzić	-12278
bołówstwa	-12279
▁Wszędzie	-12280
▁Zupełnie	-12281
▁doceniam	-12282
▁dziewczę	-12283
▁krajowym	-12284
▁lotnisku	-12285
▁ludzkich	-12286
▁magazynu	-12287
▁mechaniz	-12288
▁myślicie	-12289
▁niewiary	-12290
▁otworzył	-12291
▁pogodzić	-12292
▁programy	-12293
▁uniwersy	-12294
▁wyzwanie	-12295
▁właściwą	-12296
▁zapomina	-12297
▁zwiększa	-12298
▁Hollywood	-12299
▁medycznej	-12300
▁najgorsze	-12301
▁policjant	-12302
▁przetrzym	-12303
▁przyjęciu	-12304
▁rodzicami	-12305
▁telefonie	-12306
▁chrześcija	-12307
▁dostaniemy	-12308
▁podejrzany	-12309
▁potwierdza	-12310
▁składników	-12311
▁stosownych	-12312
▁zobaczyłam	-12313
▁dochodzenia	-12314
▁długotermin	-12315
▁maksymalnie	-12316
▁obserwowano	-12317
▁proporcjona	-12318
▁prywatności	-12319
▁wytłumaczyć	-12320
▁Sprawozdanie	-12321
▁poniedziałek	-12322
▁przestępstwa	-12323
▁wykorzystania	-12324
)*	-12325
11	-12326
33	-12327
ZA	-12328
fę	-12329
rk	-12330
▁ó	-12331
MIE	-12332
STA	-12333
gip	-12334
glu	-12335
inę	-12336
pek	-12337
ray	-12338
rki	-12339
typ	-12340
ves	-12341
zar	-12342
▁6,	-12343
▁It	-12344
▁PA	-12345
▁mą	-12346
2010	-12347
ENIA	-12348
aria	-12349
biór	-12350
kury	-12351
lasy	-12352
orie	-12353
pher	-12354
sząc	-12355
ttle	-12356
śpie	-12357
▁Bio	-12358
▁Fak	-12359
▁Gli	-12360
▁Głu	-12361
▁Spy	-12362
▁Tow	-12363
▁fla	-12364
▁flo	-12365
▁klę	-12366
▁naw	-12367
▁out	-12368
▁rea	-12369
▁rej	-12370
▁ubó	-12371
▁wód	-12372
▁Śle	-12373
▁żal	-12374
ciera	-12375
czasz	-12376
czech	-12377
dacji	-12378
jenie	-12379
niaki	-12380
nkiem	-12381
owemu	-12382
piemy	-12383
ponow	-12384
tował	-12385
wycię	-12386
▁Case	-12387
▁Koch	-12388
▁Odda	-12389
▁Opie	-12390
▁Para	-12391
▁Rany	-12392
▁Rząd	-12393
▁Wróć	-12394
▁[1],	-12395
▁cyfr	-12396
▁czap	-12397
▁dowi	-12398
▁fair	-12399
▁incy	-12400
▁jacy	-12401
▁kina	-12402
▁kość	-12403
▁moto	-12404
▁niei	-12405
▁odro	-12406
▁opro	-12407
▁pobu	-12408
▁pode	-12409
▁rysu	-12410
▁such	-12411
zaniem	-12412
▁Czuje	-12413
▁Gratu	-12414
▁Grupy	-12415
▁Jamie	-12416
▁Koleś	-12417
▁Obywa	-12418
▁Słowa	-12419
▁Ważne	-12420
▁Wyrzu	-12421
▁astro	-12422
▁bomba	-12423
▁dusza	-12424
▁dużej	-12425
▁gazet	-12426
▁głosy	-12427
▁konta	-12428
▁party	-12429
▁place	-12430
▁podąż	-12431
▁rozej	-12432
▁rozwa	-12433
▁serii	-12434
▁stają	-12435
▁ukrad	-12436
▁waria	-12437
▁wstać	-12438
▁wyeli	-12439
▁wypły	-12440
▁zakon	-12441
▁zdraj	-12442
lizacja	-12443
lizację	-12444
owanymi	-12445
▁Adrian	-12446
▁Afgani	-12447
▁Afryki	-12448
▁Lekarz	-12449
▁Morgan	-12450
▁Mówiła	-12451
▁Parker	-12452
▁budowy	-12453
▁ciasto	-12454
▁domowe	-12455
▁dziwką	-12456
▁etykie	-12457
▁klatki	-12458
▁okazja	-12459
▁poddać	-12460
▁przeję	-12461
▁randki	-12462
▁teorii	-12463
▁tworzy	-12464
▁wezwać	-12465
▁wirusa	-12466
▁wydzie	-12467
▁zabawę	-12468
▁zaczną	-12469
▁żonaty	-12470
szczania	-12471
▁Agencja	-12472
▁Idziesz	-12473
▁Kolejny	-12474
▁Okazało	-12475
▁Wyobraź	-12476
▁chorobę	-12477
▁cierpie	-12478
▁członka	-12479
▁kolejna	-12480
▁korzyst	-12481
▁ogromne	-12482
▁pomyśli	-12483
▁posprzą	-12484
▁przedło	-12485
▁wygrywa	-12486
▁wyrazić	-12487
▁zapłaci	-12488
▁zbierać	-12489
▁zegarek	-12490
▁zmianie	-12491
▁związki	-12492
▁światem	-12493
▁Istnieją	-12494
▁Twierdzi	-12495
▁cholerne	-12496
▁częściej	-12497
▁domowych	-12498
▁dowiedzą	-12499
▁kobiecie	-12500
▁kochałem	-12501
▁kłamstwa	-12502
▁mieszkam	-12503
▁minister	-12504
▁odrobinę	-12505
▁powtórzy	-12506
▁protokół	-12507
▁przydzie	-12508
▁przyszli	-12509
▁tabletki	-12510
▁ulubiony	-12511
▁wściekły	-12512
▁łazienki	-12513
▁Niemczech	-12514
▁angielsku	-12515
▁brakowało	-12516
▁ciśnienia	-12517
▁godzinach	-12518
▁korzystać	-12519
▁przeszcze	-12520
▁równowagi	-12521
▁skończysz	-12522
▁trudności	-12523
▁zagwarant	-12524
▁Przypomina	-12525
▁chciałabyś	-12526
▁obserwować	-12527
▁określonej	-12528
▁przekonany	-12529
▁refundacji	-12530
▁zdecydować	-12531
▁zwalczania	-12532
▁określonego	-12533
▁spotkaliśmy	-12534
▁straciliśmy	-12535
▁odpowiedniej	-12536
▁oświadczenie	-12537
▁podstawowego	-12538
▁rozprzestrze	-12539
▁występowania	-12540
▁zabezpieczenia	-12541
Ii	-12542
Ja	-12543
Ka	-12544
xi	-12545
ECZ	-12546
ink	-12547
set	-12548
tno	-12549
wce	-12550
wsp	-12551
zać	-12552
zum	-12553
ózł	-12554
▁46	-12555
▁85	-12556
▁AK	-12557
▁Ap	-12558
▁Us	-12559
▁Uz	-12560
▁[3	-12561
▁iz	-12562
NICZ	-12563
boga	-12564
chlo	-12565
ensa	-12566
knął	-12567
wary	-12568
ziem	-12569
órki	-12570
▁195	-12571
▁600	-12572
▁Big	-12573
▁Blo	-12574
▁Com	-12575
▁Mał	-12576
▁Pet	-12577
▁Prę	-12578
▁Syl	-12579
▁Syn	-12580
▁bok	-12581
▁imp	-12582
▁koł	-12583
▁mal	-12584
▁uzd	-12585
▁wnę	-12586
▁zez	-12587
▁ćpu	-12588
akami	-12589
ather	-12590
jskie	-12591
kiedy	-12592
lerem	-12593
mówił	-12594
niaka	-12595
niasz	-12596
oween	-12597
pingu	-12598
prise	-12599
tnika	-12600
ujący	-12601
zować	-12602
zycja	-12603
▁1999	-12604
▁Indi	-12605
▁Nata	-12606
▁Sher	-12607
▁Zawo	-12608
▁Zgło	-12609
▁Zmar	-12610
▁beze	-12611
▁hono	-12612
▁japo	-12613
▁klau	-12614
▁lodu	-12615
▁moty	-12616
▁obaw	-12617
▁oper	-12618
▁osie	-12619
▁osza	-12620
▁poro	-12621
▁posa	-12622
▁prom	-12623
▁skan	-12624
▁sznu	-12625
▁towa	-12626
▁ukoń	-12627
▁weso	-12628
▁wzgó	-12629
conych	-12630
dzałem	-12631
glądać	-12632
grafii	-12633
konomi	-12634
landia	-12635
niosła	-12636
rzędne	-12637
więcej	-12638
ższych	-12639
▁Celem	-12640
▁Dzien	-12641
▁Eliza	-12642
▁India	-12643
▁Jones	-12644
▁Mario	-12645
▁Odwie	-12646
▁Rebec	-12647
▁River	-12648
▁Rosji	-12649
▁Uważa	-12650
▁apara	-12651
▁biorą	-12652
▁bitwy	-12653
▁butów	-12654
▁celne	-12655
▁colle	-12656
▁dawać	-12657
▁dupek	-12658
▁dużym	-12659
▁grane	-12660
▁koszy	-12661
▁kwasu	-12662
▁liczą	-12663
▁linie	-12664
▁miarę	-12665
▁obses	-12666
▁odnaj	-12667
▁podpa	-12668
▁poseł	-12669
▁praco	-12670
▁puści	-12671
▁płaci	-12672
▁płacą	-12673
▁szoku	-12674
▁winić	-12675
▁wydał	-12676
▁wymia	-12677
▁wyśle	-12678
▁zablo	-12679
▁zaklę	-12680
▁zamku	-12681
▁zamro	-12682
▁zapra	-12683
▁ładny	-12684
tecznie	-12685
▁Harvey	-12686
▁Idźcie	-12687
▁Jakbyś	-12688
▁Nikomu	-12689
▁Ostrze	-12690
▁Strony	-12691
▁bieliz	-12692
▁dajcie	-12693
▁diagno	-12694
▁doceni	-12695
▁emocji	-12696
▁etapie	-12697
▁imigra	-12698
▁nogach	-12699
▁nogami	-12700
▁ochoty	-12701
▁odbior	-12702
▁podrzu	-12703
▁powlek	-12704
▁regula	-12705
▁scenie	-12706
▁sztuka	-12707
▁tańczy	-12708
▁wolnym	-12709
▁wtorek	-12710
▁wybrał	-12711
stycznie	-12712
▁Chłopak	-12713
▁Martwię	-12714
▁Powinno	-12715
▁Pytanie	-12716
▁Rodzice	-12717
▁chorych	-12718
▁dalszym	-12719
▁docenia	-12720
▁gatunek	-12721
▁herbaty	-12722
▁komisji	-12723
▁maszyna	-12724
▁odnalaz	-12725
▁potwora	-12726
▁powróci	-12727
▁protoko	-12728
▁samolub	-12729
▁szeryfa	-12730
▁trening	-12731
▁umierać	-12732
▁warszta	-12733
▁wydawać	-12734
▁zdefini	-12735
▁zwykłym	-12736
dowaliśmy	-12737
owaliście	-12738
▁Irlandii	-12739
▁Pierwsze	-12740
▁Słyszysz	-12741
▁dzieciom	-12742
▁godzinie	-12743
▁historie	-12744
▁kompleks	-12745
▁niewinny	-12746
▁obejmują	-12747
▁odpocząć	-12748
▁oznaczać	-12749
▁pierście	-12750
▁podjęcia	-12751
▁podnieść	-12752
▁pojechał	-12753
▁pokrycie	-12754
▁procesie	-12755
▁sprawdzi	-12756
▁sprawdzę	-12757
▁zajmować	-12758
▁zasadami	-12759
▁życzenie	-12760
widoczniej	-12761
▁Będziecie	-12762
▁dotyczący	-12763
▁magazynie	-12764
▁oskarżony	-12765
▁pozostawi	-12766
▁procedurę	-12767
▁przeprasz	-12768
▁stosowany	-12769
▁zapominaj	-12770
▁nauczyciel	-12771
▁nieodpowie	-12772
▁odzwiercie	-12773
▁osobistego	-12774
▁popracować	-12775
▁pracowałem	-12776
▁przyjęciem	-12777
▁rozumieniu	-12778
▁wyprawiasz	-12779
▁zostaliśmy	-12780
▁zwolnienia	-12781
▁Najbardziej	-12782
▁doprowadzić	-12783
▁konferencji	-12784
▁ostrożności	-12785
▁przychodzić	-12786
▁zrezygnować	-12787
▁wprowadzenie	-12788
▁zewnętrznych	-12789
▁zmniejszenie	-12790
▁gospodarczego	-12791
▁przyjemnością	-12792
"!	-12793
.)	-12794
35	-12795
38	-12796
42	-12797
46	-12798
75	-12799
DE	-12800
RL	-12801
Ty	-12802
WO	-12803
zą	-12804
Jak	-12805
OWA	-12806
bin	-12807
cin	-12808
cks	-12809
iem	-12810
jać	-12811
ozę	-12812
roe	-12813
tte	-12814
tys	-12815
ure	-12816
urę	-12817
usa	-12818
uta	-12819
▁Ol	-12820
▁SA	-12821
▁as	-12822
▁dą	-12823
▁hy	-12824
▁wp	-12825
SZCZ	-12826
będą	-12827
ckim	-12828
dora	-12829
euro	-12830
fort	-12831
głos	-12832
ktem	-12833
ktor	-12834
mira	-12835
nior	-12836
nium	-12837
niły	-12838
poli	-12839
scie	-12840
tero	-12841
tonu	-12842
▁12.	-12843
▁Baw	-12844
▁Cro	-12845
▁KOM	-12846
▁Mys	-12847
▁OPA	-12848
▁Ral	-12849
▁Spa	-12850
▁Vol	-12851
▁des	-12852
▁iro	-12853
▁jaz	-12854
▁men	-12855
▁nóg	-12856
▁opa	-12857
▁osi	-12858
▁pta	-12859
▁rob	-12860
▁usz	-12861
▁wah	-12862
▁łaj	-12863
dopod	-12864
formu	-12865
jenia	-12866
nifer	-12867
nęłaś	-12868
stecz	-12869
tions	-12870
wiach	-12871
▁Brat	-12872
▁Came	-12873
▁Dana	-12874
▁EURO	-12875
▁Niby	-12876
▁Prem	-12877
▁[...	-12878
▁bram	-12879
▁jadą	-12880
▁jądr	-12881
▁mylę	-12882
▁parą	-12883
▁próż	-12884
▁splu	-12885
▁wyra	-12886
▁wzór	-12887
▁ziar	-12888
▁żywy	-12889
czkiem	-12890
czucia	-12891
czyków	-12892
czynam	-12893
kument	-12894
lanych	-12895
leciał	-12896
myślam	-12897
system	-12898
torami	-12899
ujecie	-12900
zienie	-12901
▁Gospo	-12902
▁Helen	-12903
▁Mitch	-12904
▁Randy	-12905
▁Straż	-12906
▁Virgi	-12907
▁Zabij	-12908
▁dwuna	-12909
▁jajka	-12910
▁komis	-12911
▁kopię	-12912
▁linia	-12913
▁nukle	-12914
▁palec	-12915
▁panny	-12916
▁poczy	-12917
▁podrę	-12918
▁pogar	-12919
▁pytał	-12920
▁rozmi	-12921
▁różni	-12922
▁silne	-12923
▁skrom	-12924
▁space	-12925
▁strój	-12926
▁słaby	-12927
▁ubrań	-12928
▁wywóz	-12929
▁zaspo	-12930
▁zbieg	-12931
▁zgwał	-12932
▁złoto	-12933
liliśmy	-12934
▁Howard	-12935
▁Jeremy	-12936
▁Miejmy	-12937
▁Phoebe	-12938
▁Prawdę	-12939
▁Przyje	-12940
▁hipote	-12941
▁istoty	-12942
▁któryś	-12943
▁mięśni	-12944
▁odnosi	-12945
▁patrzę	-12946
▁piekło	-12947
▁pokona	-12948
▁przesz	-12949
▁płynie	-12950
▁skurwy	-12951
▁spółki	-12952
▁tabeli	-12953
▁tamten	-12954
▁użytku	-12955
▁zaszło	-12956
▁zdolny	-12957
▁znajdź	-12958
▁Oznacza	-12959
▁Posiada	-12960
▁Wykorzy	-12961
▁Zgaduję	-12962
▁decyzją	-12963
▁granice	-12964
▁granicą	-12965
▁istnieć	-12966
▁jutrzej	-12967
▁lodówce	-12968
▁mieszać	-12969
▁ogromny	-12970
▁opuścił	-12971
▁ostrzec	-12972
▁paszpor	-12973
▁pomogła	-12974
▁przybli	-12975
▁różnice	-12976
▁silnika	-12977
▁szeroko	-12978
▁szpital	-12979
▁ubranie	-12980
▁ważnych	-12981
▁wracasz	-12982
▁wyborów	-12983
▁wydział	-12984
▁włączyć	-12985
▁zapozna	-12986
▁zdjęciu	-12987
▁śpiewać	-12988
▁Margaret	-12989
▁Zostałem	-12990
▁eksportu	-12991
▁kompeten	-12992
▁odbędzie	-12993
▁podmioty	-12994
▁politykę	-12995
▁profesor	-12996
▁sugeruje	-12997
▁szampana	-12998
▁szczeblu	-12999
▁sądziłam	-13000
▁twierdzą	-13001
▁uratował	-13002
▁ustalone	-13003
▁weźmiesz	-13004
▁wieczora	-13005
▁wielkość	-13006
▁zostałeś	-13007
▁Strasznie	-13008
▁mechanizm	-13009
▁opowieści	-13010
▁państwami	-13011
▁pozwalają	-13012
▁pragniesz	-13013
▁przywozie	-13014
▁rozpocząć	-13015
▁uprawnień	-13016
▁wspaniałą	-13017
▁współczyn	-13018
▁włączając	-13019
▁zachowuje	-13020
▁Zabierzcie	-13021
▁beznadziej	-13022
▁dotyczącej	-13023
▁finansowej	-13024
▁producenta	-13025
▁przyjeżdża	-13026
▁spodziewać	-13027
▁spojrzenie	-13028
▁szaleństwa	-13029
▁szczegółów	-13030
▁zauważyłem	-13031
▁błogosławie	-13032
▁dzisiejszym	-13033
▁prezydencie	-13034
▁społecznych	-13035
▁stosowanych	-13036
▁pochodzących	-13037
▁przestępstwo	-13038
▁temperaturze	-13039
▁jakichkolwiek	-13040
▁niebezpieczny	-13041
▁niespodziankę	-13042
▁opublikowaniu	-13043
▁przetwarzania	-13044
▁infrastruktury	-13045
▁zainteresowane	-13046
12	-13047
66	-13048
FI	-13049
JS	-13050
dl	-13051
ig	-13052
tr	-13053
CJA	-13054
Pro	-13055
bru	-13056
gel	-13057
mai	-13058
ota	-13059
pel	-13060
prę	-13061
rau	-13062
usu	-13063
śmi	-13064
żen	-13065
▁88	-13066
▁Kh	-13067
▁LA	-13068
▁Oz	-13069
▁lą	-13070
NYCH	-13071
bane	-13072
berg	-13073
bury	-13074
etry	-13075
gier	-13076
gine	-13077
rane	-13078
szty	-13079
towy	-13080
wiaj	-13081
ćcie	-13082
łość	-13083
▁Aud	-13084
▁Bła	-13085
▁Chę	-13086
▁HIV	-13087
▁Hel	-13088
▁Kup	-13089
▁Kwa	-13090
▁Was	-13091
▁Zoe	-13092
▁flu	-13093
▁itd	-13094
▁tło	-13095
▁uję	-13096
▁whi	-13097
▁zwa	-13098
▁łap	-13099
dorze	-13100
eksas	-13101
globi	-13102
lismy	-13103
liłam	-13104
prawa	-13105
rywać	-13106
śmier	-13107
▁Dale	-13108
▁Dnia	-13109
▁Gwia	-13110
▁Krew	-13111
▁Mosk	-13112
▁Nate	-13113
▁Nowa	-13114
▁Obaj	-13115
▁Puść	-13116
▁Radę	-13117
▁Rome	-13118
▁Spóź	-13119
▁VIII	-13120
▁Vero	-13121
▁chuj	-13122
▁form	-13123
▁gier	-13124
▁gram	-13125
▁grub	-13126
▁kwas	-13127
▁legi	-13128
▁mobi	-13129
▁pira	-13130
▁rogu	-13131
▁siłą	-13132
▁tren	-13133
▁twór	-13134
▁tędy	-13135
▁upar	-13136
▁uwag	-13137
▁wozu	-13138
▁wsta	-13139
▁zerw	-13140
dziego	-13141
dzonym	-13142
latuje	-13143
obserw	-13144
rymina	-13145
rzyłam	-13146
tional	-13147
tników	-13148
▁Ellen	-13149
▁Ricky	-13150
▁Tłuma	-13151
▁Wszel	-13152
▁bombę	-13153
▁chaos	-13154
▁córce	-13155
▁deser	-13156
▁docel	-13157
▁ewolu	-13158
▁fryzu	-13159
▁grupą	-13160
▁hamul	-13161
▁infek	-13162
▁jasna	-13163
▁kotku	-13164
▁kółko	-13165
▁latać	-13166
▁linię	-13167
▁odnot	-13168
▁odróż	-13169
▁ojczy	-13170
▁okaże	-13171
▁ośmiu	-13172
▁pisem	-13173
▁popsu	-13174
▁proro	-13175
▁płacz	-13176
▁rower	-13177
▁rzędu	-13178
▁smaku	-13179
▁szczo	-13180
▁testu	-13181
▁trwać	-13182
▁wirus	-13183
▁wujku	-13184
▁zigno	-13185
▁znosi	-13186
ciągnąć	-13187
globiny	-13188
owników	-13189
przeciw	-13190
terapii	-13191
tkowych	-13192
zywania	-13193
łogosła	-13194
▁Jedyną	-13195
▁Malcol	-13196
▁Mistrz	-13197
▁Pragnę	-13198
▁Teksas	-13199
▁Zmiany	-13200
▁całość	-13201
▁drobne	-13202
▁dłonie	-13203
▁główne	-13204
▁handel	-13205
▁klatce	-13206
▁kompro	-13207
▁nadzor	-13208
▁nawiga	-13209
▁niemow	-13210
▁online	-13211
▁pasują	-13212
▁podwyż	-13213
▁porywa	-13214
▁puszcz	-13215
▁radość	-13216
▁różnią	-13217
▁tematu	-13218
▁tworzą	-13219
▁uwadze	-13220
▁użyciu	-13221
▁wątpię	-13222
▁zabity	-13223
▁Agencji	-13224
▁Jedynym	-13225
▁Portuga	-13226
▁Potrafi	-13227
▁Powtarz	-13228
▁Sprawie	-13229
▁Twojego	-13230
▁białego	-13231
▁granicę	-13232
▁kochają	-13233
▁miastem	-13234
▁przekra	-13235
▁przewoz	-13236
▁przyzwo	-13237
▁reakcje	-13238
▁rozkazu	-13239
▁rozmiar	-13240
▁szybkie	-13241
▁służbie	-13242
▁terminu	-13243
▁uczniów	-13244
▁umrzesz	-13245
▁usłyszy	-13246
▁wszelką	-13247
▁zabicie	-13248
▁zapewne	-13249
▁zgodzić	-13250
▁zwycięz	-13251
▁Operator	-13252
▁Wiedział	-13253
▁cudownie	-13254
▁dochodzi	-13255
▁drzwiach	-13256
▁jednoraz	-13257
▁kapitału	-13258
▁krawędzi	-13259
▁krzyczeć	-13260
▁martwych	-13261
▁ochronia	-13262
▁poznałam	-13263
▁przeszła	-13264
▁systemem	-13265
▁telefony	-13266
▁wymyślić	-13267
▁wypełnić	-13268
▁zaufanie	-13269
▁zauważył	-13270
▁zeznania	-13271
▁zniknęła	-13272
▁Człowieku	-13273
▁Elizabeth	-13274
▁Internetu	-13275
▁Poszedłem	-13276
▁Republiki	-13277
▁Zatrzymaj	-13278
▁gwarancji	-13279
▁istotnych	-13280
▁lekarstwo	-13281
▁narzędzia	-13282
▁podejmuje	-13283
▁podmiotów	-13284
▁produktem	-13285
▁ryzykować	-13286
▁uderzenie	-13287
▁wybierasz	-13288
▁wykonywać	-13289
▁zaczniesz	-13290
▁zmieniona	-13291
▁alternatyw	-13292
▁aresztować	-13293
▁dyspozycji	-13294
▁nadzwyczaj	-13295
▁największą	-13296
▁poruczniku	-13297
▁posterunek	-13298
▁wykorzystu	-13299
▁zastosować	-13300
▁zwycięstwo	-13301
▁Zapomniałem	-13302
▁komunikacji	-13303
▁odpowiednią	-13304
▁wyjaśnienia	-13305
▁wykonywania	-13306
▁przeznaczony	-13307
▁przyjemności	-13308
▁sprawozdaniu	-13309
▁zaakceptować	-13310
▁zastosowaniem	-13311
▁członkowskiego	-13312
-5	-13313
4)	-13314
FF	-13315
Mu	-13316
SS	-13317
Te	-13318
WP	-13319
ep	-13320
ts	-13321
999	-13322
bio	-13323
bny	-13324
isy	-13325
lce	-13326
liż	-13327
mum	-13328
mym	-13329
oke	-13330
rej	-13331
rne	-13332
sób	-13333
tha	-13334
wak	-13335
wła	-13336
łód	-13337
▁65	-13338
▁Ai	-13339
▁DE	-13340
▁MA	-13341
▁OB	-13342
▁PC	-13343
▁có	-13344
▁ri	-13345
▁ss	-13346
Przy	-13347
anci	-13348
gnij	-13349
goni	-13350
illy	-13351
inie	-13352
isku	-13353
lili	-13354
lora	-13355
owcy	-13356
robo	-13357
skry	-13358
szne	-13359
ówek	-13360
ńcem	-13361
ńsku	-13362
▁Bat	-13363
▁Bun	-13364
▁Cud	-13365
▁Hay	-13366
▁Jay	-13367
▁SMS	-13368
▁Sin	-13369
▁Sul	-13370
▁enz	-13371
▁fal	-13372
▁nai	-13373
▁osa	-13374
▁oży	-13375
▁prą	-13376
▁sej	-13377
▁sol	-13378
▁udu	-13379
DZIAŁ	-13380
ceniu	-13381
chała	-13382
lison	-13383
nicze	-13384
rison	-13385
rozić	-13386
sport	-13387
stabi	-13388
tości	-13389
▁Bior	-13390
▁East	-13391
▁Egip	-13392
▁Ener	-13393
▁Inni	-13394
▁Jess	-13395
▁Krzy	-13396
▁Mamu	-13397
▁Obra	-13398
▁Ofer	-13399
▁Poda	-13400
▁Russ	-13401
▁Sena	-13402
▁Wido	-13403
▁Wypi	-13404
▁Zaka	-13405
▁brąz	-13406
▁daję	-13407
▁gnoj	-13408
▁hrab	-13409
▁kieł	-13410
▁kory	-13411
▁melo	-13412
▁mone	-13413
▁salę	-13414
▁skre	-13415
▁tkwi	-13416
▁upro	-13417
▁wpak	-13418
▁wylą	-13419
▁żela	-13420
ownicy	-13421
pieprz	-13422
stałem	-13423
wczego	-13424
ńczycy	-13425
▁Carol	-13426
▁Dwóch	-13427
▁Firma	-13428
▁Kenne	-13429
▁Marie	-13430
▁Mniej	-13431
▁Nancy	-13432
▁Riley	-13433
▁Sytua	-13434
▁Widzi	-13435
▁armia	-13436
▁awary	-13437
▁dowci	-13438
▁kopie	-13439
▁kwotę	-13440
▁licha	-13441
▁lubił	-13442
▁maleń	-13443
▁manie	-13444
▁naraż	-13445
▁nawie	-13446
▁obrzy	-13447
▁obrób	-13448
▁ogrze	-13449
▁pęche	-13450
▁rozko	-13451
▁tatuś	-13452
▁taśmy	-13453
▁torby	-13454
▁traci	-13455
▁trage	-13456
▁uchwy	-13457
▁ulega	-13458
▁umiar	-13459
▁wyspy	-13460
▁zdoła	-13461
▁Barney	-13462
▁Europe	-13463
▁Maksym	-13464
▁Mógłby	-13465
▁Mówimy	-13466
▁Nathan	-13467
▁OPAKOW	-13468
▁Ostroż	-13469
▁Otrzym	-13470
▁PRODUK	-13471
▁Zaczyn	-13472
▁Zróbmy	-13473
▁byłyby	-13474
▁choćby	-13475
▁ciaste	-13476
▁cofnąć	-13477
▁dynami	-13478
▁działu	-13479
▁dziury	-13480
▁dziurę	-13481
▁gorące	-13482
▁karabi	-13483
▁kłamcą	-13484
▁metoda	-13485
▁minęło	-13486
▁nazwie	-13487
▁obrazy	-13488
▁odbywa	-13489
▁odwagi	-13490
▁opisać	-13491
▁pańska	-13492
▁pewnej	-13493
▁pełnej	-13494
▁poznał	-13495
▁pragnę	-13496
▁przech	-13497
▁płakać	-13498
▁rejest	-13499
▁rozgry	-13500
▁szereg	-13501
▁szkoda	-13502
▁tkanki	-13503
▁widoku	-13504
▁wygrał	-13505
▁wzięli	-13506
▁wzięła	-13507
▁zgodny	-13508
▁zinteg	-13509
▁zwłoki	-13510
noszenia	-13511
▁Sprzeda	-13512
▁Stanach	-13513
▁Tymczas	-13514
▁Zrozumi	-13515
▁butelki	-13516
▁dostawy	-13517
▁dotknąć	-13518
▁ekstrem	-13519
▁gotować	-13520
▁każdemu	-13521
▁kościół	-13522
▁krótkie	-13523
▁książce	-13524
▁najpięk	-13525
▁odeszła	-13526
▁odwróci	-13527
▁olbrzym	-13528
▁patrzył	-13529
▁podejść	-13530
▁podmiot	-13531
▁pomogło	-13532
▁porówny	-13533
▁poważny	-13534
▁przerwa	-13535
▁siedmiu	-13536
▁trzęsie	-13537
▁udzieli	-13538
▁umieści	-13539
▁zaginął	-13540
▁zakłada	-13541
▁zapłacę	-13542
▁zdarzeń	-13543
▁źródłem	-13544
dopodobie	-13545
▁Komputer	-13546
▁Zakładam	-13547
▁bohatera	-13548
▁czwartek	-13549
▁dziewięć	-13550
▁garnitur	-13551
▁gatunków	-13552
▁głównych	-13553
▁kampanii	-13554
▁konserwa	-13555
▁martwego	-13556
▁ostrożny	-13557
▁otrzymać	-13558
▁otwarcie	-13559
▁podzieli	-13560
▁polityka	-13561
▁pomyślał	-13562
▁poprawić	-13563
▁połączyć	-13564
▁poślubić	-13565
▁przyznał	-13566
▁rozstrzy	-13567
▁silników	-13568
▁skoncent	-13569
▁spożycia	-13570
▁spróbuję	-13571
▁stosunki	-13572
▁stowarzy	-13573
▁umierają	-13574
▁uruchomi	-13575
▁wymagają	-13576
▁Catherine	-13577
▁Halloween	-13578
▁Pracujesz	-13579
▁Przyszedł	-13580
▁dokumentu	-13581
▁informuje	-13582
▁najwięcej	-13583
▁partnerów	-13584
▁pocałować	-13585
▁podniesie	-13586
▁procedura	-13587
▁publiczne	-13588
▁rezolucji	-13589
▁składniki	-13590
▁spełniają	-13591
▁sporządza	-13592
▁społeczne	-13593
▁sprzedaje	-13594
▁stwierdza	-13595
▁uszczęśli	-13596
▁wytrzymać	-13597
▁zwiększyć	-13598
▁Całkowicie	-13599
▁Dziękujemy	-13600
▁Enterprise	-13601
▁instytucje	-13602
▁interesach	-13603
▁niebieskie	-13604
▁podstawowe	-13605
▁przeciwnym	-13606
▁przestrzeń	-13607
▁przyznanie	-13608
▁pułkowniku	-13609
▁sprawiedli	-13610
▁współpracu	-13611
▁wytycznych	-13612
▁zaatakował	-13613
▁zatwierdza	-13614
▁Parlamencie	-13615
▁dwadzieścia	-13616
▁hemoglobiny	-13617
▁konkretnego	-13618
▁uczestników	-13619
▁usprawiedli	-13620
▁zakończenie	-13621
▁zrozumienia	-13622
▁dzisiejszego	-13623
▁oszczędności	-13624
▁przysięgłych	-13625
▁wystarczające	-13626
▁częstotliwości	-13627
▁przewodnicząca	-13628
26	-13629
DA	-13630
Od	-13631
tw	-13632
zj	-13633
.”;	-13634
?".	-13635
OWY	-13636
bad	-13637
con	-13638
ffi	-13639
ggi	-13640
gom	-13641
oli	-13642
pan	-13643
pkt	-13644
rzo	-13645
sse	-13646
tri	-13647
▁et	-13648
▁om	-13649
ansu	-13650
cają	-13651
cyny	-13652
dena	-13653
dory	-13654
gory	-13655
illi	-13656
kany	-13657
ksem	-13658
lano	-13659
niom	-13660
nowy	-13661
regu	-13662
rent	-13663
rzec	-13664
sing	-13665
trwa	-13666
▁CPA	-13667
▁CYP	-13668
▁Cli	-13669
▁Cri	-13670
▁Dex	-13671
▁Hit	-13672
▁Law	-13673
▁Mis	-13674
▁Moc	-13675
▁Pau	-13676
▁Tal	-13677
▁Zgi	-13678
▁boj	-13679
▁twe	-13680
▁uta	-13681
aktyw	-13682
ctwie	-13683
feron	-13684
formy	-13685
nność	-13686
owala	-13687
pisze	-13688
styki	-13689
stymi	-13690
szach	-13691
zione	-13692
łabym	-13693
żuter	-13694
▁Aust	-13695
▁Cale	-13696
▁Glen	-13697
▁Greg	-13698
▁Lane	-13699
▁Miss	-13700
▁Ross	-13701
▁Stef	-13702
▁Stwo	-13703
▁Wyko	-13704
▁Wysp	-13705
▁ampu	-13706
▁dróg	-13707
▁dług	-13708
▁impo	-13709
▁kula	-13710
▁maki	-13711
▁modu	-13712
▁nisz	-13713
▁owoc	-13714
▁podą	-13715
▁popy	-13716
▁ręku	-13717
▁serc	-13718
▁stój	-13719
▁suko	-13720
▁użył	-13721
▁wice	-13722
▁wróć	-13723
▁wszy	-13724
▁wyzd	-13725
▁zaży	-13726
kowała	-13727
rzanie	-13728
tujcie	-13729
wanego	-13730
wiałem	-13731
▁Carla	-13732
▁Dałem	-13733
▁Dziad	-13734
▁Ludzi	-13735
▁Mogło	-13736
▁Muszą	-13737
▁Quinn	-13738
▁Suger	-13739
▁Tatuś	-13740
▁Zabił	-13741
▁Zatru	-13742
▁auten	-13743
▁bater	-13744
▁bydła	-13745
▁cytry	-13746
▁czter	-13747
▁dupku	-13748
▁festi	-13749
▁formy	-13750
▁forsy	-13751
▁głębi	-13752
▁inspi	-13753
▁lider	-13754
▁nerki	-13755
▁nerwy	-13756
▁oddał	-13757
▁oleju	-13758
▁ostro	-13759
▁pływa	-13760
▁ruchy	-13761
▁stres	-13762
▁szkół	-13763
▁warta	-13764
▁wenty	-13765
▁winni	-13766
▁wykoń	-13767
▁wypis	-13768
▁zasło	-13769
▁zgonu	-13770
▁zysku	-13771
▁Żadna	-13772
czyciel	-13773
dnienie	-13774
ewnętrz	-13775
owienia	-13776
łącznie	-13777
▁Bułgar	-13778
▁Chwile	-13779
▁Genera	-13780
▁Królew	-13781
▁Usiądź	-13782
▁Wilson	-13783
▁Wyniki	-13784
▁Zastos	-13785
▁chodzą	-13786
▁czysty	-13787
▁dalsze	-13788
▁elasty	-13789
▁emocje	-13790
▁filmów	-13791
▁główną	-13792
▁idiotą	-13793
▁lunchu	-13794
▁molest	-13795
▁niesko	-13796
▁ożenić	-13797
▁placów	-13798
▁potasu	-13799
▁powięk	-13800
▁przeką	-13801
▁próbuj	-13802
▁rozumi	-13803
▁smutna	-13804
▁stacja	-13805
▁starej	-13806
▁szpieg	-13807
▁umysłu	-13808
▁wypali	-13809
▁zaopie	-13810
▁założy	-13811
▁ziemią	-13812
▁Żałuję	-13813
cyjności	-13814
rzyliśmy	-13815
staniemy	-13816
▁Brakuje	-13817
▁Chryste	-13818
▁Dziecko	-13819
▁Kobieta	-13820
▁Niemiec	-13821
▁Procedu	-13822
▁chodził	-13823
▁drużyna	-13824
▁kolejce	-13825
▁kryzysu	-13826
▁księcia	-13827
▁kupiłem	-13828
▁miałbyś	-13829
▁mogliby	-13830
▁myślała	-13831
▁mówicie	-13832
▁pociąga	-13833
▁przedaw	-13834
▁przypis	-13835
▁rocznie	-13836
▁szukają	-13837
▁uczynił	-13838
▁ukrywać	-13839
▁używane	-13840
▁walczył	-13841
▁wejdzie	-13842
▁wniosko	-13843
▁wpływem	-13844
▁Gdybyśmy	-13845
▁Jennifer	-13846
▁Myślicie	-13847
▁Podejrze	-13848
▁Preparat	-13849
▁Prezyden	-13850
▁Sytuacja	-13851
▁Widzicie	-13852
▁Wszelkie	-13853
▁Zaczynam	-13854
▁chodzisz	-13855
▁czekałem	-13856
▁dopuścić	-13857
▁generała	-13858
▁lotniska	-13859
▁naprawde	-13860
▁pamiętał	-13861
▁podpisać	-13862
▁posiadać	-13863
▁potrzebę	-13864
▁producen	-13865
▁przemyśl	-13866
▁przycisk	-13867
▁rachunku	-13868
▁rodzinne	-13869
▁szczycie	-13870
▁trudniej	-13871
▁widzicie	-13872
▁wyelimin	-13873
▁wykonane	-13874
▁zaledwie	-13875
▁zależało	-13876
▁zaobserw	-13877
▁Przeprowa	-13878
▁Przyszłam	-13879
▁dyrektora	-13880
▁emeryturę	-13881
▁istnienie	-13882
▁jednostka	-13883
▁leczonych	-13884
▁lokalnych	-13885
▁niepełnos	-13886
▁oznaczają	-13887
▁poczujesz	-13888
▁populacji	-13889
▁przyczyną	-13890
▁przyjrzeć	-13891
▁samochody	-13892
▁traktować	-13893
▁wyjątkowo	-13894
▁wątpienia	-13895
▁zaczynamy	-13896
▁Wspólnocie	-13897
▁aktywności	-13898
▁dostaliśmy	-13899
▁dostępnych	-13900
▁głosowania	-13901
▁negocjacji	-13902
▁niesprawie	-13903
▁ostrożność	-13904
▁piersiowej	-13905
▁powodzenia	-13906
▁prywatnych	-13907
▁przejmować	-13908
▁skrzywdził	-13909
▁utrzymanie	-13910
▁wspaniałym	-13911
▁zabierzesz	-13912
▁zastrzelił	-13913
▁środowisko	-13914
▁amerykański	-13915
▁farmakokine	-13916
▁gospodarcze	-13917
▁małżeństwem	-13918
▁naturalnego	-13919
▁prokuratora	-13920
▁przeprosiny	-13921
▁rybołówstwa	-13922
▁zakończeniu	-13923
▁zamieszanie	-13924
▁zasługujesz	-13925
▁znalezienie	-13926
▁angielskiego	-13927
▁członkowskim	-13928
▁europejskiej	-13929
▁gdziekolwiek	-13930
▁pozostałości	-13931
▁przeszkadzam	-13932
▁wiedzieliśmy	-13933
▁znaleźliście	-13934
▁przesłuchania	-13935
▁wstrzyknięcia	-13936
%)	-13937
KB	-13938
RU	-13939
TS	-13940
oo	-13941
.19	-13942
CJE	-13943
bon	-13944
fry	-13945
har	-13946
ild	-13947
iom	-13948
ket	-13949
lią	-13950
ole	-13951
oma	-13952
qui	-13953
ree	-13954
say	-13955
weł	-13956
żar	-13957
▁1-	-13958
▁AT	-13959
▁CI	-13960
▁NB	-13961
0000	-13962
cyzy	-13963
dowe	-13964
gada	-13965
guję	-13966
imna	-13967
lory	-13968
nięć	-13969
rett	-13970
tyle	-13971
wami	-13972
woju	-13973
wraż	-13974
żają	-13975
▁250	-13976
▁Cru	-13977
▁Fli	-13978
▁Goa	-13979
▁Hod	-13980
▁Joy	-13981
▁KBC	-13982
▁Kwo	-13983
▁Moj	-13984
▁Pun	-13985
▁Ren	-13986
▁Zao	-13987
▁der	-13988
▁gwi	-13989
▁nur	-13990
▁ogó	-13991
▁opę	-13992
▁ota	-13993
▁sum	-13994
▁wre	-13995
▁łzy	-13996
▁Żar	-13997
anemu	-13998
czane	-13999
czymi	-14000
dysku	-14001
gramy	-14002
który	-14003
ladel	-14004
niłaś	-14005
onald	-14006
rzany	-14007
rzyli	-14008
tural	-14009
tyków	-14010
▁(200	-14011
▁Chor	-14012
▁Kata	-14013
▁Paki	-14014
▁Rano	-14015
▁Road	-14016
▁Stał	-14017
▁Ster	-14018
▁Woda	-14019
▁Wolę	-14020
▁York	-14021
▁Zdej	-14022
▁Złap	-14023
▁balu	-14024
▁beta	-14025
▁boże	-14026
▁córe	-14027
▁darm	-14028
▁komo	-14029
▁kupę	-14030
▁love	-14031
▁nago	-14032
▁obrę	-14033
▁obwo	-14034
▁pasy	-14035
▁pije	-14036
▁ropy	-14037
▁siak	-14038
▁skór	-14039
▁spał	-14040
▁szer	-14041
▁tary	-14042
▁ulot	-14043
▁wali	-14044
▁wysu	-14045
▁wzor	-14046
▁zanu	-14047
▁zasy	-14048
dowała	-14049
finans	-14050
zujące	-14051
▁Biorę	-14052
▁Casey	-14053
▁Chiny	-14054
▁Davis	-14055
▁Dawno	-14056
▁Grant	-14057
▁Marco	-14058
▁Ocena	-14059
▁Odsuń	-14060
▁Około	-14061
▁Pokój	-14062
▁Pytam	-14063
▁Sally	-14064
▁Stone	-14065
▁akcję	-14066
▁alibi	-14067
▁armię	-14068
▁aucie	-14069
▁bandy	-14070
▁dałeś	-14071
▁domów	-14072
▁dopad	-14073
▁dopil	-14074
▁ekipy	-14075
▁fascy	-14076
▁gruby	-14077
▁jazda	-14078
▁karet	-14079
▁koper	-14080
▁krzyż	-14081
▁magia	-14082
▁magii	-14083
▁morzu	-14084
▁narzu	-14085
▁niebi	-14086
▁ogród	-14087
▁okład	-14088
▁palić	-14089
▁pilot	-14090
▁piłki	-14091
▁ptaki	-14092
▁płyną	-14093
▁rakie	-14094
▁skraj	-14095
▁staru	-14096
▁synów	-14097
▁tragi	-14098
▁windy	-14099
▁wygłu	-14100
▁wypić	-14101
▁wyzwo	-14102
▁wzmac	-14103
▁złość	-14104
▁łaska	-14105
czającą	-14106
dowałem	-14107
nięciem	-14108
ruchami	-14109
szonych	-14110
▁Biorąc	-14111
▁Carlos	-14112
▁Fajnie	-14113
▁Jednym	-14114
▁Owszem	-14115
▁Pieprz	-14116
▁Sophie	-14117
▁Sposób	-14118
▁Termin	-14119
▁Wracam	-14120
▁bracia	-14121
▁branży	-14122
▁ciepło	-14123
▁czynsz	-14124
▁dajesz	-14125
▁duchem	-14126
▁dupsko	-14127
▁ewakua	-14128
▁filozo	-14129
▁humoru	-14130
▁konwer	-14131
▁kumpel	-14132
▁kłócić	-14133
▁marzeń	-14134
▁mozesz	-14135
▁niezna	-14136
▁oferty	-14137
▁opłaty	-14138
▁paczkę	-14139
▁piekle	-14140
▁przesł	-14141
▁reguły	-14142
▁sercem	-14143
▁siedzą	-14144
▁skutek	-14145
▁sojusz	-14146
▁stawić	-14147
▁treści	-14148
▁wersji	-14149
▁zgłasz	-14150
▁zranić	-14151
▁złośli	-14152
dziesiąt	-14153
tycznymi	-14154
▁Allison	-14155
▁Chciała	-14156
▁Produkt	-14157
▁Przyzna	-14158
▁Wielkie	-14159
▁cudowny	-14160
▁dotykać	-14161
▁eksploa	-14162
▁elimina	-14163
▁jaskini	-14164
▁kolesia	-14165
▁księżyc	-14166
▁motocyk	-14167
▁otwarta	-14168
▁papieru	-14169
▁parking	-14170
▁pierwsi	-14171
▁podpisa	-14172
▁podziem	-14173
▁prawnik	-14174
▁przejąć	-14175
▁przyjdę	-14176
▁płaszcz	-14177
▁sprawdź	-14178
▁sprzeci	-14179
▁stałego	-14180
▁trzecim	-14181
▁uszczer	-14182
▁utalent	-14183
▁uważnie	-14184
▁wszelki	-14185
▁wydania	-14186
▁zabrała	-14187
▁zapytam	-14188
▁zarobić	-14189
▁zasuger	-14190
▁zginęli	-14191
czeństwem	-14192
▁Chodziło	-14193
▁Powiedzi	-14194
▁farmaceu	-14195
▁głównego	-14196
▁jedziesz	-14197
▁nagrania	-14198
▁poprawki	-14199
▁porządek	-14200
▁praktyki	-14201
▁prosiłem	-14202
▁prywatne	-14203
▁prędkość	-14204
▁równoważ	-14205
▁samotnie	-14206
▁stanowić	-14207
▁transpor	-14208
▁trzymają	-14209
▁uprawiać	-14210
▁wchodzić	-14211
▁większym	-14212
▁wyjechał	-14213
▁zapłacił	-14214
▁związana	-14215
ształcenie	-14216
▁Chrystusa	-14217
▁Pójdziemy	-14218
▁ekspertów	-14219
▁ludzkiego	-14220
▁ostrożnie	-14221
▁porucznik	-14222
▁przepowie	-14223
▁próbowali	-14224
▁robiliśmy	-14225
▁samolocie	-14226
▁spotykamy	-14227
▁tajemnicy	-14228
▁tożsamość	-14229
▁ulubionym	-14230
▁wspólnych	-14231
▁wzajemnie	-14232
▁zamknięty	-14233
▁zostawiaj	-14234
▁Kalifornii	-14235
▁całkowitej	-14236
▁charakteru	-14237
▁detektywie	-14238
▁inicjatywy	-14239
▁nieprzytom	-14240
▁powiadomić	-14241
▁przywrócić	-14242
▁strasznego	-14243
▁zaoferować	-14244
▁znajomości	-14245
▁świadomość	-14246
▁europejskie	-14247
▁niepoprawne	-14248
▁ostatecznie	-14249
▁policjantem	-14250
▁posiedzenia	-14251
▁prowadzenie	-14252
▁zapomniałam	-14253
▁dowiedziałem	-14254
▁nieporozumie	-14255
▁odpowiedział	-14256
▁przeprowadza	-14257
▁przeszkadzać	-14258
▁skończyliśmy	-14259
▁użytkowników	-14260
▁załącznikiem	-14261
▁powiedziałbym	-14262
▁zawierających	-14263
▁sprawiedliwość	-14264
(5	-14265
13	-14266
15	-14267
24	-14268
3-	-14269
LE	-14270
MP	-14271
OB	-14272
RI	-14273
Re	-14274
Dla	-14275
NIA	-14276
RAZ	-14277
cik	-14278
dop	-14279
duj	-14280
jną	-14281
kto	-14282
kus	-14283
ror	-14284
ryn	-14285
ręb	-14286
ręt	-14287
uer	-14288
zuł	-14289
▁1)	-14290
▁42	-14291
▁9.	-14292
▁Ev	-14293
▁Nr	-14294
▁TY	-14295
▁XV	-14296
biej	-14297
bili	-14298
cień	-14299
ferę	-14300
gnia	-14301
iali	-14302
mond	-14303
ntom	-14304
nylo	-14305
omie	-14306
osfo	-14307
owac	-14308
owiu	-14309
owro	-14310
pany	-14311
spon	-14312
towe	-14313
ving	-14314
wców	-14315
wemu	-14316
wiąż	-14317
zyka	-14318
łymi	-14319
▁Are	-14320
▁Bir	-14321
▁Bow	-14322
▁Eve	-14323
▁Gam	-14324
▁Kap	-14325
▁Wam	-14326
▁Zdr	-14327
▁Zja	-14328
▁bał	-14329
▁gni	-14330
▁kau	-14331
▁kok	-14332
artan	-14333
czcie	-14334
czący	-14335
lanza	-14336
luzuj	-14337
rabia	-14338
rence	-14339
stach	-14340
szczo	-14341
towej	-14342
▁2014	-14343
▁Abra	-14344
▁Indu	-14345
▁JEST	-14346
▁Meto	-14347
▁Oraz	-14348
▁Poch	-14349
▁Pres	-14350
▁Prez	-14351
▁Raym	-14352
▁Rumu	-14353
▁Włam	-14354
▁Zdra	-14355
▁boks	-14356
▁dale	-14357
▁defi	-14358
▁fron	-14359
▁hero	-14360
▁igły	-14361
▁kali	-14362
▁male	-14363
▁norm	-14364
▁nędz	-14365
▁odku	-14366
▁orga	-14367
▁siat	-14368
▁stół	-14369
▁szat	-14370
▁tlen	-14371
▁wyst	-14372
ceniem	-14373
kładne	-14374
kładów	-14375
lecieć	-14376
▁Biuro	-14377
▁Bruce	-14378
▁Lucas	-14379
▁Megan	-14380
▁Osobi	-14381
▁Penny	-14382
▁Poczu	-14383
▁Publi	-14384
▁Umowy	-14385
▁Wasze	-14386
▁banda	-14387
▁cudem	-14388
▁domku	-14389
▁długą	-14390
▁efekt	-14391
▁fanem	-14392
▁galak	-14393
▁gangu	-14394
▁gonna	-14395
▁gówni	-14396
▁jadal	-14397
▁krety	-14398
▁kucha	-14399
▁laski	-14400
▁lizbo	-14401
▁manda	-14402
▁nożem	-14403
▁obawy	-14404
▁ocena	-14405
▁piłka	-14406
▁podar	-14407
▁polep	-14408
▁silna	-14409
▁skłam	-14410
▁stada	-14411
▁tańca	-14412
▁typem	-14413
▁typie	-14414
▁ustan	-14415
▁wiedź	-14416
▁wynaj	-14417
▁wytwo	-14418
▁zapal	-14419
▁zębów	-14420
▁Afryce	-14421
▁Austra	-14422
▁Jakbym	-14423
▁Jersey	-14424
▁Michel	-14425
▁Mówili	-14426
▁Paryża	-14427
▁Siedem	-14428
▁Sprawi	-14429
▁Sprowa	-14430
▁Wątpię	-14431
▁Zaufaj	-14432
▁bezdom	-14433
▁celowo	-14434
▁drobia	-14435
▁dyskus	-14436
▁gorąca	-14437
▁innemu	-14438
▁ludzki	-14439
▁makija	-14440
▁minima	-14441
▁nacisk	-14442
▁nakazu	-14443
▁napast	-14444
▁napisa	-14445
▁niezrę	-14446
▁okazać	-14447
▁oświet	-14448
▁parano	-14449
▁parlam	-14450
▁próbkę	-14451
▁rzucił	-14452
▁różnic	-14453
▁stawki	-14454
▁teoria	-14455
▁urzędu	-14456
▁weszła	-14457
▁wymiar	-14458
▁wypoży	-14459
▁zadbać	-14460
▁zwierz	-14461
▁zwykła	-14462
▁Chętnie	-14463
▁Lekarze	-14464
▁Obiecaj	-14465
▁Ochrona	-14466
▁Simpson	-14467
▁Spencer	-14468
▁Szukamy	-14469
▁aktywów	-14470
▁biżuter	-14471
▁dodatek	-14472
▁dorośli	-14473
▁dupkiem	-14474
▁gwiazda	-14475
▁klimatu	-14476
▁kolegów	-14477
▁kontyng	-14478
▁królowa	-14479
▁nieisto	-14480
▁obudzić	-14481
▁odprowa	-14482
▁patrząc	-14483
▁państwu	-14484
▁piętrze	-14485
▁podawać	-14486
▁powiemy	-14487
▁przenoś	-14488
▁rolnych	-14489
▁stosują	-14490
▁słuszne	-14491
▁toleran	-14492
▁udziela	-14493
▁używają	-14494
▁wydanie	-14495
▁wymianę	-14496
▁wynoszą	-14497
▁wziąłem	-14498
▁zapewni	-14499
▁zgłosić	-14500
czynienia	-14501
▁Detektyw	-14502
▁Gospodar	-14503
▁Marshall	-14504
▁Potrzeba	-14505
▁Sprawied	-14506
▁bezpośre	-14507
▁dalszych	-14508
▁dumpingu	-14509
▁interpre	-14510
▁kolejnej	-14511
▁personel	-14512
▁pomysłem	-14513
▁poparcie	-14514
▁poprostu	-14515
▁pożyczyć	-14516
▁przynieś	-14517
▁rzeczami	-14518
▁spotkało	-14519
▁straszny	-14520
▁szczurów	-14521
▁sędziego	-14522
▁tchórzem	-14523
▁technolo	-14524
▁uspokaja	-14525
▁uwierzył	-14526
▁wydziału	-14527
▁wykazały	-14528
▁zaczęłam	-14529
▁zajmiemy	-14530
▁zamienić	-14531
▁śledztwa	-14532
▁Najlepiej	-14533
▁Natomiast	-14534
▁Straciłem	-14535
▁Wybaczcie	-14536
▁całkowitą	-14537
▁czynników	-14538
▁częściowo	-14539
▁dodatkowy	-14540
▁dyrektywę	-14541
▁naukowych	-14542
▁niebieski	-14543
▁niemiecki	-14544
▁określono	-14545
▁pańskiego	-14546
▁początkow	-14547
▁powiązane	-14548
▁pozostają	-14549
▁przeciągu	-14550
▁próbowała	-14551
▁telewizor	-14552
▁ustalania	-14553
▁wyglądała	-14554
▁wykonanie	-14555
▁wyobrażam	-14556
▁zaniepoko	-14557
▁zapomniał	-14558
▁zasilania	-14559
▁zobaczyła	-14560
▁zwolniony	-14561
▁Chwileczkę	-14562
▁Próbowałam	-14563
▁Wszystkich	-14564
▁Znajdziemy	-14565
▁burmistrza	-14566
▁błogosławi	-14567
▁dyrektywie	-14568
▁pojedziemy	-14569
▁sprawozdań	-14570
▁sprzedawać	-14571
▁uszczerbku	-14572
▁uwzględnić	-14573
▁wstrzykiwa	-14574
▁właściwego	-14575
▁zastrzelić	-14576
▁zniszczone	-14577
▁świadectwa	-14578
▁Powinniście	-14579
▁gospodarstw	-14580
▁jakikolwiek	-14581
▁policjantów	-14582
▁przypadkowo	-14583
▁szczepionki	-14584
▁niesamowicie	-14585
▁porozumienie	-14586
▁przyjmowania	-14587
▁szczególnych	-14588
▁zorganizować	-14589
▁niepełnospraw	-14590
▁zainteresowanie	-14591
.:	-14592
44	-14593
84	-14594
87	-14595
FO	-14596
NO	-14597
PO	-14598
Ro	-14599
yu	-14600
CAS	-14601
IDS	-14602
cle	-14603
dll	-14604
ess	-14605
fen	-14606
fik	-14607
ies	-14608
lah	-14609
mbH	-14610
mej	-14611
non	-14612
pet	-14613
phe	-14614
ras	-14615
rth	-14616
spa	-14617
óra	-14618
łaj	-14619
łak	-14620
▁55	-14621
▁56	-14622
▁87	-14623
▁EK	-14624
▁OP	-14625
▁tk	-14626
OŚCI	-14627
bara	-14628
cali	-14629
doba	-14630
gnaj	-14631
góle	-14632
kady	-14633
leya	-14634
ming	-14635
nard	-14636
nell	-14637
owbo	-14638
rolu	-14639
sier	-14640
skop	-14641
szny	-14642
tale	-14643
tech	-14644
vent	-14645
vera	-14646
wall	-14647
wimy	-14648
zani	-14649
ńczę	-14650
ższy	-14651
▁91/	-14652
▁Ala	-14653
▁Noc	-14654
▁Odd	-14655
▁PKB	-14656
▁Psy	-14657
▁Que	-14658
▁Sar	-14659
▁Sum	-14660
▁dno	-14661
▁fru	-14662
▁hip	-14663
▁raj	-14664
▁wyw	-14665
akomi	-14666
andor	-14667
ansas	-14668
chają	-14669
dorów	-14670
dzcie	-14671
manem	-14672
night	-14673
nijmy	-14674
poety	-14675
rzały	-14676
siadł	-14677
stanu	-14678
tałaś	-14679
tetem	-14680
twier	-14681
westy	-14682
▁1993	-14683
▁1998	-14684
▁Cami	-14685
▁Clay	-14686
▁Daję	-14687
▁Demo	-14688
▁Domu	-14689
▁Dora	-14690
▁GmbH	-14691
▁Gość	-14692
▁Jaką	-14693
▁Joan	-14694
▁Kirk	-14695
▁Lady	-14696
▁Obej	-14697
▁Ocze	-14698
▁Ojca	-14699
▁Pole	-14700
▁Poma	-14701
▁Prin	-14702
▁Rusz	-14703
▁Stąd	-14704
▁Toby	-14705
▁Well	-14706
▁Wsta	-14707
▁awar	-14708
▁brał	-14709
▁cias	-14710
▁halu	-14711
▁koka	-14712
▁kule	-14713
▁kwot	-14714
▁maka	-14715
▁nast	-14716
▁noce	-14717
▁okay	-14718
▁plam	-14719
▁pozd	-14720
▁reki	-14721
▁rzut	-14722
▁tłum	-14723
▁winę	-14724
▁wzbu	-14725
▁zwró	-14726
Jestem	-14727
chczas	-14728
cisnąć	-14729
lizuje	-14730
nowana	-14731
szości	-14732
teczny	-14733
tysfak	-14734
zowane	-14735
▁Adres	-14736
▁Booth	-14737
▁Bycie	-14738
▁Herku	-14739
▁Katie	-14740
▁Liczę	-14741
▁Mieli	-14742
▁Norma	-14743
▁North	-14744
▁Począ	-14745
▁Shawn	-14746
▁Szuka	-14747
▁Tracy	-14748
▁Załóż	-14749
▁bryty	-14750
▁dzwoń	-14751
▁gluko	-14752
▁hiper	-14753
▁jedzą	-14754
▁kurwy	-14755
▁miewa	-14756
▁mocne	-14757
▁mądra	-14758
▁niemi	-14759
▁noszą	-14760
▁obraż	-14761
▁pocią	-14762
▁podle	-14763
▁potom	-14764
▁scenę	-14765
▁tacie	-14766
▁tyłki	-14767
▁ufasz	-14768
▁ułoży	-14769
▁zamek	-14770
▁zawał	-14771
▁Łatwo	-14772
▁Świąt	-14773
▁ściga	-14774
▁śwież	-14775
struktu	-14776
szczone	-14777
▁Dostar	-14778
▁Dostęp	-14779
▁Isabel	-14780
▁Mickey	-14781
▁Minęło	-14782
▁Mogłeś	-14783
▁Palmer	-14784
▁Polski	-14785
▁Sędzia	-14786
▁Wiadom	-14787
▁aplika	-14788
▁bliska	-14789
▁chodzę	-14790
▁ciężka	-14791
▁dotyka	-14792
▁dzieło	-14793
▁fundam	-14794
▁głosów	-14795
▁idiota	-14796
▁imiona	-14797
▁katoli	-14798
▁kolana	-14799
▁koncer	-14800
▁kumpla	-14801
▁motywa	-14802
▁nadaje	-14803
▁nazwał	-14804
▁obozie	-14805
▁odwagę	-14806
▁pojadę	-14807
▁pokera	-14808
▁potwór	-14809
▁pranie	-14810
▁prawną	-14811
▁prostą	-14812
▁rządzi	-14813
▁rękami	-14814
▁siedzę	-14815
▁stawia	-14816
▁studen	-14817
▁wiedza	-14818
▁wiedzę	-14819
▁wierze	-14820
▁zadzie	-14821
▁zajebi	-14822
▁zdobył	-14823
bierzemy	-14824
chowywać	-14825
częściej	-14826
praszamy	-14827
▁Czekamy	-14828
▁General	-14829
▁Niezbyt	-14830
▁Pacjent	-14831
▁Pamięta	-14832
▁Projekt	-14833
▁Przyjem	-14834
▁Również	-14835
▁Seattle	-14836
▁Sprawia	-14837
▁Vincent	-14838
▁Wnioski	-14839
▁Zgadzam	-14840
▁Zostały	-14841
▁akademi	-14842
▁bezrobo	-14843
▁błędzie	-14844
▁czwarty	-14845
▁dostaję	-14846
▁dowódca	-14847
▁drużynę	-14848
▁dziadka	-14849
▁gospoda	-14850
▁herbatę	-14851
▁jeziora	-14852
▁klienci	-14853
▁lekarzy	-14854
▁musiały	-14855
▁nowotwo	-14856
▁oszukać	-14857
▁pokazał	-14858
▁poradzi	-14859
▁potrakt	-14860
▁pozycją	-14861
▁przyjaz	-14862
▁sprząta	-14863
▁tęsknię	-14864
▁tłuszcz	-14865
▁uciekła	-14866
▁wracają	-14867
▁wskazać	-14868
▁wybaczy	-14869
▁wybrany	-14870
▁wymogów	-14871
▁wynająć	-14872
▁wyprodu	-14873
▁wysokie	-14874
▁zabójcy	-14875
▁zdarzyć	-14876
▁zgłosił	-14877
▁zrealiz	-14878
▁Michaela	-14879
▁Myślałeś	-14880
▁ROZDZIAŁ	-14881
▁areszcie	-14882
▁baseball	-14883
▁dobranoc	-14884
▁doskonał	-14885
▁funduszu	-14886
▁historyj	-14887
▁jakbyśmy	-14888
▁kawałków	-14889
▁komisarz	-14890
▁kościele	-14891
▁ludności	-14892
▁mistrzem	-14893
▁odchodzi	-14894
▁państwie	-14895
▁podobało	-14896
▁powrocie	-14897
▁prostytu	-14898
▁przebieg	-14899
▁przebywa	-14900
▁próbować	-14901
▁rodzajów	-14902
▁straszna	-14903
▁słuchasz	-14904
▁traktatu	-14905
▁urodziła	-14906
▁wydarzeń	-14907
▁własność	-14908
▁zarzutów	-14909
▁zastąpić	-14910
▁zatrzyma	-14911
▁życzenia	-14912
▁Ostrożnie	-14913
▁Pójdziesz	-14914
▁Widocznie	-14915
▁Wspaniale	-14916
▁atmosfery	-14917
▁bylibyśmy	-14918
▁istnienia	-14919
▁jednoczes	-14920
▁kontakcie	-14921
▁kryminali	-14922
▁kryteriów	-14923
▁lekarstwa	-14924
▁niniejszą	-14925
▁podobnego	-14926
▁powtarzać	-14927
▁powtórzyć	-14928
▁pozwolisz	-14929
▁prowincji	-14930
▁tajemnice	-14931
▁tłumaczyć	-14932
▁wdzięczna	-14933
▁wskazówki	-14934
▁wychodził	-14935
▁zajmujesz	-14936
▁zakażenia	-14937
▁zapalenia	-14938
▁zatrudnia	-14939
▁zniszczył	-14940
kraczającej	-14941
▁Zostaniesz	-14942
▁chcieliśmy	-14943
▁dotychczas	-14944
▁dyrektorem	-14945
▁dzisiejszy	-14946
▁helikopter	-14947
▁kimkolwiek	-14948
▁komputerze	-14949
▁lotniczego	-14950
▁nielegalne	-14951
▁niewielkie	-14952
▁opakowania	-14953
▁pieprzonym	-14954
▁policjanta	-14955
▁preparatem	-14956
▁przeciwnie	-14957
▁publicznym	-14958
▁sprowadzić	-14959
▁spóźnienie	-14960
▁zaczęliśmy	-14961
▁dochodzenie	-14962
▁dowiedziała	-14963
▁przewidzieć	-14964
▁spowodowało	-14965
▁uszkodzenia	-14966
▁zmieniające	-14967
▁konsekwencji	-14968
▁nauczycielem	-14969
▁podejrzanych	-14970
▁politycznych	-14971
▁powierzchnię	-14972
▁przedsięwzię	-14973
▁Rozmawialiśmy	-14974
▁odpowiedniego	-14975
▁ubezpieczenia	-14976
==	-14977
Ar	-14978
Mi	-14979
My	-14980
Wi	-14981
”;	-14982
-1,	-14983
YST	-14984
cci	-14985
ggy	-14986
gół	-14987
ida	-14988
nty	-14989
obo	-14990
ple	-14991
str	-14992
www	-14993
zek	-14994
▁43	-14995
▁SZ	-14996
▁Zn	-14997
▁ós	-14998
arda	-14999
dith	-15000
jską	-15001
kana	-15002
lonu	-15003
mion	-15004
ronu	-15005
synu	-15006
ther	-15007
tnam	-15008
vers	-15009
zane	-15010
▁125	-15011
▁Ami	-15012
▁Bul	-15013
▁Hei	-15014
▁Hmm	-15015
▁Int	-15016
▁Lex	-15017
▁Lie	-15018
▁Pad	-15019
▁Rey	-15020
▁Swe	-15021
▁Tek	-15022
▁Whe	-15023
▁Zmu	-15024
▁baw	-15025
▁bre	-15026
▁drę	-15027
▁głą	-15028
▁pęk	-15029
▁teś	-15030
▁wid	-15031
anami	-15032
ałbyś	-15033
czamy	-15034
downi	-15035
dzała	-15036
dziel	-15037
kałeś	-15038
kiwać	-15039
ktach	-15040
lację	-15041
lektu	-15042
locie	-15043
logia	-15044
miewa	-15045
ninem	-15046
przez	-15047
roksy	-15048
stone	-15049
▁Arth	-15050
▁Gord	-15051
▁Insu	-15052
▁Judy	-15053
▁Karl	-15054
▁Kent	-15055
▁Moją	-15056
▁Oliv	-15057
▁Otwo	-15058
▁Połą	-15059
▁Spad	-15060
▁Spoj	-15061
▁Służ	-15062
▁Wzię	-15063
▁alar	-15064
▁babe	-15065
▁chem	-15066
▁chwa	-15067
▁figu	-15068
▁gnia	-15069
▁holo	-15070
▁iden	-15071
▁kabi	-15072
▁kciu	-15073
▁knaj	-15074
▁kuli	-15075
▁kulę	-15076
▁kura	-15077
▁nume	-15078
▁odży	-15079
▁plus	-15080
▁rewi	-15081
▁rytu	-15082
▁skru	-15083
▁sreb	-15084
▁sufi	-15085
▁swym	-15086
▁time	-15087
▁zawa	-15088
▁zbie	-15089
▁zbóż	-15090
▁łapy	-15091
dowych	-15092
siadaj	-15093
stępie	-15094
szyłeś	-15095
tajcie	-15096
torowi	-15097
wiązać	-15098
▁Jacob	-15099
▁Jedną	-15100
▁Konie	-15101
▁Korzy	-15102
▁Matth	-15103
▁Norwe	-15104
▁Rzymu	-15105
▁Saint	-15106
▁Stand	-15107
▁bawią	-15108
▁cycki	-15109
▁czują	-15110
▁denty	-15111
▁dozwo	-15112
▁karta	-15113
▁klasa	-15114
▁kurew	-15115
▁liter	-15116
▁moczu	-15117
[...]
